{
  "version": "1.0",
  "truncation": null,
  "padding": null,
  "added_tokens": [
    {
      "id": 0,
      "content": "[UNK]",
      "single_word": false,
      "lstrip": false,
      "rstrip": false,
      "normalized": false,
      "special": true
    }
  ],
  "normalizer": null,
  "pre_tokenizer": {
    "type": "Metaspace",
    "replacement": "▁",
    "prepend_scheme": "never",
    "split": true
  },
  "post_processor": null,
  "decoder": {
    "type": "Metaspace",
    "replacement": "▁",
    "prepend_scheme": "never",
    "split": true
  },
  "model": {
    "type": "BPE",
    "dropout": null,
    "unk_token": "[UNK]",
    "continuing_subword_prefix": null,
    "end_of_word_suffix": null,
    "fuse_unk": false,
    "byte_fallback": false,
    "ignore_merges": false,
    "vocab": {
      "[UNK]": 0,
      "\n": 1,
      "!": 2,
      "\"": 3,
      "#": 4,
      "$": 5,
      "%": 6,
      "&": 7,
      "'": 8,
      "(": 9,
      ")": 10,
      "*": 11,
      "+": 12,
      ",": 13,
      "-": 14,
      ".": 15,
      "/": 16,
      "0": 17,
      "1": 18,
      "2": 19,
      "3": 20,
      "4": 21,
      "5": 22,
      "6": 23,
      "7": 24,
      "8": 25,
      "9": 26,
      ":": 27,
      ";": 28,
      "<": 29,
      "=": 30,
      ">": 31,
      "?": 32,
      "A": 33,
      "B": 34,
      "C": 35,
      "D": 36,
      "E": 37,
      "F": 38,
      "G": 39,
      "H": 40,
      "I": 41,
      "J": 42,
      "K": 43,
      "L": 44,
      "M": 45,
      "N": 46,
      "O": 47,
      "P": 48,
      "Q": 49,
      "R": 50,
      "S": 51,
      "T": 52,
      "U": 53,
      "V": 54,
      "W": 55,
      "X": 56,
      "Y": 57,
      "Z": 58,
      "[": 59,
      "\\": 60,
      "]": 61,
      "^": 62,
      "_": 63,
      "`": 64,
      "a": 65,
      "b": 66,
      "c": 67,
      "d": 68,
      "e": 69,
      "f": 70,
      "g": 71,
      "h": 72,
      "i": 73,
      "j": 74,
      "k": 75,
      "l": 76,
      "m": 77,
      "n": 78,
      "o": 79,
      "p": 80,
      "q": 81,
      "r": 82,
      "s": 83,
      "t": 84,
      "u": 85,
      "v": 86,
      "w": 87,
      "x": 88,
      "y": 89,
      "z": 90,
      "{": 91,
      "|": 92,
      "}": 93,
      "~": 94,
      "°": 95,
      "·": 96,
      "Ö": 97,
      "á": 98,
      "â": 99,
      "æ": 100,
      "ç": 101,
      "è": 102,
      "é": 103,
      "í": 104,
      "ñ": 105,
      "ö": 106,
      "ü": 107,
      "ā": 108,
      "ī": 109,
      "İ": 110,
      "Ś": 111,
      "ś": 112,
      "ū": 113,
      "ș": 114,
      "ə": 115,
      "ɦ": 116,
      "ɪ": 117,
      "ɾ": 118,
      "ʊ": 119,
      "ʱ": 120,
      "ʼ": 121,
      "ˈ": 122,
      "ː": 123,
      "ί": 124,
      "α": 125,
      "δ": 126,
      "θ": 127,
      "ν": 128,
      "π": 129,
      "ς": 130,
      "ό": 131,
      "ँ": 132,
      "ं": 133,
      "ः": 134,
      "अ": 135,
      "आ": 136,
      "इ": 137,
      "ई": 138,
      "उ": 139,
      "ऊ": 140,
      "ऋ": 141,
      "ऍ": 142,
      "ए": 143,
      "ऐ": 144,
      "ऑ": 145,
      "ओ": 146,
      "औ": 147,
      "क": 148,
      "ख": 149,
      "ग": 150,
      "घ": 151,
      "ङ": 152,
      "च": 153,
      "छ": 154,
      "ज": 155,
      "झ": 156,
      "ञ": 157,
      "ट": 158,
      "ठ": 159,
      "ड": 160,
      "ढ": 161,
      "ण": 162,
      "त": 163,
      "थ": 164,
      "द": 165,
      "ध": 166,
      "न": 167,
      "ऩ": 168,
      "प": 169,
      "फ": 170,
      "ब": 171,
      "भ": 172,
      "म": 173,
      "य": 174,
      "र": 175,
      "ल": 176,
      "ळ": 177,
      "व": 178,
      "श": 179,
      "ष": 180,
      "स": 181,
      "ह": 182,
      "ऻ": 183,
      "़": 184,
      "ऽ": 185,
      "ा": 186,
      "ि": 187,
      "ी": 188,
      "ु": 189,
      "ू": 190,
      "ृ": 191,
      "े": 192,
      "ै": 193,
      "ॉ": 194,
      "ॊ": 195,
      "ो": 196,
      "ौ": 197,
      "्": 198,
      "॔": 199,
      "।": 200,
      "०": 201,
      "१": 202,
      "२": 203,
      "३": 204,
      "४": 205,
      "५": 206,
      "६": 207,
      "७": 208,
      "८": 209,
      "९": 210,
      "॰": 211,
      "ం": 212,
      "ః": 213,
      "అ": 214,
      "ఆ": 215,
      "ఇ": 216,
      "ఈ": 217,
      "ఉ": 218,
      "ఋ": 219,
      "ఎ": 220,
      "ఏ": 221,
      "ఐ": 222,
      "ఒ": 223,
      "ఓ": 224,
      "ఔ": 225,
      "క": 226,
      "ఖ": 227,
      "గ": 228,
      "ఘ": 229,
      "చ": 230,
      "ఛ": 231,
      "జ": 232,
      "ఞ": 233,
      "ట": 234,
      "ఠ": 235,
      "డ": 236,
      "ఢ": 237,
      "ణ": 238,
      "త": 239,
      "థ": 240,
      "ద": 241,
      "ధ": 242,
      "న": 243,
      "ప": 244,
      "ఫ": 245,
      "బ": 246,
      "భ": 247,
      "మ": 248,
      "య": 249,
      "ర": 250,
      "ల": 251,
      "ళ": 252,
      "వ": 253,
      "శ": 254,
      "ష": 255,
      "స": 256,
      "హ": 257,
      "ా": 258,
      "ి": 259,
      "ీ": 260,
      "ు": 261,
      "ూ": 262,
      "ృ": 263,
      "ె": 264,
      "ే": 265,
      "ై": 266,
      "ొ": 267,
      "ో": 268,
      "ౌ": 269,
      "్": 270,
      "ṅ": 271,
      "ṇ": 272,
      "Ṛ": 273,
      "ṣ": 274,
      "ṭ": 275,
      "Ἰ": 276,
      " ": 277,
      " ": 278,
      "‌": 279,
      "‍": 280,
      "‎": 281,
      "–": 282,
      "—": 283,
      "‘": 284,
      "’": 285,
      "“": 286,
      "”": 287,
      "†": 288,
      "•": 289,
      "′": 290,
      "″": 291,
      "‹": 292,
      "›": 293,
      "⁡": 294,
      "₹": 295,
      "↑": 296,
      "−": 297,
      "ⓘ": 298,
      "▁": 299,
      "﻿": 300,
      "wi": 301,
      "ki": 302,
      "wiki": 303,
      "ia": 304,
      "dia": 305,
      "or": 306,
      "tt": 307,
      "](": 308,
      "pe": 309,
      ":/": 310,
      "htt": 311,
      "http": 312,
      "://": 313,
      "https": 314,
      "https://": 315,
      "](https://": 316,
      "g/": 317,
      ".or": 318,
      ".org/": 319,
      "pedia": 320,
      ".wiki": 321,
      ".org/wiki": 322,
      ".org/wiki/": 323,
      ".wikipedia": 324,
      ".wikipedia.org/wiki/": 325,
      "▁[": 326,
      "en": 327,
      "te": 328,
      "▁\"": 329,
      "\")": 330,
      "in": 331,
      "an": 332,
      "on": 333,
      "In": 334,
      "ti": 335,
      "th": 336,
      "](https://en": 337,
      "](https://en.wikipedia.org/wiki/": 338,
      "India": 339,
      "er": 340,
      "ar": 341,
      "20": 342,
      "al": 343,
      "es": 344,
      "hi": 345,
      "▁|": 346,
      "re": 347,
      "of": 348,
      "ार": 349,
      "is": 350,
      "tion": 351,
      "the": 352,
      "्र": 353,
      "▁क": 354,
      "](https://hi": 355,
      "](https://hi.wikipedia.org/wiki/": 356,
      "ci": 357,
      "ed": 358,
      "om": 359,
      "and": 360,
      "▁-": 361,
      "్ర": 362,
      "it": 363,
      "▁of": 364,
      "▁the": 365,
      "te_": 366,
      "](https://te": 367,
      "](https://te.wikipedia.org/wiki/": 368,
      "▁(": 369,
      "ou": 370,
      "#ci": 371,
      "#cite_": 372,
      "भार": 373,
      "भारत": 374,
      "as": 375,
      "](https://en.wikipedia.org/wiki/India": 376,
      "ార": 377,
      "▁स": 378,
      "201": 379,
      "ic": 380,
      "▁India": 381,
      "le": 382,
      "19": 383,
      "OT": 384,
      "▁in": 385,
      "oo": 386,
      "id": 387,
      "no": 388,
      "ra": 389,
      "ent": 390,
      "](https://en.wikipedia.org/wiki/India#cite_": 391,
      "▁s": 392,
      "्य": 393,
      "▁म": 394,
      "▁and": 395,
      "**": 396,
      "ate": 397,
      "ాల": 398,
      "▁p": 399,
      "-0": 400,
      "200": 401,
      "ri": 402,
      "et": 403,
      "ation": 404,
      "ac": 405,
      "ing": 406,
      "▁c": 407,
      "్య": 408,
      "रा": 409,
      "am": 410,
      "us": 411,
      "▁प": 412,
      "at": 413,
      "\\_": 414,
      "▁A": 415,
      "▁C": 416,
      "ag": 417,
      "భార": 418,
      "భారత": 419,
      "-1": 420,
      "దే": 421,
      "ान": 422,
      "ref": 423,
      "దేశ": 424,
      "స్": 425,
      ").": 426,
      "▁S": 427,
      "note": 428,
      "▁f": 429,
      "ook": 430,
      "▁ప": 431,
      "ang": 432,
      "[[": 433,
      "ad": 434,
      "\n\n": 435,
      "्त": 436,
      "▁b": 437,
      "▁t": 438,
      "సా": 439,
      "ref-": 440,
      "note-": 441,
      "li": 442,
      "lo": 443,
      "ve": 444,
      "र्": 445,
      "ర్": 446,
      "78": 447,
      "ur": 448,
      "ें": 449,
      "న్": 450,
      "ma": 451,
      "um": 452,
      "ist": 453,
      "▁P": 454,
      "▁के": 455,
      "\"),": 456,
      "ver": 457,
      "या": 458,
      "▁ह": 459,
      "](https://hi.wikipedia.org/wiki/भारत": 460,
      "ul": 461,
      "of_": 462,
      "com": 463,
      "_of_": 464,
      "ch": 465,
      "▁1": 466,
      "IS": 467,
      "we": 468,
      "FO": 469,
      "lin": 470,
      "NOT": 471,
      "he": 472,
      "OTNOT": 473,
      "FOOTNOT": 474,
      "FOOTNOTE": 475,
      "ial": 476,
      "ro": 477,
      "ww": 478,
      "▁m": 479,
      "ce": 480,
      "978": 481,
      "BN": 482,
      "il": 483,
      "ISBN": 484,
      "st": 485,
      "िक": 486,
      "▁[↑": 487,
      "ory": 488,
      "red": 489,
      "లు": 490,
      "▁w": 491,
      "▁d": 492,
      "రా": 493,
      "un": 494,
      "00": 495,
      "our": 496,
      "ter": 497,
      "]](https://en.wikipedia.org/wiki/India#cite_": 498,
      "▁201": 499,
      "ीय": 500,
      "fi": 501,
      "ons": 502,
      "](https://en.wikipedia.org/wiki/India#cite_ref-": 503,
      "]](https://en.wikipedia.org/wiki/India#cite_note-": 504,
      "▁अ": 505,
      "▁T": 506,
      ".\n": 507,
      "enti": 508,
      "ol": 509,
      "21": 510,
      "tic": 511,
      "=1": 512,
      "భారతదేశ": 513,
      "link": 514,
      "▁R": 515,
      "▁M": 516,
      "edit": 517,
      "action": 518,
      ".శ": 519,
      ".శ.": 520,
      "లో": 521,
      "identi": 522,
      "action=": 523,
      "సా.శ.": 524,
      "action=edit": 525,
      "fier": 526,
      "identifier": 527,
      "&red": 528,
      "?action=edit": 529,
      "link=1": 530,
      "&redlink=1": 531,
      "?action=edit&redlink=1": 532,
      "▁|\n": 533,
      "▁**": 534,
      "▁|\n|": 535,
      "▁में": 536,
      "▁to": 537,
      "▁క": 538,
      "identifier)": 539,
      "-0)": 540,
      "ment": 541,
      "िया": 542,
      "chi": 543,
      "▁a": 544,
      "न्": 545,
      "web": 546,
      "res": 547,
      "త్ర": 548,
      "es/": 549,
      "ాలు": 550,
      "book": 551,
      "age": 552,
      "ाल": 553,
      "▁B": 554,
      "cial": 555,
      "ig": 556,
      "రి": 557,
      "em": 558,
      "्ष": 559,
      "క్": 560,
      "ni": 561,
      "ంద": 562,
      "वि": 563,
      "ों": 564,
      "s.": 565,
      "23": 566,
      "pg": 567,
      "ेश": 568,
      "ని": 569,
      "▁వ": 570,
      "25": 571,
      "▁ज": 572,
      "▁D": 573,
      "ना": 574,
      "▁द": 575,
      "),": 576,
      "10": 577,
      "भा": 578,
      "_(": 579,
      "▁l": 580,
      ".j": 581,
      "▁\"S": 582,
      "ity": 583,
      "angu": 584,
      "ir": 585,
      "26": 586,
      "▁India\")": 587,
      "sia": 588,
      "IT": 589,
      "त्र": 590,
      "ind": 591,
      "24": 592,
      "_क": 593,
      "ల్": 594,
      "राज": 595,
      "భారతదేశం": 596,
      "ay": 597,
      "▁[↑](https://en.wikipedia.org/wiki/India#cite_ref-": 598,
      "ly": 599,
      "ER": 600,
      ".com": 601,
      "pecial": 602,
      "ec": 603,
      "EF": 604,
      "▁है": 605,
      "ITER": 606,
      "ంగ": 607,
      "ITEREF": 608,
      "·**": 609,
      "india": 610,
      "▁**·**": 611,
      "▁E": 612,
      "ourc": 613,
      "▁స": 614,
      "ion": 615,
      "](https://hi.wikipedia.org/wiki/भारत#cite_": 616,
      ".com/": 617,
      "्व": 618,
      "me": 619,
      "▁మ": 620,
      "pecial:": 621,
      "_India": 622,
      "\").": 623,
      "▁*": 624,
      "ला": 625,
      "199": 626,
      "▁प्र": 627,
      "ld": 628,
      "al_": 629,
      "oun": 630,
      "్రా": 631,
      "Uni": 632,
      "▁भारत": 633,
      "ता": 634,
      "▁h": 635,
      "▁ब": 636,
      "ंग": 637,
      "go": 638,
      "ources/": 639,
      "ति": 640,
      "Book": 641,
      "up": 642,
      "ved": 643,
      "्ट": 644,
      "ber": 645,
      "28": 646,
      "#C": 647,
      "Sources/": 648,
      "tu": 649,
      "ీయ": 650,
      "▁e": 651,
      "pecial:Book": 652,
      "pecial:BookSources/": 653,
      "और": 654,
      "outh": 655,
      "mai": 656,
      "#CITEREF": 657,
      "▁G": 658,
      "▁H": 659,
      "▁N": 660,
      "_स": 661,
      "](https://mai": 662,
      "rom": 663,
      "ండ": 664,
      "▁न": 665,
      "pecial:BookSources/978": 666,
      "](https://mai.wikipedia.org/wiki/": 667,
      "gory": 668,
      "ategory": 669,
      "for": 670,
      "▁की": 671,
      "_in": 672,
      "-3": 673,
      "cal": 674,
      "्रे": 675,
      "_S": 676,
      "▁•": 677,
      "ategory:": 678,
      "-4": 679,
      "ry": 680,
      "op": 681,
      "జ్య": 682,
      "sh": 683,
      "▁से": 684,
      "www": 685,
      "षा": 686,
      "▁చ": 687,
      "11": 688,
      "el": 689,
      "50": 690,
      "ి.": 691,
      "www.": 692,
      "తా": 693,
      "▁on": 694,
      "▁और": 695,
      "_A": 696,
      "ew": 697,
      "स्त": 698,
      "ము": 699,
      "anguage": 700,
      "నా": 701,
      "ary": 702,
      "్ట": 703,
      "vers": 704,
      "\n-": 705,
      "తి": 706,
      "▁20": 707,
      "▁re": 708,
      "▁का": 709,
      "ित": 710,
      "न्द": 711,
      "archi": 712,
      "ub": 713,
      "▁th": 714,
      "-0-": 715,
      "▁\"भारत": 716,
      "](https://en.wikipedia.org/wiki/India#CITEREF": 717,
      "mp": 718,
      "ab": 719,
      "भाषा": 720,
      "సి": 721,
      "calf": 722,
      "rit": 723,
      "▁200": 724,
      "ast": 725,
      "త్": 726,
      "▁आ": 727,
      "etcalf": 728,
      "ak": 729,
      "ge": 730,
      "ish": 731,
      "राज्य": 732,
      "22": 733,
      "ास": 734,
      "▁व": 735,
      "▁or": 736,
      "30": 737,
      "The": 738,
      "18": 739,
      "▁n": 740,
      "con": 741,
      "क्ष": 742,
      "ted": 743,
      "archive": 744,
      "n_": 745,
      "▁[S": 746,
      "-8": 747,
      ".in": 748,
      "_of_India": 749,
      "--": 750,
      "est": 751,
      "od": 752,
      "▁J": 753,
      ".jpg": 754,
      "▁---": 755,
      "▁(సా.శ.": 756,
      "ress": 757,
      "▁19": 758,
      "▁from": 759,
      "]](https://en.wikipedia.org/wiki/India#cite_note-FOOTNOTE": 760,
      "యా": 761,
      "▁F": 762,
      "ులు": 763,
      "▁రా": 764,
      "ct": 765,
      "gh": 766,
      "देश": 767,
      "▁.": 768,
      "–సా.శ.": 769,
      "▁(identifier)": 770,
      "_(identifier)": 771,
      "▁(identifier)\")": 772,
      ".[[": 773,
      "29": 774,
      "List": 775,
      "▁అ": 776,
      "ep": 777,
      "▁by": 778,
      "ount": 779,
      "orld": 780,
      "ust": 781,
      "▁In": 782,
      "http://": 783,
      "▁for": 784,
      "15": 785,
      "ud": 786,
      "▁[\"": 787,
      "▁ప్ర": 788,
      "archive.org/": 789,
      "40": 790,
      "ిక": 791,
      "im": 792,
      "Metcalf": 793,
      "पु": 794,
      "स्": 795,
      "తం": 796,
      "▁g": 797,
      "13": 798,
      "with": 799,
      "▁त": 800,
      "▁p.": 801,
      "ational": 802,
      "ain": 803,
      "▁ar": 804,
      "▁\"C": 805,
      "17": 806,
      "▁is": 807,
      "web.": 808,
      "versity": 809,
      "AA": 810,
      "os": 811,
      "ిన": 812,
      "](https://web.": 813,
      "▁[A": 814,
      "జ్యం": 815,
      "मा": 816,
      "web/": 817,
      "archive.org/web/": 818,
      "](https://web.archive.org/web/": 819,
      "ens": 820,
      "16": 821,
      "ha": 822,
      "ची": 823,
      "री": 824,
      "](https://en.wikipedia.org/wiki/S": 825,
      "books": 826,
      "▁./": 827,
      "goo": 828,
      "har": 829,
      "umb": 830,
      "gle": 831,
      "ts": 832,
      "▁ग": 833,
      "27": 834,
      "జా": 835,
      "▁Indian": 836,
      "_and": 837,
      "णी": 838,
      "Har": 839,
      "err": 840,
      "ంచ": 841,
      "కు": 842,
      "id=": 843,
      "था": 844,
      "▁O": 845,
      "##": 846,
      "_C": 847,
      "ड़": 848,
      "ष्ट": 849,
      "](https://te.wikipedia.org/wiki/భారతదేశం": 850,
      ".jpg)": 851,
      "▁L": 852,
      "'s": 853,
      "google": 854,
      "error": 855,
      "ను": 856,
      "పూ": 857,
      "14": 858,
      "?id=": 859,
      "late": 860,
      "భా": 861,
      "▁[ISBN": 862,
      "books.": 863,
      ".com/books": 864,
      "_in_India": 865,
      "google.com/books": 866,
      "books.google.com/books": 867,
      "-9": 868,
      "▁[C": 869,
      "▁Asia": 870,
      "books.google.com/books?id=": 871,
      "▁K": 872,
      "ap": 873,
      "_P": 874,
      "ప్ర": 875,
      "▁\"ISBN": 876,
      "ISBN_(identifier)": 877,
      "gov": 878,
      "*.": 879,
      "ng": 880,
      "▁W": 881,
      "▁उ": 882,
      "▁[978": 883,
      "inal": 884,
      "▁को": 885,
      "ाद": 886,
      "ద్": 887,
      "ింద": 888,
      "\"))": 889,
      "▁ए": 890,
      "](https://en.wikipedia.org/wiki/C": 891,
      "ष्ट्र": 892,
      "mons": 893,
      "nd": 894,
      "px": 895,
      "media": 896,
      "av": 897,
      "uc": 898,
      "▁ఉ": 899,
      "का": 900,
      "ం:": 901,
      "▁([": 902,
      "ut": 903,
      "हि": 904,
      "](https://books.google.com/books?id=": 905,
      "▁[म": 906,
      "▁The": 907,
      ".gov": 908,
      "श्रे": 909,
      "University": 910,
      "▁सं": 911,
      "श्रेणी": 912,
      "▁ఆ": 913,
      "▁\"M": 914,
      "ther": 915,
      "]](https://hi.wikipedia.org/wiki/भारत#cite_": 916,
      "per": 917,
      "de": 918,
      "ff": 919,
      "ने": 920,
      "प्र": 921,
      "▁[*": 922,
      "do": 923,
      "श्रेणी:": 924,
      "िल": 925,
      "ेत्र": 926,
      "s/": 927,
      "](S": 928,
      "▁ర": 929,
      "▁पर": 930,
      "ort": 931,
      "ong": 932,
      "_म": 933,
      "load": 934,
      "▁[↑](https://en.wikipedia.org/wiki/India#cite_ref-FOOTNOTE": 935,
      "p.": 936,
      ".wikimedia": 937,
      "▁be": 938,
      "commons": 939,
      "upload": 940,
      "म्": 941,
      "మా": 942,
      "▁సా": 943,
      "భారతీయ": 944,
      "![": 945,
      "వా": 946,
      "▁[M": 947,
      "arg": 948,
      "umm": 949,
      "▁श": 950,
      "pedia/": 951,
      ".org/wikipedia/": 952,
      ".wikimedia.org/wikipedia/": 953,
      "upload.wikimedia.org/wikipedia/": 954,
      "over": 955,
      "ले": 956,
      "రు": 957,
      "](https://upload.wikimedia.org/wikipedia/": 958,
      "thumb": 959,
      "](https://en.wikipedia.org/wiki/M": 960,
      "ance": 961,
      "-2": 962,
      "/thumb": 963,
      "▁है।": 964,
      "/thumb/": 965,
      "सं": 966,
      "▁pp.": 967,
      "](https://upload.wikimedia.org/wikipedia/commons": 968,
      "Category:": 969,
      "s,": 970,
      "వి": 971,
      "ష్ట": 972,
      "▁वि": 973,
      "ార్": 974,
      "्या": 975,
      "పూ.": 976,
      "br": 977,
      "la": 978,
      "ence": 979,
      "క్ష": 980,
      "_के": 981,
      "▁orig": 982,
      "px-": 983,
      "](https://upload.wikimedia.org/wikipedia/commons/thumb/": 984,
      "ys": 985,
      "rie": 986,
      "िय": 987,
      "](https://en.wikipedia.org/wiki/ISBN_(identifier)": 988,
      "స్థ": 989,
      "రిత్ర": 990,
      ".in/": 991,
      "▁[ISBN](https://en.wikipedia.org/wiki/ISBN_(identifier)": 992,
      "47": 993,
      "PA": 994,
      "▁इ": 995,
      "▁[B": 996,
      "all": 997,
      "▁\"Special:BookSources/978": 998,
      "](Special:BookSources/978": 999,
      "a_": 1000,
      "ow": 1001,
      "▁\"B": 1002,
      "ans": 1003,
      ")[[": 1004,
      "35": 1005,
      "▁as": 1006,
      "ages": 1007,
      "di": 1008,
      "ot": 1009,
      "▁र": 1010,
      "und": 1011,
      "▁original": 1012,
      "-7": 1013,
      "cy": 1014,
      "ear": 1015,
      "lig": 1016,
      "న్న": 1017,
      "1.": 1018,
      "सा": 1019,
      "log": 1020,
      "tern": 1021,
      "-5": 1022,
      "art": 1023,
      "▁भाषा": 1024,
      "Harv": 1025,
      "▁I": 1026,
      "errors": 1027,
      "▁st": 1028,
      "36": 1029,
      "▁\"P": 1030,
      "](https://hi.wikipedia.org/wiki/भारत#cite_ref-": 1031,
      "]](https://hi.wikipedia.org/wiki/भारत#cite_note-": 1032,
      "%2": 1033,
      "aj": 1034,
      "▁with": 1035,
      "▁\"A": 1036,
      "राष्ट्र": 1037,
      "ensus": 1038,
      "%20": 1039,
      "2.": 1040,
      "_D": 1041,
      "त्त": 1042,
      "tein": 1043,
      "ture": 1044,
      "les": 1045,
      "land": 1046,
      "▁Ret": 1047,
      "emp": 1048,
      "&pg": 1049,
      "opul": 1050,
      "](https://te.wikipedia.org/wiki/భారతదేశం#cite_": 1051,
      "rieved": 1052,
      "▁Retrieved": 1053,
      "&pg=": 1054,
      "rchi": 1055,
      "ana": 1056,
      "र्व": 1057,
      "గా": 1058,
      "38": 1059,
      "og": 1060,
      "ంట": 1061,
      "కి": 1062,
      "ere": 1063,
      "_के_": 1064,
      "fn": 1065,
      "ss": 1066,
      "ore": 1067,
      "](https://en.wikipedia.org/wiki/B": 1068,
      "Indian": 1069,
      "्षेत्र": 1070,
      "conom": 1071,
      "_M": 1072,
      "మ్రా": 1073,
      "▁\"म": 1074,
      ".\n-": 1075,
      "](https://web.archive.org/web/201": 1076,
      "ష్ట్ర": 1077,
      ".p": 1078,
      "\")\n-": 1079,
      "omm": 1080,
      "\n\n##": 1081,
      "70": 1082,
      "ంత": 1083,
      "ummit": 1084,
      "ी](https://hi.wikipedia.org/wiki/": 1085,
      "titu": 1086,
      "▁सा": 1087,
      "ll": 1088,
      "ज़": 1089,
      "ine": 1090,
      "ates": 1091,
      "&pg=PA": 1092,
      "ile": 1093,
      "](https://en.wikipedia.org/wiki/P": 1094,
      ".jp": 1095,
      "_T": 1096,
      "ी_": 1097,
      "పు": 1098,
      "ht": 1099,
      "](http://": 1100,
      "▁\"T": 1101,
      "2006": 1102,
      "िस": 1103,
      "▁న": 1104,
      "ries": 1105,
      "2018": 1106,
      "opulation": 1107,
      "ric": 1108,
      "మి": 1109,
      "ాన": 1110,
      "▁University": 1111,
      "▁[P": 1112,
      "ism": 1113,
      "ass": 1114,
      "nment": 1115,
      "oc": 1116,
      "ue": 1117,
      "▁&": 1118,
      "2011": 1119,
      "जा": 1120,
      "ूची": 1121,
      "పా": 1122,
      "▁ఇ": 1123,
      "▁త": 1124,
      "భాష": 1125,
      "rchived": 1126,
      "ai": 1127,
      "पा": 1128,
      "ani": 1129,
      "▁*[": 1130,
      ".jpg/": 1131,
      "39": 1132,
      "nic": 1133,
      "कार": 1134,
      "▁no": 1135,
      "temp": 1136,
      "▁was": 1137,
      "48": 1138,
      "िम": 1139,
      "ubl": 1140,
      "language": 1141,
      "పాల": 1142,
      "లీ": 1143,
      "ord": 1144,
      "ank": 1145,
      "ard": 1146,
      "▁de": 1147,
      "स्तान": 1148,
      "*](https://books.google.com/books?id=": 1149,
      "60": 1150,
      "ire": 1151,
      "ke": 1152,
      "मन": 1153,
      "▁Category:": 1154,
      "indu": 1155,
      "/https://": 1156,
      "ंड": 1157,
      "▁దేశ": 1158,
      "▁\"E": 1159,
      "స్తా": 1160,
      "istory": 1161,
      "हिन्द": 1162,
      "गर": 1163,
      "▁ल": 1164,
      "▁language": 1165,
      "▁ex": 1166,
      "हा": 1167,
      "వర్": 1168,
      "ాయ": 1169,
      "▁an": 1170,
      "▁राज्य": 1171,
      "ी\")": 1172,
      "▁are": 1173,
      "यु": 1174,
      "-10": 1175,
      "tics": 1176,
      "anguages": 1177,
      "-6": 1178,
      "ies": 1179,
      "se": 1180,
      "](https://www.": 1181,
      "](https://en.wikipedia.org/wiki/A": 1182,
      "eral": 1183,
      "to": 1184,
      "▁भ": 1185,
      "ach": 1186,
      "_and_": 1187,
      "మ్రాజ్యం": 1188,
      "7.": 1189,
      "्च": 1190,
      "ont": 1191,
      "](https://en.wikipedia.org/wiki/E": 1192,
      "ations": 1193,
      "ountries": 1194,
      "0%": 1195,
      "▁\"D": 1196,
      "▁\"List": 1197,
      "దేశ్": 1198,
      "विश": 1199,
      "CS": 1200,
      "क्त": 1201,
      "ेल": 1202,
      "esh": 1203,
      "sher": 1204,
      "34": 1205,
      "9.": 1206,
      "ం](https://te.wikipedia.org/wiki/": 1207,
      "▁r": 1208,
      "▁\"G": 1209,
      "](https://en.wikipedia.org/wiki/T": 1210,
      "onstitu": 1211,
      "a\")": 1212,
      "als": 1213,
      "श्रेणी:Harv": 1214,
      "%2C": 1215,
      "ीप": 1216,
      "ంబ": 1217,
      "టి": 1218,
      "iss": 1219,
      "ंग्रे": 1220,
      "90": 1221,
      "ोल": 1222,
      "▁it": 1223,
      "▁क्षेत्र": 1224,
      "2010": 1225,
      ")\n\n": 1226,
      "Stein": 1227,
      "ంలో": 1228,
      "ian": 1229,
      "tem": 1230,
      "▁Press": 1231,
      "▁हैं": 1232,
      "స్తాన్": 1233,
      "_b": 1234,
      "धान": 1235,
      "List_of_": 1236,
      "vi": 1237,
      "గు": 1238,
      "డు": 1239,
      "నే": 1240,
      "్చ": 1241,
      "▁[G": 1242,
      "](https://en.wikipedia.org/wiki/D": 1243,
      "ical": 1244,
      "र्म": 1245,
      "▁whi": 1246,
      "AJ": 1247,
      "_G": 1248,
      "_R": 1249,
      "▁V": 1250,
      "ford": 1251,
      "4.": 1252,
      "BAJ": 1253,
      "QBAJ": 1254,
      "पर": 1255,
      "మూ": 1256,
      "▁\"N": 1257,
      "्रा": 1258,
      "్రీ": 1259,
      "_Asia": 1260,
      "udd": 1261,
      "జాత": 1262,
      "37": 1263,
      "45": 1264,
      "_N": 1265,
      "ex": 1266,
      "द्": 1267,
      "ृत": 1268,
      "▁[![": 1269,
      "▁मे": 1270,
      "ata": 1271,
      "_s": 1272,
      "aki": 1273,
      "hin": 1274,
      "other": 1275,
      "िण": 1276,
      "లా": 1277,
      "eng": 1278,
      "omp": 1279,
      "ంగా": 1280,
      "_B": 1281,
      "xford": 1282,
      "ers": 1283,
      "artic": 1284,
      "▁[↑](https://hi.wikipedia.org/wiki/भारत#cite_ref-": 1285,
      "econ": 1286,
      "46": 1287,
      "ven": 1288,
      "డ్": 1289,
      "ిల్": 1290,
      "▁జ": 1291,
      "tim": 1292,
      "ern": 1293,
      "ess": 1294,
      "arget": 1295,
      "RI": 1296,
      "hm": 1297,
      "ral": 1298,
      "िर": 1299,
      "ेष": 1300,
      "▁[अ": 1301,
      "tive": 1302,
      "-0-19": 1303,
      "3.": 1304,
      "ction": 1305,
      "oli": 1306,
      "कि": 1307,
      "లి": 1308,
      "▁१": 1309,
      "▁[N": 1310,
      "స్త్ర": 1311,
      "▁अन": 1312,
      "AAQBAJ": 1313,
      "htm": 1314,
      "ions": 1315,
      "वा": 1316,
      "▁[D": 1317,
      "▁\"अ": 1318,
      "lop": 1319,
      "stan": 1320,
      "df": 1321,
      "ib": 1322,
      "ik": 1323,
      "ం\")": 1324,
      "కా": 1325,
      "ణా": 1326,
      "దక్ష": 1327,
      "ధిక": 1328,
      "end": 1329,
      "▁\"स": 1330,
      "▁कर": 1331,
      "▁(P": 1332,
      "▁ప్రా": 1333,
      "▁వి": 1334,
      "సియా": 1335,
      "क्षिण": 1336,
      "జాతీయ": 1337,
      ",_": 1338,
      "-p": 1339,
      "6.": 1340,
      "au": 1341,
      "rou": 1342,
      "से": 1343,
      "MetcalfMetcalf": 1344,
      "1)": 1345,
      "5.": 1346,
      "▁[भारत": 1347,
      "▁\"R": 1348,
      "](https://hi.wikipedia.org/wiki/म": 1349,
      "▁సం": 1350,
      "▁చరిత్ర": 1351,
      "/http://": 1352,
      "77": 1353,
      "iv": 1354,
      "▁\"क": 1355,
      "](https://en.wikipedia.org/wiki/G": 1356,
      "](https://en.wikipedia.org/wiki/R": 1357,
      "ult": 1358,
      "india.gov": 1359,
      "49": 1360,
      "_p": 1361,
      "డి": 1362,
      "▁–": 1363,
      "ark": 1364,
      "riti": 1365,
      "ीय_": 1366,
      "indi": 1367,
      "cont": 1368,
      "ింది.": 1369,
      "▁which": 1370,
      "ंध": 1371,
      "धार": 1372,
      "▁[2": 1373,
      "▁[E": 1374,
      "▁[स": 1375,
      "ంధ": 1376,
      "](https://en.wikipedia.org/wiki/N": 1377,
      "his": 1378,
      "ame": 1379,
      "-1)": 1380,
      "ाना": 1381,
      "స్త": 1382,
      "▁2011": 1383,
      "▁రాజ్యం": 1384,
      "▁సామ్రాజ్యం": 1385,
      "వర్గ": 1386,
      "దక్షి": 1387,
      "ोत": 1388,
      "United": 1389,
      "▁एक": 1390,
      ")\")": 1391,
      "ope": 1392,
      "దీ": 1393,
      "▁[1": 1394,
      "ingh": 1395,
      "ండి": 1396,
      "ublic": 1397,
      "వర్గం:": 1398,
      "3)": 1399,
      "ath": 1400,
      "▁li": 1401,
      "▁[T": 1402,
      "](https://en.wikipedia.org/wiki/List_of_": 1403,
      "out": 1404,
      "▁South": 1405,
      "▁De": 1406,
      "▁ने": 1407,
      "8.": 1408,
      "DP": 1409,
      "cl": 1410,
      "ob": 1411,
      "भि": 1412,
      "తర": 1413,
      "వం": 1414,
      "▁బ": 1415,
      "▁[R": 1416,
      "▁[क": 1417,
      "▁\"ब": 1418,
      "territ": 1419,
      "DF": 1420,
      "bot": 1421,
      "fe": 1422,
      "ूल": 1423,
      "ोग": 1424,
      "▁ma": 1425,
      "ties": 1426,
      "icial": 1427,
      "▁India's": 1428,
      "250": 1429,
      "df)": 1430,
      "new": 1431,
      "ట్": 1432,
      "ిత": 1433,
      "▁पु": 1434,
      ").\n": 1435,
      "▁प्रदेश": 1436,
      "▁has": 1437,
      "▁that": 1438,
      "विशेष": 1439,
      "RICS": 1440,
      "सभ": 1441,
      "▁ति": 1442,
      "pend": 1443,
      "albot": 1444,
      "ree": 1445,
      "ous": 1446,
      "ational_": 1447,
      "\n\n[": 1448,
      "▁\"भारतीय": 1449,
      "▁[Archived": 1450,
      "2)": 1451,
      "_చ": 1452,
      "gen": 1453,
      "sv": 1454,
      "sland": 1455,
      "ty": 1456,
      "जन": 1457,
      "्स": 1458,
      "ది": 1459,
      "▁\"మ": 1460,
      "ration": 1461,
      "▁pro": 1462,
      "ange": 1463,
      "लेख": 1464,
      "▁(PDF": 1465,
      "56": 1466,
      "000": 1467,
      "ile:": 1468,
      "120": 1469,
      "4%": 1470,
      "80": 1471,
      "Asher": 1472,
      "E0%": 1473,
      "दी": 1474,
      "धिक": 1475,
      "▁य": 1476,
      "▁ఎ": 1477,
      "▁199": 1478,
      "▁[ब": 1479,
      "▁[మ": 1480,
      "inist": 1481,
      "ali": 1482,
      "▁(సా.శ.పూ.": 1483,
      "logy": 1484,
      "ंद": 1485,
      "ंत्र": 1486,
      "िट": 1487,
      "▁च": 1488,
      "्री": 1489,
      "▁जन": 1490,
      "▁भाषा\")": 1491,
      "File:": 1492,
      "_1": 1493,
      "ah": 1494,
      "eg": 1495,
      "iki": 1496,
      "थि": 1497,
      "मी": 1498,
      "ధ్య": 1499,
      "▁గ": 1500,
      "▁శ": 1501,
      "▁\"In": 1502,
      "aste": 1503,
      "rad": 1504,
      "ంద్ర": 1505,
      "ంది.": 1506,
      "▁देश": 1507,
      "ountry": 1508,
      ".pdf)": 1509,
      "onstitution": 1510,
      "विशेष:": 1511,
      "ूर्व": 1512,
      "▁\"H": 1513,
      "velop": 1514,
      "AAQBAJ&pg=PA": 1515,
      "..": 1516,
      "ost": 1517,
      "ైన": 1518,
      "▁5": 1519,
      "](https://te.wikipedia.org/wiki/మ": 1520,
      "2009": 1521,
      "▁పే": 1522,
      "10.": 1523,
      "ritish": 1524,
      "_E": 1525,
      "िश": 1526,
      "idge": 1527,
      "rap": 1528,
      "ated": 1529,
      "mpire": 1530,
      "▁तथा": 1531,
      "man": 1532,
      "ज्": 1533,
      "नी": 1534,
      "ట్ట": 1535,
      "హింద": 1536,
      "▁3": 1537,
      "▁ख": 1538,
      "▁భారతదేశం": 1539,
      "](File:": 1540,
      "hist": 1541,
      "ack": 1542,
      "ంగ్": 1543,
      "elhi": 1544,
      "ద్ధ": 1545,
      "-s": 1546,
      "43": 1547,
      "ove": 1548,
      "ta": 1549,
      "मे": 1550,
      "हास": 1551,
      "▁pe": 1552,
      "▁at": 1553,
      "▁[K": 1554,
      "](https://hi.wikipedia.org/wiki/क": 1555,
      "▁cent": 1556,
      "▁भारतीय": 1557,
      "स्क": 1558,
      "hy": 1559,
      "ించ": 1560,
      "▁ఒ": 1561,
      "▁భాష": 1562,
      "▁[క": 1563,
      "ాల్": 1564,
      "2004": 1565,
      "ames": 1566,
      "amil": 1567,
      "](https://en.wikipedia.org/wiki/India#cite_ref-FOOTNOTE": 1568,
      "-0-5": 1569,
      "ansk": 1570,
      "MetcalfMetcalf2006": 1571,
      "▁तिथि": 1572,
      "velopment": 1573,
      "-b": 1574,
      "85": 1575,
      "गमन": 1576,
      "▁7": 1577,
      "▁ध": 1578,
      "्वीप": 1579,
      "outh_Asia": 1580,
      "econom": 1581,
      "\"](https://web.archive.org/web/201": 1582,
      "/978": 1583,
      "]](https://te.wikipedia.org/wiki/భారతదేశం#cite_": 1584,
      "hand": 1585,
      "na": 1586,
      "s\")": 1587,
      "ढ़": 1588,
      "द्य": 1589,
      "न\")": 1590,
      "मान": 1591,
      "ी_स": 1592,
      "చ్చ": 1593,
      "జీ": 1594,
      "ేంద్ర": 1595,
      "▁v": 1596,
      "▁\"K": 1597,
      "▁\"క": 1598,
      "▁\"The": 1599,
      "usic": 1600,
      "पुर": 1601,
      "do-": 1602,
      "म्ब": 1603,
      "times": 1604,
      "anskrit": 1605,
      "\nCategory:": 1606,
      "\"\n": 1607,
      "%E0%": 1608,
      "33": 1609,
      "RC": 1610,
      "duc": 1611,
      "ite": 1612,
      "qu": 1613,
      "ँच": 1614,
      "गु": 1615,
      "्ड": 1616,
      "्ल": 1617,
      "▁\"Indian": 1618,
      "](https://en.wikipedia.org/wiki/H": 1619,
      "](https://en.wikipedia.org/wiki/In": 1620,
      "2007": 1621,
      "emplate": 1622,
      "वं": 1623,
      "త్య": 1624,
      "బ్": 1625,
      "మీ": 1626,
      "▁[the": 1627,
      "isation": 1628,
      "](https://te.wikipedia.org/wiki/ద": 1629,
      "్యా": 1630,
      "ury": 1631,
      "రాష్ట్ర": 1632,
      "▁2014": 1633,
      "▁./వర్గం:": 1634,
      "bridge": 1635,
      "conomy": 1636,
      "▁its": 1637,
      "▁तिथि:": 1638,
      "4)": 1639,
      "census": 1640,
      "oh": 1641,
      "▁te": 1642,
      "▁un": 1643,
      "▁राज": 1644,
      "orth": 1645,
      "ome": 1646,
      "ambridge": 1647,
      "gover": 1648,
      "द्ध": 1649,
      "html": 1650,
      "-d": 1651,
      "67": 1652,
      "ef": 1653,
      "world": 1654,
      "त्": 1655,
      "पाल": 1656,
      "रब": 1657,
      "रकार": 1658,
      "ून": 1659,
      "ంక": 1660,
      "ప్": 1661,
      "యు": 1662,
      "▁[H": 1663,
      "any": 1664,
      "ase": 1665,
      "lection": 1666,
      "ater": 1667,
      "lion": 1668,
      "row": 1669,
      "▁अभि": 1670,
      "తంత్ర": 1671,
      "](https://te.wikipedia.org/wiki/భారతదేశం#cite_ref-": 1672,
      "roup": 1673,
      "దక్షిణ": 1674,
      "]](https://te.wikipedia.org/wiki/భారతదేశం#cite_note-": 1675,
      "▁अभिगमन": 1676,
      "12": 1677,
      "Oxford": 1678,
      "World": 1679,
      "हर": 1680,
      "ुस": 1681,
      "ोक": 1682,
      "▁U": 1683,
      "\")\n\n": 1684,
      "inent": 1685,
      "्रोत": 1686,
      "▁स्": 1687,
      "ril": 1688,
      "matics": 1689,
      "ulture": 1690,
      "▁reg": 1691,
      "yson": 1692,
      ".nic": 1693,
      "/c": 1694,
      "6)": 1695,
      "IN": 1696,
      "_స": 1697,
      "ave": 1698,
      "dit": 1699,
      "hr": 1700,
      "lia": 1701,
      "ug": 1702,
      "ती": 1703,
      "ुख": 1704,
      "తము": 1705,
      "వే": 1706,
      "ష్": 1707,
      "ాన్": 1708,
      "alth": 1709,
      "▁(201": 1710,
      "స్క": 1711,
      "ligion": 1712,
      "▁हैं।": 1713,
      "ిల్లీ": 1714,
      "किस्तान": 1715,
      "_language": 1716,
      "lish": 1717,
      "mer": 1718,
      "▁4": 1719,
      "](https://en.wikipedia.org/wiki/K": 1720,
      "ashm": 1721,
      "▁cont": 1722,
      "uring": 1723,
      "िका": 1724,
      "▁wh": 1725,
      "ign": 1726,
      "▁जा": 1727,
      "▁languages": 1728,
      "overnment": 1729,
      "dition": 1730,
      "राष्ट्रीय": 1731,
      "_by": 1732,
      "akistan": 1733,
      "led": 1734,
      "pu": 1735,
      "न्त": 1736,
      "జి": 1737,
      "ధాన": 1738,
      "బె": 1739,
      "▁[L": 1740,
      "\").\n-": 1741,
      "alay": 1742,
      "ారు": 1743,
      "2005": 1744,
      "▁కా": 1745,
      "स्तक": 1746,
      "▁రాజ": 1747,
      "पुस्तक": 1748,
      "AARC": 1749,
      "▁[978-1": 1750,
      "late_": 1751,
      "ograp": 1752,
      "/https://www.": 1753,
      "विशेष:पुस्तक": 1754,
      "्रोत/978": 1755,
      "5)": 1756,
      "Dw": 1757,
      "दक्षिण": 1758,
      "ष्": 1759,
      "िव": 1760,
      "▁ad": 1761,
      "▁\"प": 1762,
      "urope": 1763,
      "▁18": 1764,
      "▁mil": 1765,
      "िया\")": 1766,
      "radesh": 1767,
      "-m": 1768,
      "ati": 1769,
      "port": 1770,
      "द्र": 1771,
      "हार": 1772,
      "దు": 1773,
      "మ్": 1774,
      "శ్": 1775,
      "](https://hi.wikipedia.org/wiki/स": 1776,
      "](https://te.wikipedia.org/wiki/క": 1777,
      "▁सम": 1778,
      "▁sub": 1779,
      "్యవ": 1780,
      "hel": 1781,
      "▁were": 1782,
      "irst": 1783,
      "▁History": 1784,
      "▁2021": 1785,
      "template": 1786,
      "Stein2010": 1787,
      "_చరిత్ర": 1788,
      "7)": 1789,
      "mber": 1790,
      "ित्र": 1791,
      "▁le": 1792,
      "anc": 1793,
      "▁सूची": 1794,
      "र्थ": 1795,
      "1998": 1796,
      "ound": 1797,
      "▁Hindu": 1798,
      "odern": 1799,
      "doi": 1800,
      "▁इस": 1801,
      "conomic": 1802,
      "\n\n###": 1803,
      "government": 1804,
      ".;": 1805,
      ".sv": 1806,
      "9)": 1807,
      "A4%": 1808,
      "_प्र": 1809,
      "ण्ड": 1810,
      "ఢిల్లీ": 1811,
      "పంచ": 1812,
      "▁[In": 1813,
      "▁\"L": 1814,
      "ారి": 1815,
      "\\_S": 1816,
      "une": 1817,
      "त्तर": 1818,
      "మూస": 1819,
      "▁मेला": 1820,
      "\"](https://www.": 1821,
      "-t": 1822,
      "-india": 1823,
      "62": 1824,
      "65": 1825,
      "_भारत": 1826,
      "por": 1827,
      "uary": 1828,
      "\")*": 1829,
      "erv": 1830,
      "ese": 1831,
      "्रिट": 1832,
      "ice": 1833,
      "रालेख": 1834,
      "▁Ap": 1835,
      "tical": 1836,
      "age/": 1837,
      "ght": 1838,
      "continent": 1839,
      "0.": 1840,
      "05": 1841,
      "_F": 1842,
      "dom": 1843,
      "gan": 1844,
      "mb": 1845,
      "oi": 1846,
      "tates": 1847,
      "val": 1848,
      "వు": 1849,
      "▁8": 1850,
      "▁\"భారతీయ": 1851,
      "ined": 1852,
      "](https://hi.wikipedia.org/wiki/च": 1853,
      "▁हु": 1854,
      "_की_स": 1855,
      ".jpg)](File:": 1856,
      "_में": 1857,
      "ission": 1858,
      "_m": 1859,
      "_the": 1860,
      "ms": 1861,
      "गण": 1862,
      "ते": 1863,
      "मिल": 1864,
      "▁2": 1865,
      "](https://hi.wikipedia.org/wiki/अ": 1866,
      "cies": 1867,
      "2003": 1868,
      "\").[[": 1869,
      "▁वर्": 1870,
      "ंग्रेज़": 1871,
      "ज्ञ": 1872,
      "रालेखित": 1873,
      "/p": 1874,
      "PP": 1875,
      "Wiki": 1876,
      "_c": 1877,
      "జన": 1878,
      "టు": 1879,
      "టె": 1880,
      "▁26": 1881,
      "](https://en.wikipedia.org/wiki/Indian_": 1882,
      "rate": 1883,
      "2008": 1884,
      "▁Comm": 1885,
      "old": 1886,
      "नाम": 1887,
      "▁చె": 1888,
      "నాయ": 1889,
      "–సా.శ.పూ.": 1890,
      "▁./श्रेणी:": 1891,
      "▁Asian": 1892,
      "▁ఆర్": 1893,
      "![](https://upload.wikimedia.org/wikipedia/commons/thumb/": 1894,
      "ystem": 1895,
      "పాలిత": 1896,
      "▁भी": 1897,
      "స్త్రం:": 1898,
      "▁ప్రాంత": 1899,
      "inistry": 1900,
      "-0-521": 1901,
      "ేంద్రపాలిత": 1902,
      "](https://te.wikipedia.org/wiki/దస్త్రం:": 1903,
      ".nic.in/": 1904,
      "Talbot": 1905,
      "air": 1906,
      "vis": 1907,
      "के": 1908,
      "थान": 1909,
      "ध्य": 1910,
      "ा_": 1911,
      "ूप": 1912,
      "▁[प": 1913,
      "on-": 1914,
      "▁सरकार": 1915,
      "usin": 1916,
      "uly": 1917,
      "ाली": 1918,
      "AsherTalbot": 1919,
      "-g": 1920,
      "/artic": 1921,
      "Edit": 1922,
      "Page/": 1923,
      "aw": 1924,
      "mund": 1925,
      "जी": 1926,
      "फ़": 1927,
      "ूर": 1928,
      "ఖ్య": 1929,
      "గో": 1930,
      "తో": 1931,
      "బి": 1932,
      "హి": 1933,
      "▁घ": 1934,
      "ories": 1935,
      "▁\"F": 1936,
      "ant": 1937,
      "](https://en.wikipedia.org/wiki/L": 1938,
      "ari": 1939,
      "arch": 1940,
      "](https://hi.wikipedia.org/wiki/ब": 1941,
      "ood": 1942,
      "▁ch": 1943,
      "](https://web.archive.org/web/20": 1944,
      "\"))\n": 1945,
      "othermund": 1946,
      "india.gov.in/": 1947,
      "స్కృ": 1948,
      "EditPage/": 1949,
      "-in": 1950,
      "ail": 1951,
      "shi": 1952,
      "▁territ": 1953,
      "ork": 1954,
      "ise": 1955,
      "ace": 1956,
      "](https://hi.wikipedia.org/wiki/भारत_में": 1957,
      "ulke": 1958,
      "250px-": 1959,
      "1_": 1960,
      "330": 1961,
      "59": 1962,
      "_ప": 1963,
      "_भाषा": 1964,
      "fter": 1965,
      "lass": 1966,
      "o-": 1967,
      "uk": 1968,
      "year": 1969,
      "ख्या": 1970,
      "रु": 1971,
      "श्च": 1972,
      "हु": 1973,
      "ा:": 1974,
      "హా": 1975,
      "▁२": 1976,
      "▁ను": 1977,
      "▁జాతీయ": 1978,
      "ister": 1979,
      "omb": 1980,
      "197": 1981,
      "rib": 1982,
      "न्न": 1983,
      "ాలు\")": 1984,
      "न्द्र": 1985,
      "ustry": 1986,
      "%20%20": 1987,
      "▁చరిత్ర\")": 1988,
      "్యవస్థ": 1989,
      "श्चिम": 1990,
      "69": 1991,
      "▁ri": 1992,
      "▁[उ": 1993,
      "eneral": 1994,
      "ats": 1995,
      "▁2010": 1996,
      "Union": 1997,
      "चीन": 1998,
      "_and_S": 1999,
      "▁April": 2000,
      "-l": 2001,
      "1,": 2002,
      "58": 2003,
      "yn": 2004,
      "कर": 2005,
      "ङ्": 2006,
      "जरा": 2007,
      "ूच": 2008,
      "డా": 2009,
      "దా": 2010,
      "బడ": 2011,
      "మే": 2012,
      "రణ": 2013,
      "▁లో": 2014,
      "▁25": 2015,
      "ority": 2016,
      "](https://en.wikipedia.org/wiki/F": 2017,
      "2014": 2018,
      "entre": 2019,
      "aman": 2020,
      "\\_and": 2021,
      "\\_errors": 2022,
      "umber": 2023,
      "▁17": 2024,
      "▁కూ": 2025,
      "ాలు,": 2026,
      "isher": 2027,
      "▁రాష్ట్ర": 2028,
      "ower": 2029,
      "earch": 2030,
      "కిస్తాన్": 2031,
      "](http://www.": 2032,
      "%E0%A4%": 2033,
      "help": 2034,
      "8/": 2035,
      "_H": 2036,
      "_L": 2037,
      "national": 2038,
      "uch": 2039,
      "ugh": 2040,
      "एस": 2041,
      "ोर": 2042,
      "▁[F": 2043,
      "edi": 2044,
      "▁India,": 2045,
      "▁An": 2046,
      "low": 2047,
      "▁हो": 2048,
      "▁2007": 2049,
      "युक्त": 2050,
      "ुसार": 2051,
      "ashmir": 2052,
      "्रिटिश": 2053,
      "1/": 2054,
      "57": 2055,
      "C&pg=PA": 2056,
      "uj": 2057,
      "ैद": 2058,
      "▁ఈ": 2059,
      "▁ag": 2060,
      "▁భారత": 2061,
      "▁errors": 2062,
      "▁मान": 2063,
      "lim": 2064,
      "త్రి": 2065,
      "ాలు](https://te.wikipedia.org/wiki/": 2066,
      "igh": 2067,
      "emb": 2068,
      "_Indian_": 2069,
      "▁तक": 2070,
      "▁./Category:": 2071,
      "nglish": 2072,
      "▁World": 2073,
      "▁([help": 2074,
      "ongress": 2075,
      "▁\"Special:BookSources/978-1": 2076,
      "](Special:BookSources/978-1": 2077,
      "साँच": 2078,
      "▁Island": 2079,
      "जाब": 2080,
      "emplate:": 2081,
      "▁errors\"))\n": 2082,
      "-c": 2083,
      "100": 2084,
      "Singh": 2085,
      "a,": 2086,
      "aper": 2087,
      "शिया": 2088,
      "▁[W": 2089,
      "act": 2090,
      "▁countries": 2091,
      "uman": 2092,
      "](https://hi.wikipedia.org/wiki/भारतीय_": 2093,
      "▁15": 2094,
      "▁Empire": 2095,
      "▁New": 2096,
      "ople": 2097,
      "▁July": 2098,
      "▁Asia\")": 2099,
      "पाकिस्तान": 2100,
      "स्कृत": 2101,
      "68": 2102,
      "_క": 2103,
      "cre": 2104,
      "du": 2105,
      "fn_": 2106,
      "ober": 2107,
      "वी": 2108,
      "सम": 2109,
      "తు": 2110,
      "పతి": 2111,
      "▁ని": 2112,
      "▁error": 2113,
      "▁స్థ": 2114,
      "▁template": 2115,
      "king": 2116,
      "ori": 2117,
      "▁[అ": 2118,
      "▁[ప": 2119,
      "▁\"उ": 2120,
      "▁\"భారతదేశం": 2121,
      "ed.": 2122,
      "్రి": 2123,
      "ley": 2124,
      "no-t": 2125,
      "\\_no-t": 2126,
      "▁Sfn": 2127,
      "▁target": 2128,
      "ర్వ": 2129,
      "న్ని": 2130,
      "▁Pres": 2131,
      "ों_की_स": 2132,
      "▁नि": 2133,
      "imes": 2134,
      "fn\\_no-t": 2135,
      "మిళ": 2136,
      "▁not": 2137,
      "template_": 2138,
      "arget\\_errors": 2139,
      "వంశ": 2140,
      "ledge": 2141,
      "DwAAQBAJ&pg=PA": 2142,
      "\\_Sfn\\_no-t": 2143,
      "_and_Sfn_": 2144,
      "\\_and\\_Sfn\\_no-t": 2145,
      "▁error:": 2146,
      "▁target:": 2147,
      "template_errors": 2148,
      "arget\\_errors\n": 2149,
      "_and_Sfn_template_errors": 2150,
      "\\_and\\_Sfn\\_no-target\\_errors\n": 2151,
      "121": 2152,
      "gy": 2153,
      "ph": 2154,
      "ution": 2155,
      "ves": 2156,
      "ंब": 2157,
      "ओं": 2158,
      "प्त": 2159,
      "ब्": 2160,
      "ुल": 2161,
      "int": 2162,
      "off": 2163,
      "](https://hi.wikipedia.org/wiki/प": 2164,
      "lear": 2165,
      "▁cons": 2166,
      "▁CITEREF": 2167,
      "▁tra": 2168,
      "▁\"South": 2169,
      "iron": 2170,
      "▁this": 2171,
      "▁उप": 2172,
      "▁विश": 2173,
      "]](https://hi.wikipedia.org/wiki/भारत#cite_note-FOOTNOTE": 2174,
      "ummit\")": 2175,
      "news/": 2176,
      "\n\n[![](https://upload.wikimedia.org/wikipedia/commons/thumb/": 2177,
      "2_": 2178,
      "_మ": 2179,
      "_భాష": 2180,
      "att": 2181,
      "dus": 2182,
      "ocial": 2183,
      "ure": 2184,
      "ఫ్": 2185,
      "▁స్": 2186,
      "▁government": 2187,
      "▁[J": 2188,
      "▁[బ": 2189,
      "▁[స": 2190,
      "▁\"J": 2191,
      "▁\"అ": 2192,
      "▁किया": 2193,
      "cient": 2194,
      "1947": 2195,
      "ide": 2196,
      "rab": 2197,
      "ram": 2198,
      "న్నాయ": 2199,
      "▁Pro": 2200,
      "▁हि": 2201,
      "▁10": 2202,
      "line": 2203,
      "▁కాల": 2204,
      "ect": 2205,
      "▁have": 2206,
      "ులు](https://te.wikipedia.org/wiki/": 2207,
      "eptem": 2208,
      ".jpg)](https://te.wikipedia.org/wiki/దస్త్రం:": 2209,
      "▁రై": 2210,
      "_के_राज्य": 2211,
      "Stein1998": 2212,
      "/http://www.": 2213,
      "धिकार": 2214,
      "ंदिर": 2215,
      "హిందూ": 2216,
      "Singh2009": 2217,
      "eptember": 2218,
      "Dyson": 2219,
      "mar": 2220,
      "pr": 2221,
      "viron": 2222,
      "शास": 2223,
      "▁9": 2224,
      "▁year": 2225,
      "▁[t": 2226,
      "thno": 2227,
      "](https://en.wikipedia.org/wiki/J": 2228,
      "▁into": 2229,
      "▁system": 2230,
      "▁pl": 2231,
      "ालय": 2232,
      "▁प्रा": 2233,
      "_Press": 2234,
      "uclear": 2235,
      "brary": 2236,
      "also": 2237,
      "engal": 2238,
      "▁१९": 2239,
      "ographi": 2240,
      "uropean": 2241,
      "▁सूची\")": 2242,
      "ombined": 2243,
      "vironment": 2244,
      "\"](https://": 2245,
      ",000": 2246,
      "2-0)": 2247,
      "_K": 2248,
      "ote": 2249,
      "pt": 2250,
      "ंजाब": 2251,
      "वन": 2252,
      "श्": 2253,
      "ागर": 2254,
      "ैन": 2255,
      "ఆసియా": 2256,
      "ద్ర": 2257,
      "భూ": 2258,
      "మె": 2259,
      "య్య": 2260,
      "ర్య": 2261,
      "▁ల": 2262,
      "▁us": 2263,
      "▁24": 2264,
      "▁\"ప": 2265,
      "▁\"బ": 2266,
      "▁\"స": 2267,
      "\")*.": 2268,
      "▁off": 2269,
      "▁their": 2270,
      "▁सब": 2271,
      "▁sfn": 2272,
      "▁par": 2273,
      "▁comp": 2274,
      "anges": 2275,
      "map": 2276,
      "▁Pradesh": 2277,
      "▁[↑](https://te.wikipedia.org/wiki/భారతదేశం#cite_ref-": 2278,
      "▁during": 2279,
      "ember": 2280,
      "s.[[": 2281,
      "త్త": 2282,
      "ctober": 2283,
      "▁అధిక": 2284,
      "▁ప్రదేశ్": 2285,
      "▁October": 2286,
      "ప్రదేశ్": 2287,
      "▁[मूल": 2288,
      "▁language\")": 2289,
      "_summit": 2290,
      "▁खाना": 2291,
      "330px-": 2292,
      "▁నుండి": 2293,
      "ों_की_सूची": 2294,
      "న్నాయి.": 2295,
      ".\"\n": 2296,
      "51": 2297,
      "_re": 2298,
      "countries": 2299,
      "mi": 2300,
      "son": 2301,
      "चल": 2302,
      "ज्य": 2303,
      "टी": 2304,
      "नि": 2305,
      "म्रा": 2306,
      "▁k": 2307,
      "▁econom": 2308,
      "inister": 2309,
      "time": 2310,
      "India)": 2311,
      "idd": 2312,
      "entral": 2313,
      "▁Archived": 2314,
      "▁Aug": 2315,
      "▁first": 2316,
      "ेंद्र": 2317,
      "याल": 2318,
      "](https://hi.wikipedia.org/wiki/भारत_क": 2319,
      "ill": 2320,
      "▁dis": 2321,
      "210": 2322,
      "▁En": 2323,
      "स्था": 2324,
      "▁गया": 2325,
      "argest": 2326,
      ".jpg/250px-": 2327,
      "▁राज्यों": 2328,
      "▁Press\").": 2329,
      "▁[भारतीय": 2330,
      "outledge": 2331,
      "▁[Archived](https://web.archive.org/web/20": 2332,
      "120px-": 2333,
      "▁August": 2334,
      "-language": 2335,
      "/0": 2336,
      "87": 2337,
      "Combined": 2338,
      "Rothermund": 2339,
      "ee": 2340,
      "fl": 2341,
      "ive": 2342,
      "jab": 2343,
      "ोर्": 2344,
      "ణి": 2345,
      "తమిళ": 2346,
      "మైన": 2347,
      "హార": 2348,
      "ోర్": 2349,
      "▁also": 2350,
      "▁\"ఇ": 2351,
      "▁\"భారత": 2352,
      "ince": 2353,
      "](https://te.wikipedia.org/wiki/బ": 2354,
      "now": 2355,
      "\\_with": 2356,
      "ayan": 2357,
      "▁మొ": 2358,
      "1994": 2359,
      "](https://mai.wikipedia.org/wiki/भारत": 2360,
      "నాగ": 2361,
      "▁2023": 2362,
      "త్తర": 2363,
      "ులు\")": 2364,
      "ffair": 2365,
      "ternational": 2366,
      "▁(PDF)": 2367,
      "ారు.": 2368,
      "శ్మీ": 2369,
      "మూస:": 2370,
      "Dyson2018": 2371,
      "श्मी": 2372,
      "म्राज्य": 2373,
      "%28": 2374,
      "Kulke": 2375,
      "_at": 2376,
      "ban": 2377,
      "ne": 2378,
      "oor": 2379,
      "uis": 2380,
      "ule": 2381,
      "आई": 2382,
      "तमिल": 2383,
      "दा": 2384,
      "िप": 2385,
      "्क": 2386,
      "▁[I": 2387,
      "ond": 2388,
      "one": 2389,
      "er,": 2390,
      "2023": 2391,
      "cience": 2392,
      "▁con": 2393,
      "▁September": 2394,
      "▁world": 2395,
      "▁**[": 2396,
      "india/": 2397,
      "तिहास": 2398,
      "formatics": 2399,
      "odi": 2400,
      "▁June": 2401,
      "▁form": 2402,
      "माण": 2403,
      "ियों": 2404,
      "ी_भाषा": 2405,
      "hism": 2406,
      "▁पुरालेखित": 2407,
      "▁region": 2408,
      "liament": 2409,
      "ित्र:": 2410,
      ".svg": 2411,
      "▁Commission": 2412,
      "▁सबसे": 2413,
      "▁पुरालेखित।": 2414,
      "44": 2415,
      "_d": 2416,
      "data": 2417,
      "fr": 2418,
      "ology": 2419,
      "rans": 2420,
      "tal": 2421,
      "की": 2422,
      "रे": 2423,
      "वरी": 2424,
      "िन्": 2425,
      "శా": 2426,
      "ైనా": 2427,
      "▁wi": 2428,
      "▁[ఇ": 2429,
      "▁[सं": 2430,
      "▁\"జ": 2431,
      "annic": 2432,
      "estern": 2433,
      "](https://te.wikipedia.org/wiki/ఇ": 2434,
      "](https://te.wikipedia.org/wiki/స": 2435,
      "etwe": 2436,
      "▁class": 2437,
      "భారత_": 2438,
      "ural": 2439,
      "chno": 2440,
      "రాజ": 2441,
      "▁Th": 2442,
      "▁Re": 2443,
      "లో](https://te.wikipedia.org/wiki/": 2444,
      "ियाँ": 2445,
      "రిజ": 2446,
      "క్కు": 2447,
      "230": 2448,
      "▁बाद": 2449,
      "ండ్": 2450,
      "ritannic": 2451,
      "ishing": 2452,
      "fficial": 2453,
      "िल्ल": 2454,
      "logue": 2455,
      "hina": 2456,
      "](https://hi.wikipedia.org/wiki/चित्र:": 2457,
      "స్కృతి": 2458,
      "\\_with\\_": 2459,
      "etween": 2460,
      "\".": 2461,
      "-19": 2462,
      "31": 2463,
      "National_": 2464,
      "iver": 2465,
      "pp": 2466,
      "मह": 2467,
      "ीन": 2468,
      "ेला": 2469,
      "।[[": 2470,
      "▁per": 2471,
      "wing": 2472,
      "▁कि": 2473,
      "ool": 2474,
      "racy": 2475,
      "▁population": 2476,
      "-17": 2477,
      "▁Sh": 2478,
      "adu": 2479,
      "\n\n-": 2480,
      "unjab": 2481,
      "▁जिस": 2482,
      "्वत": 2483,
      "्वर": 2484,
      "▁आधार": 2485,
      "स्थान": 2486,
      "University_Press": 2487,
      "▁संघ": 2488,
      "india.gov.in": 2489,
      "▁[Archived](https://web.archive.org/web/201": 2490,
      "▁(PDF).": 2491,
      "history": 2492,
      "▁धर्म": 2493,
      "usiness": 2494,
      "thnologue": 2495,
      "KulkeRothermund": 2496,
      "/A": 2497,
      "8](https://en.wikipedia.org/wiki/India#CITEREF": 2498,
      "hol": 2499,
      "ibrary": 2500,
      "oast": 2501,
      "च्च": 2502,
      "बंध": 2503,
      "मुख": 2504,
      "ం?action=edit&redlink=1": 2505,
      "చే": 2506,
      "బా": 2507,
      "–1": 2508,
      "▁22": 2509,
      "▁[జ": 2510,
      "▁\"O": 2511,
      "omen": 2512,
      "▁India:": 2513,
      "▁India\"),": 2514,
      "raven": 2515,
      "▁part": 2516,
      "amb": 2517,
      "▁పా": 2518,
      "urr": 2519,
      "](https://hi.wikipedia.org/wiki/भारत#CITEREF": 2520,
      "rop": 2521,
      "oll": 2522,
      "▁వా": 2523,
      "_सं": 2524,
      "ండు": 2525,
      "▁చూ": 2526,
      "త్వ": 2527,
      "aint": 2528,
      "ప్రధాన": 2529,
      "▁साथ": 2530,
      "▁తే": 2531,
      ".jpg/330px-": 2532,
      "udden": 2533,
      "gency": 2534,
      "▁subcontinent": 2535,
      "](https://hi.wikipedia.org/wiki/भारत_में_": 2536,
      "▁विश्व": 2537,
      "-re": 2538,
      "-26": 2539,
      "3-0)": 2540,
      "CE": 2541,
      "_%28": 2542,
      "_University_Press": 2543,
      "ual": 2544,
      "ya": 2545,
      "पति": 2546,
      "स्ट": 2547,
      "▁6": 2548,
      "▁res": 2549,
      "▁था": 2550,
      "tec": 2551,
      "▁\"श्रेणी:Harv": 2552,
      "eser": 2553,
      "](https://hi.wikipedia.org/wiki/श्रेणी:Harv": 2554,
      "▁Ass": 2555,
      "cember": 2556,
      "▁Metcalf": 2557,
      "▁2024": 2558,
      "▁2006": 2559,
      "क्षेत्र": 2560,
      "epublic": 2561,
      "▁./श्रेणी:Harv": 2562,
      "umbai": 2563,
      "▁गण": 2564,
      "depend": 2565,
      "नेपाल": 2566,
      "ortal": 2567,
      "▁शास": 2568,
      "-2)": 2569,
      ".jpg/120px-": 2570,
      "गुजरा": 2571,
      "_प्रदेश": 2572,
      "embly": 2573,
      "▁([help](https://hi.wikipedia.org/wiki/श्रेणी:Harv": 2574,
      "_and_Sfn_template_errors?action=edit&redlink=1": 2575,
      "iddle": 2576,
      "chnology": 2577,
      "▁./श्रेणी:Harv\\_and\\_Sfn\\_no-target\\_errors\n": 2578,
      "▁([help](https://hi.wikipedia.org/wiki/श्रेणी:Harv_and_Sfn_template_errors?action=edit&redlink=1": 2579,
      "8)": 2580,
      "Template:": 2581,
      "_I": 2582,
      "_సా": 2583,
      "cri": 2584,
      "fric": 2585,
      "lad": 2586,
      "ok": 2587,
      "pl": 2588,
      "par": 2589,
      "ron": 2590,
      "णा": 2591,
      "सद": 2592,
      "००": 2593,
      "ంప": 2594,
      "కో": 2595,
      "గణ": 2596,
      "దిన": 2597,
      "నై": 2598,
      "రీ": 2599,
      "▁थ": 2600,
      "▁al": 2601,
      "▁ac": 2602,
      "▁21": 2603,
      "ped": 2604,
      "encies": 2605,
      "▁\"W": 2606,
      "▁\"इ": 2607,
      "▁\"చ": 2608,
      "\"):": 2609,
      "ering": 2610,
      "are": 2611,
      "](https://hi.wikipedia.org/wiki/उ": 2612,
      "edic": 2613,
      "andhi": 2614,
      "](https://te.wikipedia.org/wiki/జ": 2615,
      "ారం": 2616,
      "▁se": 2617,
      "्यट": 2618,
      "ref-1": 2619,
      "note-1": 2620,
      "▁but": 2621,
      "▁between": 2622,
      "loc": 2623,
      "▁Population": 2624,
      "▁16": 2625,
      "▁more": 2626,
      "ourt": 2627,
      "term": 2628,
      "▁2019": 2629,
      "▁క్రీ": 2630,
      "క్‌": 2631,
      "నికి": 2632,
      "ల్ల": 2633,
      "ంగీ": 2634,
      "▁సి": 2635,
      "నాభా": 2636,
      "able": 2637,
      "▁Jan": 2638,
      "harma": 2639,
      "జాబి": 2640,
      "Harle": 2641,
      "▁been": 2642,
      "▁रूप": 2643,
      "ligi": 2644,
      "हिन्दी": 2645,
      "view": 2646,
      "▁[![](https://upload.wikimedia.org/wikipedia/commons/thumb/": 2647,
      "▁శా": 2648,
      "▁భాష\")": 2649,
      "బెంగ": 2650,
      "ujar": 2651,
      "జాబితా": 2652,
      "%29": 2653,
      ")\n-": 2654,
      "-20": 2655,
      "4-0)": 2656,
      "ft": 2657,
      "fil": 2658,
      "mu": 2659,
      "sl": 2660,
      "गढ़": 2661,
      "वे": 2662,
      "ांग": 2663,
      "▁Y": 2664,
      "▁[Indian": 2665,
      "an\")": 2666,
      "▁कार": 2667,
      "▁सि": 2668,
      "ics": 2669,
      "ident": 2670,
      "▁Act": 2671,
      "▁St": 2672,
      "▁bec": 2673,
      "ures": 2674,
      "▁music": 2675,
      "▁2016": 2676,
      "berg": 2677,
      "▁National": 2678,
      "-80": 2679,
      "%2F": 2680,
      "-107": 2681,
      "▁century": 2682,
      "▁हिन्द": 2683,
      "ffairs": 2684,
      "1-0)": 2685,
      "5_": 2686,
      ":[": 2687,
      "Ar": 2688,
      "_W": 2689,
      "_अ": 2690,
      "her": 2691,
      "rish": 2692,
      "van": 2693,
      "wo": 2694,
      "तेल": 2695,
      "दे": 2696,
      "ही": 2697,
      "्ला": 2698,
      "చల్": 2699,
      "యన్": 2700,
      "షు": 2701,
      "ూర్": 2702,
      "▁es": 2703,
      "▁all": 2704,
      "▁नाम": 2705,
      ".org/10.": 2706,
      "▁[చ": 2707,
      "▁[భారత": 2708,
      "▁[భారతీయ": 2709,
      "▁\"I": 2710,
      "2024": 2711,
      "](https://te.wikipedia.org/wiki/ప": 2712,
      "](https://te.wikipedia.org/wiki/భారతీయ": 2713,
      "ార్ట": 2714,
      "▁मु": 2715,
      "ాలయ": 2716,
      "amp": 2717,
      "ument": 2718,
      "▁di": 2719,
      "▁dance": 2720,
      "▁after": 2721,
      "క్క": 2722,
      "▁వ్యవస్థ": 2723,
      "▁दे": 2724,
      "्वार": 2725,
      "▁ము": 2726,
      "ండో": 2727,
      "ముంబ": 2728,
      "సిన": 2729,
      "-81": 2730,
      "ినల్": 2731,
      "apit": 2732,
      "ద్ద": 2733,
      "avid": 2734,
      "▁ఉన్న": 2735,
      "▁ఉంది.": 2736,
      "rick": 2737,
      "పాకిస్తాన్": 2738,
      "ompany": 2739,
      "-0-19-8": 2740,
      "ంధీ": 2741,
      "clud": 2742,
      "▁ఒక": 2743,
      "▁ఒరిజ": 2744,
      "doi.org/10.": 2745,
      "వంశం": 2746,
      "▁తేదీ": 2747,
      "ార్టీ": 2748,
      "▁ఒరిజినల్": 2749,
      ".html": 2750,
      "_और": 2751,
      "ces": 2752,
      "country": 2753,
      "dustry": 2754,
      "fic": 2755,
      "imp": 2756,
      "ls": 2757,
      "wart": 2758,
      "zberg": 2759,
      "एं": 2760,
      "क्स": 2761,
      "खा": 2762,
      "जय": 2763,
      "धी": 2764,
      "सी": 2765,
      "िन": 2766,
      "ृष्": 2767,
      "▁।": 2768,
      "▁over": 2769,
      "▁other": 2770,
      "iation": 2771,
      "ttar": 2772,
      "peration": 2773,
      "▁[3": 2774,
      "▁[e": 2775,
      "▁[v": 2776,
      "ones": 2777,
      "arh": 2778,
      "ार्ट": 2779,
      "icy": 2780,
      "▁comm": 2781,
      "▁Census": 2782,
      "ade": 2783,
      "lob": 2784,
      "chwart": 2785,
      "str": 2786,
      "▁ab": 2787,
      "विधान": 2788,
      "▁दक्षिण": 2789,
      "▁East": 2790,
      "form": 2791,
      "▁number": 2792,
      "▁1950": 2793,
      "▁For": 2794,
      "ड़ा": 2795,
      "▁[978-0-": 2796,
      "▁state": 2797,
      "_De": 2798,
      "auth": 2799,
      "▁यह": 2800,
      "त्प": 2801,
      "ganisation": 2802,
      "ज्ञान": 2803,
      "▁Press.": 2804,
      "▁years": 2805,
      "ographic": 2806,
      "ritannica": 2807,
      "chwartzberg": 2808,
      "%7": 2809,
      "07": 2810,
      "6_": 2811,
      "Asia": 2812,
      "GDP": 2813,
      "ID": 2814,
      "Vi": 2815,
      "rm": 2816,
      "y\")": 2817,
      "ze": 2818,
      "डिया": 2819,
      "तर": 2820,
      "भी": 2821,
      "में": 2822,
      "ली": 2823,
      "జ్": 2824,
      "వరి": 2825,
      "శ్చ": 2826,
      "ిన్న": 2827,
      "ెల": 2828,
      "ia\")": 2829,
      "pear": 2830,
      "▁[इ": 2831,
      "▁\"భారతదేశ": 2832,
      "▁\"विशेष:पुस्तक": 2833,
      "\").\n": 2834,
      "ini": 2835,
      "](https://en.wikipedia.org/wiki/W": 2836,
      "](https://hi.wikipedia.org/wiki/ISBN_(identifier)": 2837,
      "](https://hi.wikipedia.org/wiki/विशेष:पुस्तक": 2838,
      "్రె": 2839,
      "▁स्रोत/978": 2840,
      "्यव": 2841,
      "्यता": 2842,
      "▁pri": 2843,
      "ing\\_": 2844,
      "▁पा": 2845,
      "▁पूर्व": 2846,
      "▁Cambridge": 2847,
      "anglad": 2848,
      "life": 2849,
      "](https://hi.wikipedia.org/wiki/भारत_के_": 2850,
      "▁most": 2851,
      "▁अप": 2852,
      "▁May": 2853,
      "నిస్తాన్": 2854,
      "ird": 2855,
      "indust": 2856,
      "▁English": 2857,
      "▁మధ్య": 2858,
      "लाई": 2859,
      "_स्रोत/978": 2860,
      "▁2020": 2861,
      "▁विक": 2862,
      "ode": 2863,
      "ctor": 2864,
      "▁(identifier)\"):[": 2865,
      "ustral": 2866,
      "](https://te.wikipedia.org/wiki/భారతదేశంలో": 2867,
      "▁[ISBN](https://hi.wikipedia.org/wiki/ISBN_(identifier)": 2868,
      "▁ఉన్నాయి.": 2869,
      "స్థాన్": 2870,
      "राष्ट्रपति": 2871,
      "_के_आ": 2872,
      "▁अनुसार": 2873,
      "▁Development": 2874,
      "▁December": 2875,
      "▁పేజీ": 2876,
      "ovement": 2877,
      "हासागर": 2878,
      "▁2014.\n": 2879,
      "మ్మూ": 2880,
      "▁समय": 2881,
      "साँचा:": 2882,
      "▁\"భారతదేశంలో": 2883,
      "▁చూసిన": 2884,
      "▁January": 2885,
      "ांग्ला": 2886,
      "▁తేదీ:": 2887,
      "శ్చి": 2888,
      "](https://hi.wikipedia.org/wiki/विशेष:पुस्तक_स्रोत/978": 2889,
      "angladesh": 2890,
      "▁పేజీని": 2891,
      "1–": 2892,
      "500": 2893,
      "81": 2894,
      "88": 2895,
      "CO": 2896,
      "a/": 2897,
      "how": 2898,
      "oon": 2899,
      "oth": 2900,
      "ंप": 2901,
      "त्य": 2902,
      "धर्म": 2903,
      "बर": 2904,
      "ल\")": 2905,
      "लोक": 2906,
      "▁en": 2907,
      "▁यु": 2908,
      "▁राष्ट्रीय": 2909,
      "kim": 2910,
      "▁[न": 2911,
      "▁[Metcalf": 2912,
      "▁\"सं": 2913,
      "arb": 2914,
      "alley": 2915,
      "ofindia": 2916,
      "asia": 2917,
      "2012": 2918,
      "2000": 2919,
      "2001": 2920,
      "▁Constitution": 2921,
      "▁Congress": 2922,
      "र्भ": 2923,
      "come": 2924,
      "_of_the": 2925,
      "ross": 2926,
      "▁[↑](https://hi.wikipedia.org/wiki/भारत#cite_": 2927,
      "union": 2928,
      "ticles": 2929,
      "ेश्वर": 2930,
      "▁जु": 2931,
      "▁है,": 2932,
      "▁election": 2933,
      "▁न्या": 2934,
      "fore": 2935,
      "▁national": 2936,
      "▁[South": 2937,
      "ose": 2938,
      "_Centre": 2939,
      ".jpg)\n\n": 2940,
      "ाद्वीप": 2941,
      "▁[*A": 2942,
      "▁\"Special:BookSources/978-0-": 2943,
      "](Special:BookSources/978-0-": 2944,
      "emple": 2945,
      "ikshi": 2946,
      "▁[2](https://en.wikipedia.org/wiki/India#cite_ref-FOOTNOTE": 2947,
      "▁[1](https://en.wikipedia.org/wiki/India#cite_ref-FOOTNOTE": 2948,
      "obb": 2949,
      "times.com/": 2950,
      "censusindia.gov.in/": 2951,
      "▁territories": 2952,
      "ूचना": 2953,
      "शासित": 2954,
      "ikshit": 2955,
      ".as": 2956,
      "2/": 2957,
      "4–": 2958,
      "CN": 2959,
      "_t": 2960,
      "_19": 2961,
      "_पर": 2962,
      "_territ": 2963,
      "co": 2964,
      "cent": 2965,
      "ges": 2966,
      "lations": 2967,
      "pur": 2968,
      "बाद": 2969,
      "मार": 2970,
      "रक्ष": 2971,
      "श्री": 2972,
      "ाष्ट्र": 2973,
      "ेट": 2974,
      "ेर": 2975,
      "షన్": 2976,
      "హ్": 2977,
      "ెలు": 2978,
      "▁23": 2979,
      "▁28": 2980,
      "orther": 2981,
      "Informatics": 2982,
      "eration": 2983,
      "theast": 2984,
      "](https://te.wikipedia.org/wiki/అ": 2985,
      "ash": 2986,
      "ased": 2987,
      "2019": 2988,
      "1950": 2989,
      "agar": 2990,
      "ान\")": 2991,
      "wealth": 2992,
      "िक्ष": 2993,
      "ters": 2994,
      "olicy": 2995,
      "రియా": 2996,
      "_क्षेत्र": 2997,
      "▁మార్": 2998,
      "▁[Stein": 2999,
      "▁Oxford": 3000,
      ".jpg)\n-": 3001,
      "ప్రపంచ": 3002,
      "ndaman": 3003,
      "नेमा": 3004,
      "_मेला": 3005,
      "cyc": 3006,
      "▁states": 3007,
      "olitical": 3008,
      "▁సంస్కృతి": 3009,
      "धार_पर": 3010,
      "దీవ": 3011,
      "द्योग": 3012,
      "न्त्र": 3013,
      "हाराष्ट्र": 3014,
      "▁2006](https://en.wikipedia.org/wiki/India#CITEREF": 3015,
      "_के_आधार_पर": 3016,
      "_के_आधार_पर_भारत": 3017,
      "-le": 3018,
      "-21": 3019,
      "-to": 3020,
      ".india": 3021,
      "2-": 3022,
      "4).": 3023,
      "5-0)": 3024,
      "79": 3025,
      "Fisher": 3026,
      "Hindi": 3027,
      "_O": 3028,
      "han": 3029,
      "oci": 3030,
      "pa": 3031,
      "pib": 3032,
      "rin": 3033,
      "ran": 3034,
      "धु": 3035,
      "वै": 3036,
      "वाद": 3037,
      "हित": 3038,
      "ृति": 3039,
      "ोन": 3040,
      "▁27": 3041,
      "▁[s": 3042,
      "▁\"हिन्द": 3043,
      "\")**": 3044,
      "ann": 3045,
      "onwealth": 3046,
      "ale": 3047,
      "high": 3048,
      "reat": 3049,
      "ised": 3050,
      "andard": 3051,
      "ough": 3052,
      "▁spe": 3053,
      "▁मंदिर": 3054,
      "ama": 3055,
      "र्द": 3056,
      "ched": 3057,
      "▁1.": 3058,
      "▁March": 3059,
      "▁Budd": 3060,
      "▁BCE": 3061,
      "emoc": 3062,
      "▁had": 3063,
      "ंगा": 3064,
      "▁Hindi": 3065,
      "harat": 3066,
      "▁साम्राज्य": 3067,
      "904": 3068,
      "▁[2](https://en.wikipedia.org/wiki/India#cite_ref-": 3069,
      "▁[1](https://en.wikipedia.org/wiki/India#cite_ref-": 3070,
      "ंग्रेज़ी": 3071,
      "vision": 3072,
      "▁2010](https://en.wikipedia.org/wiki/India#CITEREF": 3073,
      "ughal": 3074,
      "ed.).": 3075,
      "▁official": 3076,
      "countries_by": 3077,
      "▁पुरालेखित।.": 3078,
      "ligious": 3079,
      "्यवस्था": 3080,
      "▁जुलाई": 3081,
      "censusindia.gov.in/2011": 3082,
      "orthern": 3083,
      "_के_आधार_पर_भारत_के_राज्य": 3084,
      "Fisher2018": 3085,
      ",[[": 3086,
      "-f": 3087,
      "1]](https://en.wikipedia.org/wiki/India#cite_note-FOOTNOTE": 3088,
      "4/": 3089,
      "6).": 3090,
      "Uttar": 3091,
      "back": 3092,
      "lang": 3093,
      "p?": 3094,
      "ru": 3095,
      "va": 3096,
      "र्त": 3097,
      "ం\"),": 3098,
      "ంత్రి": 3099,
      "ఆఫ్": 3100,
      "కత": 3101,
      "కై": 3102,
      "క్య": 3103,
      "దాయ": 3104,
      "రే": 3105,
      "లంక": 3106,
      "వీ": 3107,
      "శ్రీ": 3108,
      "షి": 3109,
      "సు": 3110,
      "▁ఏ": 3111,
      "▁up": 3112,
      "pect": 3113,
      "](https://doi.org/10.": 3114,
      "▁[[": 3115,
      "▁[సి": 3116,
      "▁[हिन्द": 3117,
      "eds.": 3118,
      "](https://te.wikipedia.org/wiki/చ": 3119,
      "▁मा": 3120,
      "riod": 3121,
      "స్సా": 3122,
      "▁పరి": 3123,
      "▁పార్టీ": 3124,
      "adi": 3125,
      "▁two": 3126,
      "న్‌": 3127,
      "change": 3128,
      "▁me": 3129,
      "▁dec": 3130,
      "▁अधिक": 3131,
      "▁Talbot": 3132,
      "olk": 3133,
      "▁Reg": 3134,
      "▁కు": 3135,
      "▁వచ్చ": 3136,
      "नाग": 3137,
      "ముద్ర": 3138,
      "abad": 3139,
      "▁2009": 3140,
      "eport": 3141,
      "म्प": 3142,
      "▁It": 3143,
      "గాంధీ": 3144,
      "▁लि": 3145,
      "क्ति": 3146,
      "నేపాల": 3147,
      "▁[↑](https://hi.wikipedia.org/wiki/भारत#cite_ref-FOOTNOTE": 3148,
      "olitics": 3149,
      "▁प्रदेश\")": 3150,
      "▁देशों": 3151,
      "▁పేరు": 3152,
      "హిందీ": 3153,
      "mbol": 3154,
      "▁చెయ్య": 3155,
      "▁కూడా": 3156,
      "▁tradition": 3157,
      "ంగీతం": 3158,
      "files/": 3159,
      "▁became": 3160,
      "ముంబై": 3161,
      "శ్చిమ": 3162,
      "Informatics_Centre": 3163,
      "▁మార్గ": 3164,
      "▁చెయ్యబడ": 3165,
      ")\n": 3166,
      ".n": 3167,
      "6-0)": 3168,
      "73": 3169,
      "89": 3170,
      "IM": 3171,
      "_3": 3172,
      "_ए": 3173,
      "ae": 3174,
      "bi": 3175,
      "cord": 3176,
      "ehr": 3177,
      "f/": 3178,
      "has": 3179,
      "if": 3180,
      "ंक": 3181,
      "टे": 3182,
      "दिल्ल": 3183,
      "रण": 3184,
      "▁'": 3185,
      "▁we": 3186,
      "▁ro": 3187,
      "▁30": 3188,
      "▁Union": 3189,
      "▁time": 3190,
      "▁[O": 3191,
      "▁[ज": 3192,
      "teen": 3193,
      "\")\n": 3194,
      "](https://en.wikipedia.org/wiki/The": 3195,
      "read": 3196,
      "city": 3197,
      "omin": 3198,
      "ouse": 3199,
      "▁India.": 3200,
      "▁includ": 3201,
      "rah": 3202,
      "rade": 3203,
      "▁summit\")": 3204,
      "▁caste": 3205,
      "ussia": 3206,
      "atus": 3207,
      "▁Ch": 3208,
      "istan": 3209,
      "▁Plate": 3210,
      "▁13": 3211,
      "illion": 3212,
      "▁war": 3213,
      "▁2012": 3214,
      "▁Times": 3215,
      "olper": 3216,
      "▁*The": 3217,
      "1997": 3218,
      "ंगाल": 3219,
      "_in_S": 3220,
      "▁2025": 3221,
      "▁2022": 3222,
      "▁general": 3223,
      "▁तट": 3224,
      "ड़ी": 3225,
      "▁एवं": 3226,
      ".gov.in/": 3227,
      "▁\"Economy": 3228,
      "](https://en.wikipedia.org/wiki/Economy": 3229,
      "articles": 3230,
      "ivil": 3231,
      "▁स्थ": 3232,
      "ports": 3233,
      "▁वर्ष": 3234,
      "Wikipedia": 3235,
      "AsherTalbot2008": 3236,
      "nown": 3237,
      "श्मीर": 3238,
      "महाद्वीप": 3239,
      "्वतंत्र": 3240,
      "ujarat": 3241,
      ".indiatimes.com/": 3242,
      "olpert": 3243,
      "&s": 3244,
      "*,": 3245,
      "-B": 3246,
      "-23": 3247,
      "/auth": 3248,
      "2).": 3249,
      "61": 3250,
      "7/": 3251,
      "75": 3252,
      "99": 3253,
      "JP": 3254,
      "UN": 3255,
      "_వ": 3256,
      "c=": 3257,
      "ebr": 3258,
      "lag": 3259,
      "nam": 3260,
      "rof": 3261,
      "rganisation": 3262,
      "vol": 3263,
      "डी": 3264,
      "णि": 3265,
      "तु": 3266,
      "निक": 3267,
      "ीस": 3268,
      "ैक": 3269,
      "గర": 3270,
      "టక": 3271,
      "టా": 3272,
      "దార": 3273,
      "నీ": 3274,
      "రో": 3275,
      "సభ": 3276,
      "ెద్ద": 3277,
      "▁j": 3278,
      "▁[India": 3279,
      "▁[doi": 3280,
      "enn": 3281,
      "tel": 3282,
      "▁\"సి": 3283,
      "](https://en.wikipedia.org/wiki/O": 3284,
      "ered": 3285,
      "eral_": 3286,
      "arn": 3287,
      "▁|\n\n": 3288,
      "tionary": 3289,
      "thematics": 3290,
      "▁केंद्र": 3291,
      "](https://te.wikipedia.org/wiki/భారత_": 3292,
      "▁incre": 3293,
      "ooperation": 3294,
      "atar": 3295,
      "▁పు": 3296,
      "loy": 3297,
      "▁Pe": 3298,
      "chool": 3299,
      "రాజ్య": 3300,
      "00)": 3301,
      "▁2017": 3302,
      "▁కేంద్రపాలిత": 3303,
      "▁BRICS": 3304,
      "भाग": 3305,
      "_(India)": 3306,
      "▁మా": 3307,
      "](https://mai.wikipedia.org/wiki/म": 3308,
      "-40": 3309,
      "▁చే": 3310,
      "ము\")": 3311,
      "rits": 3312,
      "త్స": 3313,
      "aksh": 3314,
      "▁वा": 3315,
      "▁రాజ్య": 3316,
      "▁group": 3317,
      "వాతంత్ర": 3318,
      "संख्या": 3319,
      "▁దేశాల": 3320,
      "▁\"Doi": 3321,
      "](https://en.wikipedia.org/wiki/Doi": 3322,
      "లాదేశ్": 3323,
      "స్తు": 3324,
      "▁సామ్రాజ్యం](https://te.wikipedia.org/wiki/": 3325,
      "ంగ్లాదేశ్": 3326,
      "▁భాషలు": 3327,
      "_ప్రా": 3328,
      "్రిటి": 3329,
      "▁అధికార": 3330,
      "गुजरात": 3331,
      "ూర్పు": 3332,
      "▁(identifier)\"):[10.": 3333,
      "how/": 3334,
      "కైవు": 3335,
      "ebruary": 3336,
      "▁[doi](https://en.wikipedia.org/wiki/Doi": 3337,
      "▁[doi](https://en.wikipedia.org/wiki/Doi_(identifier)": 3338,
      "-28": 3339,
      "6/": 3340,
      "8-0)": 3341,
      "C).": 3342,
      "Craven": 3343,
      "En": 3344,
      "IA": 3345,
      "TR": 3346,
      "_आ": 3347,
      "cat": 3348,
      "cms": 3349,
      "get": 3350,
      "min": 3351,
      "rar": 3352,
      "s-": 3353,
      "war": 3354,
      "way": 3355,
      "yayan": 3356,
      "एँ": 3357,
      "गो": 3358,
      "गोल": 3359,
      "फल": 3360,
      "ोड़": 3361,
      "▁$": 3362,
      "▁छ": 3363,
      "▁ref": 3364,
      "▁und": 3365,
      "▁0.": 3366,
      "▁rate": 3367,
      "▁\"आ": 3368,
      "](https://en.wikipedia.org/wiki/I": 3369,
      "ict": 3370,
      "▁sup": 3371,
      "▁मार": 3372,
      "▁मूल": 3373,
      "etail": 3374,
      "\\_देश": 3375,
      "▁Sanskrit": 3376,
      "logo": 3377,
      "urn": 3378,
      "istrar": 3379,
      "▁modern": 3380,
      "ung": 3381,
      "▁अरब": 3382,
      "ाला": 3383,
      "▁जो": 3384,
      "al_P": 3385,
      "▁बहु": 3386,
      "▁सेना": 3387,
      "▁one": 3388,
      "▁than": 3389,
      "imalay": 3390,
      "▁War": 3391,
      "▁रह": 3392,
      ".png": 3393,
      "ublishing": 3394,
      "induism": 3395,
      "▁भू": 3396,
      "विश्व": 3397,
      "onstituent": 3398,
      "%2C_": 3399,
      "▁Press](https://en.wikipedia.org/wiki/": 3400,
      "-0-19-9": 3401,
      "ultan": 3402,
      "▁period": 3403,
      "म्बर": 3404,
      "atsyayan": 3405,
      "▁Commissioner": 3406,
      "National_Informatics_Centre": 3407,
      "ainting": 3408,
      "tecture": 3409,
      "_Island": 3410,
      "्यटन": 3411,
      "Harle1994": 3412,
      "slam": 3413,
      "ricket": 3414,
      "lobal": 3415,
      "Craven1997": 3416,
      "National_Informatics_Centre2005": 3417,
      ".b": 3418,
      "2]](https://en.wikipedia.org/wiki/India#cite_note-FOOTNOTE": 3419,
      "32": 3420,
      "5–": 3421,
      "86": 3422,
      "BC": 3423,
      "EO": 3424,
      "II": 3425,
      "Main": 3426,
      "WEO": 3427,
      "_f": 3428,
      "ahar": 3429,
      "jan": 3430,
      "minist": 3431,
      "oy": 3432,
      "tb": 3433,
      "tro": 3434,
      "vatsyayan": 3435,
      "yan": 3436,
      "ंस": 3437,
      "इल": 3438,
      "भू": 3439,
      "ल्": 3440,
      "िज": 3441,
      "ीत": 3442,
      "ంజా": 3443,
      "గి": 3444,
      "టీ": 3445,
      "టాన్": 3446,
      "ది.": 3447,
      "మంత్రి": 3448,
      "లను": 3449,
      "వె": 3450,
      "వరణ": 3451,
      "హదార": 3452,
      "ూచ": 3453,
      "▁హ": 3454,
      "▁am": 3455,
      "▁భారతదేశ": 3456,
      "▁emp": 3457,
      "▁end": 3458,
      "tes": 3459,
      "▁\"न": 3460,
      "\");": 3461,
      "errit": 3462,
      "arge": 3463,
      "religion": 3464,
      "omas": 3465,
      "్రమ": 3466,
      "▁(eds.": 3467,
      "astern": 3468,
      "▁सभ": 3469,
      "ical_": 3470,
      "▁such": 3471,
      "inguis": 3472,
      "ammu": 3473,
      "▁Ar": 3474,
      "▁Chin": 3475,
      "\n\nMain": 3476,
      "र्ष": 3477,
      "ilg": 3478,
      "▁अग": 3479,
      "భారతదేశ_": 3480,
      "▁కొ": 3481,
      "ments": 3482,
      "▁వ్యా": 3483,
      "नाथ": 3484,
      "▁later": 3485,
      "▁మత": 3486,
      "▁మతము": 3487,
      "1990": 3488,
      "▁Nations": 3489,
      "](https://mai.wikipedia.org/wiki/ब": 3490,
      "తావరణ": 3491,
      "నాడు": 3492,
      "▁there": 3493,
      "▁northern": 3494,
      "▁February": 3495,
      "imf": 3496,
      "▁art": 3497,
      "osed": 3498,
      "](https://en.wikipedia.org/wiki/South_Asia": 3499,
      "▁उत्तर": 3500,
      "▁[*The": 3501,
      "doc": 3502,
      "▁ఇతర": 3503,
      "ాయి": 3504,
      "_BRICS": 3505,
      "econd": 3506,
      "▁अन्य": 3507,
      "ణాసియా": 3508,
      "athak": 3509,
      "ovember": 3510,
      "duction": 3511,
      "▁million": 3512,
      "र्थिक": 3513,
      "ज्ञा": 3514,
      "టెడ్": 3515,
      "▁ఆర్కైవు": 3516,
      "inistry_of_": 3517,
      "-lord": 3518,
      "▁రైలు": 3519,
      "భూటాన్": 3520,
      "▁classical": 3521,
      "_సామ్రాజ్యం": 3522,
      "langoff": 3523,
      "IMF": 3524,
      "ehru": 3525,
      "వాతంత్ర్య": 3526,
      "vatsyayan-lord": 3527,
      "2–": 3528,
      "7-0)": 3529,
      "9-0)": 3530,
      "_for": 3531,
      "cul": 3532,
      "ele": 3533,
      "ealth": 3534,
      "jec": 3535,
      "ning": 3536,
      "oa": 3537,
      "ras": 3538,
      "site": 3539,
      "utt": 3540,
      "var": 3541,
      "wal": 3542,
      "y,": 3543,
      "क्र": 3544,
      "टक": 3545,
      "द्वीप": 3546,
      "धि": 3547,
      "रो": 3548,
      "िस्तान": 3549,
      "ौद्ध": 3550,
      "▁29": 3551,
      "▁[आ": 3552,
      "▁[19": 3553,
      "▁[United": 3554,
      "tex": 3555,
      "than": 3556,
      "ar,": 3557,
      "arly": 3558,
      "alore": 3559,
      "ould": 3560,
      "▁सद": 3561,
      "rac": 3562,
      "▁south": 3563,
      "-00": 3564,
      "right": 3565,
      "uslim": 3566,
      "atak": 3567,
      "-14": 3568,
      "angalore": 3569,
      "urt": 3570,
      "▁Per": 3571,
      "_of_S": 3572,
      "▁1,": 3573,
      "▁14": 3574,
      "rol": 3575,
      "cean": 3576,
      "▁2019.": 3577,
      "▁2018](https://en.wikipedia.org/wiki/India#CITEREF": 3578,
      "olle": 3579,
      "ticle": 3580,
      "26)": 3581,
      "24)": 3582,
      ".com/news/": 3583,
      "▁GDP": 3584,
      "118": 3585,
      "akh": 3586,
      "▁1947": 3587,
      "पुरी": 3588,
      ".jpg)](https://hi.wikipedia.org/wiki/चित्र:": 3589,
      "▁[*India": 3590,
      "म्म": 3591,
      "▁है।\n\n": 3592,
      "owland": 3593,
      ".ph": 3594,
      "ankar": 3595,
      "हाय": 3596,
      "▁2011.\n-": 3597,
      "वंश": 3598,
      "▁union": 3599,
      "rowth": 3600,
      "▁who": 3601,
      "▁जाता": 3602,
      "-in-": 3603,
      "limate": 3604,
      "▁थी": 3605,
      "वेब": 3606,
      "Articles": 3607,
      "द्योगिक": 3608,
      "्वतंत्रता": 3609,
      "erritory": 3610,
      "/S": 3611,
      "129": 3612,
      "2,": 3613,
      "3_": 3614,
      "3]](https://en.wikipedia.org/wiki/India#cite_note-FOOTNOTE": 3615,
      "64": 3616,
      "6]](https://en.wikipedia.org/wiki/India#cite_note-": 3617,
      "7,": 3618,
      "71": 3619,
      "7_": 3620,
      "Dikshit": 3621,
      "Empire": 3622,
      "European": 3623,
      "LA": 3624,
      "Qu": 3625,
      "Schwartzberg": 3626,
      "_V": 3627,
      "_n": 3628,
      "_प": 3629,
      "_ब": 3630,
      "a-": 3631,
      "aus": 3632,
      "can": 3633,
      "dones": 3634,
      "gram": 3635,
      "lor": 3636,
      "ner": 3637,
      "nal": 3638,
      "ria": 3639,
      "ymbol": 3640,
      "तिक": 3641,
      "पे": 3642,
      "भु": 3643,
      "रवरी": 3644,
      "वार": 3645,
      "ाट": 3646,
      "ोस": 3647,
      "ం.": 3648,
      "ంశ": 3649,
      "ఆర్": 3650,
      "ఉత్తర": 3651,
      "ఒడి": 3652,
      "కీయ": 3653,
      "గలు": 3654,
      "చు": 3655,
      "జరా": 3656,
      "తూర్పు": 3657,
      "భు": 3658,
      "మన్": 3659,
      "యి": 3660,
      "లస": 3661,
      "ీన": 3662,
      "ేక": 3663,
      "▁ई": 3664,
      "▁ऊ": 3665,
      "▁ड": 3666,
      "▁फ": 3667,
      "▁డ": 3668,
      "▁ra": 3669,
      "▁राष्ट्र": 3670,
      "▁జాబితా": 3671,
      "▁high": 3672,
      "▁[m": 3673,
      "▁[భారతదేశ": 3674,
      "▁\"V": 3675,
      "tig": 3676,
      "](https://en.wikipedia.org/wiki/V": 3677,
      "arliament": 3678,
      "esearch": 3679,
      "▁industry": 3680,
      "rative": 3681,
      "ingdom": 3682,
      "राठ": 3683,
      "▁पार्ट": 3684,
      "▁Ac": 3685,
      "▁States": 3686,
      "▁పట్ట": 3687,
      "ర్\")": 3688,
      "▁Pakistan": 3689,
      "▁many": 3690,
      "▁2013": 3691,
      "▁**జాతీయ": 3692,
      "▁British": 3693,
      "विज्ञान": 3694,
      "23)": 3695,
      "నిక": 3696,
      "▁long": 3697,
      "▁large": 3698,
      "ంగ్రె": 3699,
      "▁Economic": 3700,
      "ources": 3701,
      "▁సభ": 3702,
      "1996": 3703,
      "_सा": 3704,
      "_Sh": 3705,
      "తాబ్": 3706,
      "▁2003": 3707,
      "ast_Asia": 3708,
      "▁[\"C": 3709,
      "▁[\"India": 3710,
      "▁ప్రపంచ": 3711,
      "▁ప్రభు": 3712,
      "ड़े": 3713,
      "▁K.": 3714,
      "utra": 3715,
      "▁संविधान": 3716,
      "▁ఆసియా": 3717,
      "]](https://hi.wikipedia.org/wiki/भारत#cite_note-1": 3718,
      "▁original](https://": 3719,
      "▁original](https://www.": 3720,
      "leshow/": 3721,
      "మ్రాజ్య": 3722,
      "ी](https://hi.wikipedia.org/wiki/अ": 3723,
      "▁*[The": 3724,
      "▁ext": 3725,
      "▁rule": 3726,
      "గుజరా": 3727,
      "ikh": 3728,
      "▁సామ్రాజ్యం\")": 3729,
      "...": 3730,
      "▁people": 3731,
      "MetcalfMetcalf2006),": 3732,
      "do-A": 3733,
      "త్యేక": 3734,
      "రాష్ట్రపతి": 3735,
      "ప్ప": 3736,
      "▁కాశ్మీ": 3737,
      "▁రాజవంశం": 3738,
      "▁2021.": 3739,
      "▁చెంద": 3740,
      "▁ఆర్ధిక": 3741,
      "/article": 3742,
      "/articleshow/": 3743,
      "%20%20%20%20": 3744,
      "%E0%A4%B": 3745,
      "▁స్థాన": 3746,
      "ector": 3747,
      "यालय": 3748,
      "▁Environment": 3749,
      "తమిళనాడు": 3750,
      "ప్రధానమంత్రి": 3751,
      "గణతంత్ర": 3752,
      "▁క్రీడ": 3753,
      "_Development": 3754,
      "▁विकास": 3755,
      "▁[↑](https://hi.wikipedia.org/wiki/भारत#cite_ref-1": 3756,
      ".aspx": 3757,
      "censusindia.gov.in/2011census": 3758,
      "ఆఫ్ఘ": 3759,
      "శ్రీలంక": 3760,
      "షియా": 3761,
      "న్‌ఫ": 3762,
      "నేపాల్": 3763,
      "▁చెయ్యబడింది.": 3764,
      "](https://en.wikipedia.org/wiki/Economy_of_": 3765,
      "▁under": 3766,
      "▁among": 3767,
      "▁(eds.).": 3768,
      "inguistic": 3769,
      "DikshitSchwartzberg": 3770,
      "gramme": 3771,
      "తాబ్ద": 3772,
      "DikshitSchwartzberg2023": 3773,
      "\"](https://books.google.com/books?id=": 3774,
      "-25": 3775,
      ".htm": 3776,
      "110": 3777,
      "3/": 3778,
      "300": 3779,
      "55": 3780,
      "545": 3781,
      "98": 3782,
      "Ludden": 3783,
      "NGDP": 3784,
      "Spear": 3785,
      "_देश": 3786,
      "ck": 3787,
      "d/": 3788,
      "eb": 3789,
      "election": 3790,
      "hind": 3791,
      "languages": 3792,
      "rg": 3793,
      "ura": 3794,
      "west": 3795,
      "गा": 3796,
      "चे": 3797,
      "जान": 3798,
      "डु": 3799,
      "मंत्र": 3800,
      "योग": 3801,
      "ील": 3802,
      "▁/": 3803,
      "▁ट": 3804,
      "▁em": 3805,
      "▁out": 3806,
      "pee": 3807,
      "▁\"India": 3808,
      "▁\"United": 3809,
      "ines": 3810,
      "India_": 3811,
      "arna": 3812,
      "tions": 3813,
      "ed/": 3814,
      "▁(1,": 3815,
      "2017": 3816,
      "▁some": 3817,
      "etary": 3818,
      "▁All": 3819,
      "▁Arab": 3820,
      "▁Afric": 3821,
      "▁CE": 3822,
      "chin": 3823,
      "ild": 3824,
      "▁2011.": 3825,
      "▁Modern": 3826,
      "▁Bank": 3827,
      "नाव": 3828,
      "▁द्वार": 3829,
      "▁land": 3830,
      "▁India\").": 3831,
      "▁General": 3832,
      "_Summit": 3833,
      "ake": 3834,
      "osi": 3835,
      "माज": 3836,
      ".gov/": 3837,
      "▁इतिहास": 3838,
      "ineering": 3839,
      "key": 3840,
      "▁area": 3841,
      "erala": 3842,
      "CS1": 3843,
      "▁क्षेत्र\")": 3844,
      "_New": 3845,
      "सेना": 3846,
      "arket": 3847,
      "▁चु": 3848,
      "्रीका": 3849,
      "hrist": 3850,
      "ुख्य": 3851,
      "ances": 3852,
      "ervation": 3853,
      "▁हुई": 3854,
      "गणना": 3855,
      "ynast": 3856,
      "▁economic": 3857,
      "▁Assembly": 3858,
      "ृष्ठ": 3859,
      "त्पाद": 3860,
      "teenth": 3861,
      "_in_South_Asia": 3862,
      "ast_Asia_Summit": 3863,
      "-of": 3864,
      "-78": 3865,
      ".IN": 3866,
      ".fr": 3867,
      "0)": 3868,
      "6–": 3869,
      "76": 3870,
      "84": 3871,
      "Pro": 3872,
      "Pages": 3873,
      "South": 3874,
      "_J": 3875,
      "_In": 3876,
      "_ప్రదేశ్": 3877,
      "e/": 3878,
      "fgh": 3879,
      "ho": 3880,
      "hal": 3881,
      "ii": 3882,
      "ix": 3883,
      "iri": 3884,
      "k:": 3885,
      "m.nic.in/": 3886,
      "ncl": 3887,
      "olog": 3888,
      "pic": 3889,
      "rdu": 3890,
      "ua": 3891,
      "work": 3892,
      "zation": 3893,
      "खाना": 3894,
      "नगर": 3895,
      "पद": 3896,
      "सभा": 3897,
      "ीब": 3898,
      "०१": 3899,
      "ం,": 3900,
      "ఉప": 3901,
      "కొ": 3902,
      "కేంద్రపాలిత": 3903,
      "జె": 3904,
      "ఢ్": 3905,
      "నాల": 3906,
      "లే": 3907,
      "ళు": 3908,
      "ౌద్ధ": 3909,
      "▁ओ": 3910,
      "▁he": 3911,
      "▁భా": 3912,
      "▁imp": 3913,
      "dian": 3914,
      "▁[V": 3915,
      "▁[पु": 3916,
      "▁[వి": 3917,
      "▁\"ज": 3918,
      "▁\"Oxford": 3919,
      "inance": 3920,
      "tition": 3921,
      "ally": 3922,
      "](https://hi.wikipedia.org/wiki/इ": 3923,
      "itary": 3924,
      "▁(*": 3925,
      "▁सु": 3926,
      "ictionary": 3927,
      "▁social": 3928,
      "्यान": 3929,
      "▁महासागर": 3930,
      "ాలీ": 3931,
      "\\_अ": 3932,
      "\\_प": 3933,
      "▁Al": 3934,
      "-111": 3935,
      "्ता:": 3936,
      "ర్చ": 3937,
      "▁minister": 3938,
      "ility": 3939,
      "state": 3940,
      "003": 3941,
      "▁2015": 3942,
      "▁Min": 3943,
      "▁total": 3944,
      "िया](https://mai.wikipedia.org/wiki/": 3945,
      "resident": 3946,
      "ాలు?action=edit&redlink=1": 3947,
      "▁दृ": 3948,
      "▁दिया": 3949,
      "pecial:EditPage/": 3950,
      "▁प्रमुख": 3951,
      "▁her": 3952,
      "▁बढ़": 3953,
      "▁Nadu": 3954,
      "-317": 3955,
      "▁2004": 3956,
      "–సా.శ.18": 3957,
      "▁అత్య": 3958,
      "ains": 3959,
      "ainism": 3960,
      "▁article": 3961,
      "▁[Asher": 3962,
      "▁Language": 3963,
      "▁Kashmir": 3964,
      "▁एशिया": 3965,
      "▁ఆధ": 3966,
      "ffer": 3967,
      "ffice": 3968,
      "మాఖ్య": 3969,
      "వాణా": 3970,
      "overe": 3971,
      "ligence": 3972,
      "ంటి": 3973,
      "▁depend": 3974,
      "ंग्रेजी": 3975,
      "▁\"National": 3976,
      "డ్డ": 3977,
      "▁జనాభా": 3978,
      "_pro": 3979,
      "దక్షిణాసియా": 3980,
      "▁maj": 3981,
      "▁గల": 3982,
      "▁3,": 3983,
      "▁భారతదేశంలో": 3984,
      "ంగ్లీ": 3985,
      "स्कृति": 3986,
      "యునై": 3987,
      "ష్ణ": 3988,
      "meric": 3989,
      "pura": 3990,
      "▁2021.\n": 3991,
      "_చరిత్ర?action=edit&redlink=1": 3992,
      "▁हुआ": 3993,
      "फ़रवरी": 3994,
      "▁territory": 3995,
      "▁రాష్ట్రాలు,": 3996,
      "ंबई": 3997,
      "▁उपमहाद्वीप": 3998,
      "_మతము": 3999,
      "▁प्राप्त": 4000,
      "▁खाना\")": 4001,
      "-language\\_": 4002,
      "▁మొద": 4003,
      "देव": 4004,
      "union_territ": 4005,
      "-to-": 4006,
      "र्दू": 4007,
      "▁लिए": 4008,
      "telligence": 4009,
      "arnatak": 4010,
      "WEO.IN": 4011,
      "▁अगस्त": 4012,
      "IMFWEO.IN": 4013,
      "urton": 4014,
      "Spear1990": 4015,
      "fghan": 4016,
      "nclm.nic.in/": 4017,
      "pecial:EditPage/Template:": 4018,
      "యునైటెడ్": 4019,
      "127": 4020,
      "219": 4021,
      "6]](https://en.wikipedia.org/wiki/India#cite_note-FOOTNOTE": 4022,
      "94": 4023,
      "Ag": 4024,
      "Ch": 4025,
      "UCN": 4026,
      "_2": 4027,
      "_4": 4028,
      "a.": 4029,
      "az": 4030,
      "len": 4031,
      "les/": 4032,
      "owe": 4033,
      "press": 4034,
      "yle": 4035,
      "ंति": 4036,
      "काल": 4037,
      "गान": 4038,
      "त्व": 4039,
      "न](https://hi.wikipedia.org/wiki/": 4040,
      "रेल": 4041,
      "लयाल": 4042,
      "स\")": 4043,
      "ाम": 4044,
      "िख": 4045,
      "िज़": 4046,
      "ूर्": 4047,
      "▁ci": 4048,
      "▁2.": 4049,
      "▁oc": 4050,
      "▁history": 4051,
      "▁term": 4052,
      "orest": 4053,
      "▁[ओ": 4054,
      "▁[Oxford": 4055,
      "▁\"[": 4056,
      "▁\"ओ": 4057,
      "tice": 4058,
      "ominal": 4059,
      "▁they": 4060,
      "▁(2018": 4061,
      "2016": 4062,
      "1970": 4063,
      "▁since": 4064,
      "ety": 4065,
      "etra": 4066,
      "\\_articles": 4067,
      "▁Cons": 4068,
      "▁Se": 4069,
      "▁SAARC": 4070,
      "▁found": 4071,
      "ada": 4072,
      "▁both": 4073,
      "▁trans": 4074,
      "url": 4075,
      "urban": 4076,
      "ulti": 4077,
      "ournal": 4078,
      "tical_": 4079,
      "▁R.": 4080,
      "▁Raj": 4081,
      "ight": 4082,
      "25)": 4083,
      "▁जून": 4084,
      "▁दिस": 4085,
      "109": 4086,
      "▁largest": 4087,
      "▁India\")\n\n": 4088,
      "industry": 4089,
      "राजस्थान": 4090,
      "ayback": 4091,
      "india-g": 4092,
      "ताज": 4093,
      "ताब्": 4094,
      "▁बा": 4095,
      "upta": 4096,
      "28)": 4097,
      "-30": 4098,
      "verse": 4099,
      "▁2026": 4100,
      "▁2005": 4101,
      "▁Fr": 4102,
      "▁...": 4103,
      "epart": 4104,
      "](https://en.wikipedia.org/wiki/South": 4105,
      "▁संसद": 4106,
      "own": 4107,
      "त्तरा": 4108,
      "riculture": 4109,
      "जाति": 4110,
      "-108": 4111,
      "धानमंत्र": 4112,
      "-0-19-5": 4113,
      "endra": 4114,
      "-pro": 4115,
      "reek": 4116,
      "▁\"History": 4117,
      "\"](https://web.archive.org/web/20160": 4118,
      "qual": 4119,
      "](https://en.wikipedia.org/wiki/History": 4120,
      "ohn": 4121,
      "rown": 4122,
      "ography": 4123,
      "▁left": 4124,
      ".svg/": 4125,
      "-0-521-80": 4126,
      "ैदान": 4127,
      "▁Islands": 4128,
      "▁play": 4129,
      "▁used": 4130,
      "ोर्ड": 4131,
      "▁world's": 4132,
      "माणु": 4133,
      ".svg.png": 4134,
      "KulkeRothermund2004": 4135,
      "▁estim": 4136,
      "apita": 4137,
      "-0-19-88": 4138,
      "ustralia": 4139,
      "श्रील": 4140,
      "▁2006](https://en.wikipedia.org/wiki/India#CITEREFMetcalfMetcalf2006),": 4141,
      "904-7": 4142,
      "म्मू": 4143,
      "▁article:": 4144,
      "▁occ": 4145,
      "▁दिसम्बर": 4146,
      "epartment": 4147,
      "-0-521-80904-7": 4148,
      "119": 4149,
      "5/": 4150,
      "9).": 4151,
      ":EditPage/": 4152,
      "Library": 4153,
      "Robb": 4154,
      "Sharma": 4155,
      "Un": 4156,
      "Wolpert": 4157,
      "_న": 4158,
      "_13": 4159,
      "ao": 4160,
      "bank": 4161,
      "cess": 4162,
      "detail": 4163,
      "each": 4164,
      "itt": 4165,
      "ili": 4166,
      "ihar": 4167,
      "jpg": 4168,
      "kar": 4169,
      "lack": 4170,
      "ris": 4171,
      "ser": 4172,
      "stitu": 4173,
      "इन": 4174,
      "कल": 4175,
      "को": 4176,
      "क_स": 4177,
      "टान": 4178,
      "तन्त्र": 4179,
      "ी.": 4180,
      "ेस": 4181,
      "ैल": 4182,
      "ैंड": 4183,
      "ఖండ": 4184,
      "టిక": 4185,
      "డే": 4186,
      "ద్య": 4187,
      "మార్": 4188,
      "మాలయ": 4189,
      "లలో": 4190,
      "లకు": 4191,
      "ళ్": 4192,
      "వ](https://te.wikipedia.org/wiki/": 4193,
      "ానికి": 4194,
      "ాళు": 4195,
      "ీర్": 4196,
      "▁భ": 4197,
      "▁50": 4198,
      "▁యు": 4199,
      "▁फ़रवरी": 4200,
      "](Category:": 4201,
      "▁\"వి": 4202,
      "\")[[": 4203,
      "ins": 4204,
      "ancy": 4205,
      "20)": 4206,
      "them": 4207,
      "▁क्र": 4208,
      "](https://hi.wikipedia.org/wiki/सं": 4209,
      "its": 4210,
      "▁(India": 4211,
      "▁India*](https://books.google.com/books?id=": 4212,
      "lem": 4213,
      "rature": 4214,
      "▁sp": 4215,
      "ాలో": 4216,
      "▁power": 4217,
      "ing_": 4218,
      "inger": 4219,
      "▁पह": 4220,
      "▁Company": 4221,
      "స్వ": 4222,
      "స్లా": 4223,
      "▁Summit\")": 4224,
      "▁పాల": 4225,
      "vel": 4226,
      "र्ज": 4227,
      "र्स": 4228,
      "र्जा": 4229,
      "న్\")": 4230,
      "](https://hi.wikipedia.org/wiki/भारतीय": 4231,
      "ISO": 4232,
      "road": 4233,
      "▁member": 4234,
      "states": 4235,
      "217": 4236,
      "▁Mon": 4237,
      "▁కార": 4238,
      "▁కలి": 4239,
      "ాలు\n\n": 4240,
      "▁Bengal": 4241,
      "రిహ": 4242,
      "రికత": 4243,
      "emale": 4244,
      "క్నాల": 4245,
      "నిమా": 4246,
      "254": 4247,
      "▁Delhi": 4248,
      "▁సంగీతం": 4249,
      "▁बना": 4250,
      "▁Gandhi": 4251,
      "ryan": 4252,
      "▁చి": 4253,
      "▁north": 4254,
      "ులు\"),": 4255,
      "–సా.శ.13": 4256,
      "▁అయ": 4257,
      "epal": 4258,
      "▁ప్రధాన": 4259,
      "▁\"Category:": 4260,
      "harm": 4261,
      "ప్రదాయ": 4262,
      "ప్రత్యేక": 4263,
      "ద్వీ": 4264,
      "▁ఉప": 4265,
      "def": 4266,
      "▁రె": 4267,
      "▁began": 4268,
      "న్నడ": 4269,
      "र्वत": 4270,
      "ంటు": 4271,
      "ock": 4272,
      "पात": 4273,
      "ंडिया": 4274,
      "▁దేశంలో": 4275,
      "ాయి.": 4276,
      "ीपी": 4277,
      "viol": 4278,
      "uddhism": 4279,
      "engali": 4280,
      "ibet": 4281,
      "కాశ్మీ": 4282,
      "ultural": 4283,
      "ంధు": 4284,
      "ingham": 4285,
      "వర్గం:Harv": 4286,
      "ద్ధం": 4287,
      "ద్ధి": 4288,
      "ాల్దీవ": 4289,
      "చ్చే": 4290,
      "ducation": 4291,
      "దక్షిణ_": 4292,
      "Oxford_University_Press": 4293,
      "▁కాంగ్రె": 4294,
      "Stein2010),": 4295,
      "-india-": 4296,
      "టెక్నాల": 4297,
      "హిమాలయ": 4298,
      "एसिया": 4299,
      "actbook": 4300,
      "▁Empire\")": 4301,
      "orities": 4302,
      "धिकारिक": 4303,
      "▁లే": 4304,
      "త్తరా": 4305,
      "నాగరికత": 4306,
      "_at_the": 4307,
      "క్కువ": 4308,
      "esert": 4309,
      "▁गणराज्य": 4310,
      "▁शासन": 4311,
      "క్‌సభ": 4312,
      "▁శాస్త్ర": 4313,
      "▁Act,": 4314,
      "▁हिन्दी": 4315,
      "हीं": 4316,
      "formation": 4317,
      "र्भर": 4318,
      "ెలుగు": 4319,
      "▁2010](https://en.wikipedia.org/wiki/India#CITEREFStein2010),": 4320,
      "▁వచ్చింది.": 4321,
      "_ప్రాంత": 4322,
      "▁मार्च": 4323,
      "▁Press](https://en.wikipedia.org/wiki/Oxford_University_Press": 4324,
      "ultanate": 4325,
      "ministrative": 4326,
      "yanmar": 4327,
      "वेबैक": 4328,
      "rgani": 4329,
      "▁द्वारा": 4330,
      "ृष्ठसभ": 4331,
      "Pages\\_": 4332,
      "\\_पृष्ठसभ": 4333,
      "ర్చ:": 4334,
      "Spear199024": 4335,
      ":EditPage/మూస:": 4336,
      "ాళుక్య": 4337,
      "ప్రత్యేక:EditPage/మూస:": 4338,
      "టెక్నాలజీ": 4339,
      "\"[[": 4340,
      "-प": 4341,
      "1-1": 4342,
      "318": 4343,
      "3TR": 4344,
      "Congress": 4345,
      "IB": 4346,
      "_न": 4347,
      "_en": 4348,
      "dr": 4349,
      "eval": 4350,
      "i,": 4351,
      "ie": 4352,
      "ities": 4353,
      "jo": 4354,
      "lance": 4355,
      "nominal": 4356,
      "pres": 4357,
      "rd": 4358,
      "t-": 4359,
      "uth": 4360,
      "vid": 4361,
      "ving": 4362,
      "ंट": 4363,
      "उप": 4364,
      "खंड": 4365,
      "खण्ड": 4366,
      "दि": 4367,
      "मिक": 4368,
      "रू": 4369,
      "व्यवस्था": 4370,
      "हरा": 4371,
      "िला": 4372,
      "ुरु": 4373,
      "ुंबई": 4374,
      "ोम": 4375,
      "ौर": 4376,
      "ौद्योगिक": 4377,
      "▁या": 4378,
      "orical": 4379,
      "▁[c": 4380,
      "anor": 4381,
      "thnic": 4382,
      "eries": 4383,
      "arl": 4384,
      "aro": 4385,
      "aran": 4386,
      "aldi": 4387,
      "estic": 4388,
      "hief": 4389,
      "reme": 4390,
      "cip": 4391,
      "▁(20": 4392,
      "as,": 4393,
      "asing": 4394,
      "▁सभा": 4395,
      "▁संग": 4396,
      "lect": 4397,
      "rain": 4398,
      "entr": 4399,
      "▁co": 4400,
      "▁country": 4401,
      "ams": 4402,
      "ament": 4403,
      "ata_": 4404,
      "\\_स": 4405,
      "▁Affairs": 4406,
      "▁C.": 4407,
      "-16": 4408,
      "▁Science": 4409,
      "los": 4410,
      "lowing": 4411,
      "र्ग": 4412,
      "urch": 4413,
      "▁Pl": 4414,
      "▁mi": 4415,
      "▁made": 4416,
      "िक्क": 4417,
      "onsoon": 4418,
      "21)": 4419,
      "▁app": 4420,
      "emon": 4421,
      "▁जल": 4422,
      "▁D.": 4423,
      "▁Di": 4424,
      "नाडु": 4425,
      "▁दर": 4426,
      "▁द्वीप": 4427,
      "त्रि": 4428,
      "ly,": 4429,
      "▁प्रति": 4430,
      "स्त्र": 4431,
      "▁relations": 4432,
      "ubcontinent": 4433,
      "akhand": 4434,
      "22)": 4435,
      "▁Fund": 4436,
      "avy": 4437,
      "otals": 4438,
      "](https://hi.wikipedia.org/wiki/भारत#cite_ref-FOOTNOTE": 4439,
      "_Delhi": 4440,
      "त्तरी": 4441,
      "ommonwealth": 4442,
      "order": 4443,
      "▁हैं,": 4444,
      "▁Valley": 4445,
      "पर्यटन": 4446,
      "olitical_": 4447,
      "▁[National": 4448,
      "rough": 4449,
      "ivis": 4450,
      "](https://en.wikipedia.org/wiki/List_of_countries_by": 4451,
      "दीव": 4452,
      "_East_Asia_Summit": 4453,
      "पालिका": 4454,
      "/cb": 4455,
      "AARC_summit": 4456,
      "▁lead": 4457,
      "▁इसके": 4458,
      "-largest": 4459,
      "edieval": 4460,
      "duct": 4461,
      "▁निर्": 4462,
      "maputra": 4463,
      "flu": 4464,
      "▁York": 4465,
      "▁कार्य": 4466,
      "▁सिनेमा": 4467,
      "rishn": 4468,
      "▁prime": 4469,
      "िक्षा": 4470,
      "emocracy": 4471,
      "rahmaputra": 4472,
      "do-Aryan": 4473,
      "india-glance": 4474,
      "quality": 4475,
      "▁(India)\")": 4476,
      "rganization": 4477,
      "3TRt": 4478,
      "nominal)": 4479,
      "aldives": 4480,
      "िक्किम": 4481,
      ",NGDP": 4482,
      ".పూ.": 4483,
      ".world": 4484,
      "/P": 4485,
      "124": 4486,
      "2%": 4487,
      "3),": 4488,
      "5%": 4489,
      "54": 4490,
      "63": 4491,
      "7]](https://en.wikipedia.org/wiki/India#cite_note-FOOTNOTE": 4492,
      "9,": 4493,
      "91": 4494,
      "DD": 4495,
      "RL": 4496,
      "Report": 4497,
      "Rowland": 4498,
      "Taj": 4499,
      "_इ": 4500,
      "_11": 4501,
      "af": 4502,
      "aury": 4503,
      "be": 4504,
      "britannica": 4505,
      "garh": 4506,
      "hat": 4507,
      "iz": 4508,
      "ject": 4509,
      "known": 4510,
      "ling": 4511,
      "mal": 4512,
      "nf": 4513,
      "sur": 4514,
      "ward": 4515,
      "ym": 4516,
      "इप्र": 4517,
      "छि": 4518,
      "थिल": 4519,
      "दार": 4520,
      "नु": 4521,
      "बा": 4522,
      "वास": 4523,
      "शक": 4524,
      "ैथिल": 4525,
      "ంతం": 4526,
      "ఆగ": 4527,
      "కళ": 4528,
      "ఖండ్": 4529,
      "గం": 4530,
      "గ్": 4531,
      "గిన": 4532,
      "గఢ్": 4533,
      "జో": 4534,
      "ట్ర": 4535,
      "తెలుగు": 4536,
      "ద్రా": 4537,
      "పద": 4538,
      "భి": 4539,
      "యో": 4540,
      "లక్ష": 4541,
      "వర": 4542,
      "శో": 4543,
      "షా": 4544,
      "హు": 4545,
      "హార్": 4546,
      "హాయ": 4547,
      "ాష్ట్ర": 4548,
      "ీక": 4549,
      "ీహార్": 4550,
      "ుల": 4551,
      "ుల్": 4552,
      "ోల్": 4553,
      "ోత్స": 4554,
      "ౌర్య": 4555,
      "▁his": 4556,
      "▁ed.).": 4557,
      "oral": 4558,
      "▁[p": 4559,
      "▁[హ": 4560,
      "▁[सा": 4561,
      "▁[दक्षिण": 4562,
      "▁\"ल": 4563,
      "▁\"ह": 4564,
      "▁\"హ": 4565,
      "▁\"दक्षिण": 4566,
      "▁\"ఢిల్లీ": 4567,
      "on,": 4568,
      "aries": 4569,
      "208": 4570,
      "ess/": 4571,
      "ret": 4572,
      "isc": 4573,
      "▁कुल": 4574,
      "్రూ": 4575,
      "itz": 4576,
      "](https://te.wikipedia.org/wiki/సి": 4577,
      "2015": 4578,
      "icon": 4579,
      "leg": 4580,
      "radition": 4581,
      "▁sh": 4582,
      "▁मुख्य": 4583,
      "ాలా": 4584,
      "ాలలో": 4585,
      "-0-4": 4586,
      "rig": 4587,
      "rim": 4588,
      "్యం": 4589,
      "▁पश्चिम": 4590,
      "▁Con": 4591,
      "▁Centre": 4592,
      "▁Sec": 4593,
      "ర్ణా": 4594,
      "ర్మే": 4595,
      "ists": 4596,
      "▁Publishing": 4597,
      "▁11": 4598,
      "▁mar": 4599,
      "▁movement": 4600,
      "లు\")": 4601,
      "▁अछि": 4602,
      "▁Tamil": 4603,
      "olon": 4604,
      "▁River": 4605,
      "▁Republic": 4606,
      "లోక్‌సభ": 4607,
      "identifiers": 4608,
      "ంది": 4609,
      "▁వంశ": 4610,
      "▁Data": 4611,
      "▁David": 4612,
      "▁दो": 4613,
      "sian": 4614,
      "aylor": 4615,
      "▁Ex": 4616,
      "al_in": 4617,
      "ounci": 4618,
      "▁Ge": 4619,
      "▁Himalay": 4620,
      "ండర్": 4621,
      "force": 4622,
      "-3)": 4623,
      "abha": 4624,
      "asting": 4625,
      "త్మా": 4626,
      "▁वार": 4627,
      "▁non-": 4628,
      ".[[3": 4629,
      "2905": 4630,
      "▁అతి": 4631,
      "udi": 4632,
      "ికి": 4633,
      "imach": 4634,
      "▁gre": 4635,
      "▁गा": 4636,
      "▁Official": 4637,
      "▁Wiki": 4638,
      "ద్దు": 4639,
      "प्रा": 4640,
      "▁రహదార": 4641,
      "మాచల్": 4642,
      "▁సామ్రాజ్య": 4643,
      "▁शा": 4644,
      "▁शताब्": 4645,
      "overty": 4646,
      "రువా": 4647,
      "రుణా": 4648,
      "िये": 4649,
      "న్నో": 4650,
      "▁status": 4651,
      "మిజో": 4652,
      "▁ఇది": 4653,
      "achine": 4654,
      "_and_depend": 4655,
      "ंग्रेस": 4656,
      "ृत्य": 4657,
      "▁జరి": 4658,
      "▁విస్త": 4659,
      "operation": 4660,
      "▁శతాబ్ద": 4661,
      "ట్టు": 4662,
      "do-P": 4663,
      "timesofindia": 4664,
      "రాష్ట్రాలు": 4665,
      "▁tex": 4666,
      "ूनिव": 4667,
      "వేద": 4668,
      "▁రాజకీయ": 4669,
      "62-2": 4670,
      "olden": 4671,
      "▁ప్రాంతాలు": 4672,
      "visions": 4673,
      "usiness/": 4674,
      "ूरो": 4675,
      "హిమాచల్": 4676,
      "ship": 4677,
      "హాత్మా": 4678,
      "वीं": 4679,
      "int:": 4680,
      "▁ప్రదేశ్\")": 4681,
      "](https://hi.wikipedia.org/wiki/भारत_की_": 4682,
      "హారాష్ట్ర": 4683,
      "శాస్త్ర": 4684,
      "రాజస్థాన్": 4685,
      "▁వాతావరణ": 4686,
      "_संघ": 4687,
      "దినోత్స": 4688,
      "బెంగాలీ": 4689,
      "-107-111": 4690,
      "तेलु": 4691,
      "యన్మార్": 4692,
      "▁ముఖ్య": 4693,
      "fication": 4694,
      "industan": 4695,
      "▁युद्ध": 4696,
      "▁न्यायालय": 4697,
      "ociety": 4698,
      "▁\"हिन्दी\")": 4699,
      "JPG": 4700,
      "ంజాబ్": 4701,
      "▁వ్యాస": 4702,
      "हायता": 4703,
      "donesia": 4704,
      "గుజరాత్": 4705,
      "ఆఫ్ఘనిస్తాన్": 4706,
      "న్‌ఫర్మే": 4707,
      "▁[पुरालेखित": 4708,
      "धानमंत्री": 4709,
      "-0-19-882905": 4710,
      "Wolpert2003": 4711,
      "వ](https://te.wikipedia.org/wiki/List_of_": 4712,
      "రిహద్దు": 4713,
      "చ్చేరి": 4714,
      "Pages\\_us": 4715,
      "Rowland1970": 4716,
      "britannica.com/": 4717,
      "ర్ణాటక": 4718,
      "రుణాచల్": 4719,
      "timesofindia.indiatimes.com/": 4720,
      "-107-11162-2": 4721,
      "న్‌ఫర్మేషన్": 4722,
      "-0-19-882905-8": 4723,
      "-C": 4724,
      "-n": 4725,
      "-and": 4726,
      "-50": 4727,
      "-on-": 4728,
      ".ni": 4729,
      "/files/": 4730,
      "130": 4731,
      "2]](https://en.wikipedia.org/wiki/India#cite_note-": 4732,
      "5).": 4733,
      "5]](https://en.wikipedia.org/wiki/India#cite_note-FOOTNOTE": 4734,
      "Ethnologue": 4735,
      "S.": 4736,
      "St": 4737,
      "_0": 4738,
      "_with": 4739,
      "ate_": 4740,
      "ey": 4741,
      "ez": 4742,
      "eligion": 4743,
      "fob": 4744,
      "ime": 4745,
      "ks": 4746,
      "lurton": 4747,
      "ox": 4748,
      "ots": 4749,
      "public": 4750,
      "que": 4751,
      "rid": 4752,
      "rial": 4753,
      "rust": 4754,
      "s18": 4755,
      "s_of_India": 4756,
      "ंका": 4757,
      "एशिया": 4758,
      "गंगा": 4759,
      "धन": 4760,
      "नान": 4761,
      "नुसार": 4762,
      "पान": 4763,
      "फ्रीका": 4764,
      "भो": 4765,
      "शा": 4766,
      "ीमा": 4767,
      "ूह": 4768,
      "ोष": 4769,
      "१९": 4770,
      "▁—": 4771,
      "▁lo": 4772,
      "▁ले": 4773,
      "▁urban": 4774,
      "ortheast": 4775,
      ".org": 4776,
      "▁[4": 4777,
      "▁[ह": 4778,
      "ency": 4779,
      "▁\"19": 4780,
      "onom": 4781,
      "](https://en.wikipedia.org/wiki/United": 4782,
      "erry": 4783,
      "ara": 4784,
      "aria": 4785,
      "arath": 4786,
      "](https://hi.wikipedia.org/wiki/आ": 4787,
      "](https://hi.wikipedia.org/wiki/ल": 4788,
      "educ": 4789,
      "▁them": 4790,
      "▁(19": 4791,
      "icha": 4792,
      "icob": 4793,
      "▁India](https://en.wikipedia.org/wiki/G": 4794,
      "▁influ": 4795,
      "rat": 4796,
      "ravi": 4797,
      "▁summit": 4798,
      "▁pre": 4799,
      "▁painting": 4800,
      "-06": 4801,
      "राबाद": 4802,
      "ature": 4803,
      "▁S.": 4804,
      "\n\n|": 4805,
      "▁billion": 4806,
      "lief": 4807,
      "र्ना": 4808,
      "▁P.": 4809,
      "▁12": 4810,
      "▁western": 4811,
      "▁dire": 4812,
      "▁अव": 4813,
      "▁अप्र": 4814,
      "▁अधिकार": 4815,
      "▁Territory": 4816,
      "▁Be": 4817,
      "nium": 4818,
      "_का": 4819,
      "▁eastern": 4820,
      "▁नी": 4821,
      "elang": 4822,
      "▁आधिकारिक": 4823,
      "▁new": 4824,
      "▁J.": 4825,
      "▁Incre": 4826,
      "uduch": 4827,
      "स्थ": 4828,
      "160": 4829,
      "▁Lank": 4830,
      "-90": 4831,
      "▁Kingdom": 4832,
      "apan": 4833,
      "avi": 4834,
      "हिमा": 4835,
      "▁संबंध": 4836,
      "▁संस्कृति": 4837,
      "▁[↑](https://en.wikipedia.org/wiki/India#cite_ref-FOOTNOTEMetcalfMetcalf2006": 4838,
      "ummer": 4839,
      "ternal": 4840,
      "ternational_": 4841,
      "▁भाषाओं": 4842,
      "त्तीस": 4843,
      "र्वो": 4844,
      "_Temple": 4845,
      "िस्ट": 4846,
      "34)": 4847,
      "िरपे": 4848,
      "▁अन्त": 4849,
      "वायु": 4850,
      "ikkim": 4851,
      "▁करने": 4852,
      "▁life": 4853,
      "general_": 4854,
      "▁जनगणना": 4855,
      "मेर": 4856,
      "▁स्था": 4857,
      "▁contrib": 4858,
      "▁मेला\")": 4859,
      "▁हुए": 4860,
      "करण": 4861,
      "ैदराबाद": 4862,
      "_Indian_general_": 4863,
      "▁Islands\")": 4864,
      "pringer": 4865,
      "](https://hi.wikipedia.org/wiki/भारत_का_": 4866,
      "▁dispu": 4867,
      "cript": 4868,
      ".html)": 4869,
      "%7C": 4870,
      "%7c": 4871,
      "भीम": 4872,
      "pectancy": 4873,
      "▁[हिन्दी](https://hi.wikipedia.org/wiki/": 4874,
      "cording": 4875,
      "Wikipedia\\_articles": 4876,
      "rofile": 4877,
      "volution": 4878,
      "▁employ": 4879,
      "document": 4880,
      "धिराज्य": 4881,
      "ymbols": 4882,
      ".aspx?": 4883,
      "ildlife": 4884,
      "fferent": 4885,
      ".svg.png)": 4886,
      "3TRtDwAAQBAJ&pg=PA": 4887,
      "education": 4888,
      "ichael": 4889,
      "र्नाटक": 4890,
      "uducherry": 4891,
      "िरपेक्ष": 4892,
      "_Indian_general_election": 4893,
      "-29": 4894,
      "-with": 4895,
      "/D": 4896,
      "/ark": 4897,
      "1200": 4898,
      "2-4": 4899,
      "3,": 4900,
      "3-8": 4901,
      "52": 4902,
      "53": 4903,
      "577": 4904,
      "74": 4905,
      ":**": 4906,
      "B0%": 4907,
      "CL": 4908,
      "C-0": 4909,
      "IJ": 4910,
      "New": 4911,
      "QAAQBAJ&pg=PA": 4912,
      "SAARC_summit": 4913,
      "_9": 4914,
      "_व": 4915,
      "_on": 4916,
      "_languages": 4917,
      "aut": 4918,
      "bc": 4919,
      "gra": 4920,
      "glia": 4921,
      "hra": 4922,
      "lood": 4923,
      "m2": 4924,
      "oard": 4925,
      "tl": 4926,
      "yy": 4927,
      "yam": 4928,
      "ंह": 4929,
      "क\\_पृष्ठसभ": 4930,
      "गल": 4931,
      "गू": 4932,
      "झार": 4933,
      "तट": 4934,
      "फा": 4935,
      "हन": 4936,
      "हरी": 4937,
      "ाटी": 4938,
      "िहार": 4939,
      "ौक्स": 4940,
      "८५": 4941,
      "ంతి": 4942,
      "కాల": 4943,
      "కారం": 4944,
      "ఖ్": 4945,
      "గంగా": 4946,
      "టో": 4947,
      "డిన": 4948,
      "తీ": 4949,
      "ధి": 4950,
      "ధించ": 4951,
      "నల్": 4952,
      "మన": 4953,
      "మర": 4954,
      "ర్యా": 4955,
      "లం": 4956,
      "లతో": 4957,
      "లమె": 4958,
      "ీస్": 4959,
      "ూప": 4960,
      "ూరు": 4961,
      "ెనీ": 4962,
      "ౌక": 4963,
      "▁ऑ": 4964,
      "▁ద": 4965,
      "▁ఫ": 4966,
      "▁im": 4967,
      "▁लेख": 4968,
      "▁దక్షిణ": 4969,
      "▁హిందూ": 4970,
      "▁గాంధీ": 4971,
      "iam": 4972,
      "ors": 4973,
      "orce": 4974,
      ":/121": 4975,
      "▁[U": 4976,
      "▁[च": 4977,
      "▁[భారతదేశం": 4978,
      "▁[ఢిల్లీ": 4979,
      "▁[पाकिस्तान": 4980,
      "▁\"पाकिस्तान": 4981,
      "erg": 4982,
      "arli": 4983,
      "ared/": 4984,
      "arendra": 4985,
      "esti": 4986,
      "reed": 4987,
      "ार्क": 4988,
      "](https://hi.wikipedia.org/wiki/ओ": 4989,
      "▁(2006": 4990,
      "ారస": 4991,
      "ootb": 4992,
      "raz": 4993,
      "▁second": 4994,
      "▁मो": 4995,
      "ాలను": 4996,
      "-07": 4997,
      "▁culture": 4998,
      "रान": 4999,
      "\\_मा": 5000,
      "\\_cont": 5001,
      "\\_identifiers": 5002,
      "ages/": 5003,
      "agari": 5004,
      "-135": 5005,
      "స్](https://te.wikipedia.org/wiki/": 5006,
      "▁far": 5007,
      "▁పెద్ద": 5008,
      "adwe": 5009,
      "lopedia": 5010,
      "र्क": 5011,
      "ర్లు": 5012,
      "▁Public": 5013,
      "▁केन्द्र": 5014,
      "ver,": 5015,
      "▁ही": 5016,
      "▁होत": 5017,
      "ular": 5018,
      "uled": 5019,
      "linkim": 5020,
      "hell": 5021,
      "FOOTNOTENational_Informatics_Centre2005": 5022,
      "▁women": 5023,
      "00–సా.శ.పూ.": 5024,
      "ource": 5025,
      "▁अर्थ": 5026,
      ".\n13": 5027,
      "ियां": 5028,
      "न्स": 5029,
      "ाले": 5030,
      "▁వే": 5031,
      "253": 5032,
      "ecu": 5033,
      "▁Gu": 5034,
      "▁Government": 5035,
      "▁November": 5036,
      "▁Nehru": 5037,
      "▁नद": 5038,
      "▁नहीं": 5039,
      "](https://mai.wikipedia.org/wiki/क": 5040,
      "](https://mai.wikipedia.org/wiki/स": 5041,
      "shared/": 5042,
      "▁से](http://www.": 5043,
      "_Ass": 5044,
      "_Affairs": 5045,
      "न्दोल": 5046,
      "architecture": 5047,
      "▁\"भारतक": 5048,
      "త్తం": 5049,
      "▁(సా.శ.15": 5050,
      "▁(సా.శ.13": 5051,
      "▁1960": 5052,
      "▁From": 5053,
      "▁అనే": 5054,
      "▁Indus": 5055,
      "▁forest": 5056,
      "▁[\"A": 5057,
      "▁[\"The": 5058,
      "▁ప్రజ": 5059,
      "407": 5060,
      "पुरा": 5061,
      "स्ला": 5062,
      "తం\")": 5063,
      "](https://web.archive.org/web/200": 5064,
      "hap": 5065,
      "ంచి": 5066,
      "_Pro": 5067,
      "▁उद्य": 5068,
      "aves": 5069,
      ".gov.in": 5070,
      "▁ఆఫ్": 5071,
      "dex": 5072,
      "▁సాం": 5073,
      "▁[Ministry": 5074,
      "▁है।[[": 5075,
      "ార్లమె": 5076,
      "▁\"British": 5077,
      "▁रहा": 5078,
      "undament": 5079,
      "arty": 5080,
      "ogue": 5081,
      "కిస్థాన్": 5082,
      "ssam": 5083,
      "oreign": 5084,
      "iley": 5085,
      "▁నే": 5086,
      "▁నగర": 5087,
      "anipur": 5088,
      "कारीब": 5089,
      "48/cb": 5090,
      "▁దేశం": 5091,
      "టిబె": 5092,
      "▁[Government": 5093,
      "_GDP": 5094,
      "్రీ.పూ.": 5095,
      "_Nadu": 5096,
      "ext": 5097,
      "▁[![A": 5098,
      "hmed": 5099,
      "](https://en.wikipedia.org/wiki/National_": 5100,
      "ండియా": 5101,
      "athura": 5102,
      "](https://en.wikipedia.org/wiki/List_of_SAARC_summit": 5103,
      "▁produc": 5104,
      "▁ఎక్కువ": 5105,
      "▁ఎన్నో": 5106,
      "विशेष:EditPage/": 5107,
      "ूर्वी": 5108,
      "hya": 5109,
      "amil_Nadu": 5110,
      "economic": 5111,
      "▁./వర్గం:Wikipedia\\_articles": 5112,
      "▁technology": 5113,
      "▁regions": 5114,
      "_సం": 5115,
      "ashmiri": 5116,
      "ancis": 5117,
      "▁Hinduism": 5118,
      "▁मेला](https://hi.wikipedia.org/wiki/": 5119,
      "गणराज्य": 5120,
      "▁वर्ग": 5121,
      "టుంబ": 5122,
      "▁./श्रेणी:जान": 5123,
      "awahar": 5124,
      "india.gov.in/india-glance": 5125,
      "▁right": 5126,
      "8/8": 5127,
      "▁భారత్": 5128,
      "kingdom": 5129,
      "మెరి": 5130,
      "▁economy": 5131,
      "▁మొత్తం": 5132,
      "బాద్": 5133,
      "urrent": 5134,
      "eserve": 5135,
      "ంపెనీ": 5136,
      "vanagari": 5137,
      "View": 5138,
      "▁स्रोत/978-1": 5139,
      "industani": 5140,
      "](https://hi.wikipedia.org/wiki/विशेष:पुस्तक_स्रोत/978-1": 5141,
      "హ్మ": 5142,
      "cyclop": 5143,
      "cyclopedia": 5144,
      "-lead": 5145,
      "हितक\\_पृष्ठसभ": 5146,
      "Uttarakhand": 5147,
      "▁ఏర్": 5148,
      "hasha": 5149,
      "akshadwe": 5150,
      "▁groups": 5151,
      "్రిటిషు": 5152,
      "\\_देशमे": 5153,
      "▁भूम": 5154,
      "_Islands": 5155,
      ".bnf": 5156,
      "omason": 5157,
      "_BRICS_summit": 5158,
      "▁Persian": 5159,
      "▁चुनाव": 5160,
      "hristian": 5161,
      ".fr/ark": 5162,
      "Provision": 5163,
      "पदण्ड": 5164,
      "▁అత్యధిక": 5165,
      "overeign": 5166,
      "fghanistan": 5167,
      "nclm.nic.in/shared/": 5168,
      "रेलू": 5169,
      "लयालम": 5170,
      "etraglia": 5171,
      "ీర్ణ": 5172,
      "దక్షిణ_ఆసియా": 5173,
      "\\_सहितक\\_पृष्ठसभ": 5174,
      "▁शताब्दी": 5175,
      "▁[पुरालेखित](https://web.archive.org/web/201": 5176,
      "Pages\\_using\\_": 5177,
      "icobar": 5178,
      "▁summits\")": 5179,
      "र्वोच्च": 5180,
      ":/12148/cb": 5181,
      "ootball": 5182,
      "\\_मापदण्ड": 5183,
      "\\_contain": 5184,
      "linkimages/": 5185,
      "कारीबौक्स": 5186,
      "_GDP_(": 5187,
      "](https://en.wikipedia.org/wiki/List_of_SAARC_summits": 5188,
      "विशेष:EditPage/साँचा:": 5189,
      "▁./श्रेणी:जानकारीबौक्स": 5190,
      "awaharl": 5191,
      "akshadweep": 5192,
      ".bnf.fr/ark": 5193,
      "nclm.nic.in/shared/linkimages/": 5194,
      "\\_सहितक\\_पृष्ठसभ#": 5195,
      ".bnf.fr/ark:/12148/cb": 5196,
      "-D": 5197,
      "-विज्ञान": 5198,
      ".](https://upload.wikimedia.org/wikipedia/commons/thumb/": 5199,
      ".\")\n\n": 5200,
      "/india": 5201,
      "123": 5202,
      "125": 5203,
      "3–": 5204,
      "320": 5205,
      "350": 5206,
      "4]](https://en.wikipedia.org/wiki/India#cite_note-FOOTNOTE": 5207,
      "4-108": 5208,
      "7).": 5209,
      "9–": 5210,
      "AS": 5211,
      "All": 5212,
      "Census": 5213,
      "Fr": 5214,
      "Gua": 5215,
      "JIJ": 5216,
      "Kashmir": 5217,
      "MC": 5218,
      "MID": 5219,
      "Ministry_of_": 5220,
      "NA": 5221,
      "National": 5222,
      "Vu": 5223,
      "Zva": 5224,
      "ZVu": 5225,
      "_g": 5226,
      "_h": 5227,
      "_24": 5228,
      "_17": 5229,
      "aul": 5230,
      "bbc": 5231,
      "ced": 5232,
      "c/c": 5233,
      "code": 5234,
      "casting": 5235,
      "ds": 5236,
      "dish": 5237,
      "ek": 5238,
      "ece": 5239,
      "hu": 5240,
      "ham": 5241,
      "hang": 5242,
      "had": 5243,
      "hindi": 5244,
      "ij": 5245,
      "ker": 5246,
      "kZVu": 5247,
      "most": 5248,
      "mrits": 5249,
      "nc": 5250,
      "ned": 5251,
      "ncient": 5252,
      "ott": 5253,
      "ple": 5254,
      "pture": 5255,
      "ues": 5256,
      "yer": 5257,
      "ंच": 5258,
      "ंत": 5259,
      "कणी": 5260,
      "छत्तीस": 5261,
      "डो": 5262,
      "तृत": 5263,
      "दिव": 5264,
      "मक": 5265,
      "मो": 5266,
      "रस": 5267,
      "लग": 5268,
      "श्य": 5269,
      "सून": 5270,
      "िंध": 5271,
      "ीच": 5272,
      "ुम्ब": 5273,
      "।\n\n": 5274,
      "–4": 5275,
      "▁z": 5276,
      "▁6.": 5277,
      "▁United": 5278,
      "▁low": 5279,
      "▁Qu": 5280,
      "▁[f": 5281,
      "▁[ल": 5282,
      "▁[World": 5283,
      "en,": 5284,
      "tered": 5285,
      "▁\"च": 5286,
      "▁\"तमिल": 5287,
      "ants": 5288,
      "tis": 5289,
      "th_BRICS_summit": 5290,
      "arlo": 5291,
      "araj": 5292,
      "2025": 5293,
      "ala": 5294,
      "aland": 5295,
      "alli": 5296,
      "es,": 5297,
      "hib": 5298,
      "thema": 5299,
      "▁कई": 5300,
      "▁कश्मीर": 5301,
      "outheast": 5302,
      "भारत)": 5303,
      "भारत\nCategory:": 5304,
      "▁सैन": 5305,
      "▁sq": 5306,
      "▁sector": 5307,
      "▁मैदान": 5308,
      "rime": 5309,
      "▁caus": 5310,
      "uss": 5311,
      "▁पर्वत": 5312,
      "▁China": 5313,
      "▁Civil": 5314,
      "[[14": 5315,
      "▁tree": 5316,
      "loth": 5317,
      "urve": 5318,
      "urity": 5319,
      "▁Punjab": 5320,
      "याधी": 5321,
      "_of_2011": 5322,
      "▁man": 5323,
      "▁dom": 5324,
      "0000": 5325,
      "▁2018": 5326,
      "▁2014.": 5327,
      "▁This": 5328,
      "▁Research": 5329,
      "▁M.": 5330,
      "ाल्": 5331,
      "iger": 5332,
      "emic": 5333,
      "emographic": 5334,
      "वित": 5335,
      "ोंकणी": 5336,
      "▁दि": 5337,
      "10)": 5338,
      "1017": 5339,
      "भाज": 5340,
      "indus": 5341,
      "_का_": 5342,
      "▁Europe": 5343,
      "▁hum": 5344,
      "▁human": 5345,
      "▁house": 5346,
      "▁बीच": 5347,
      "oples": 5348,
      "▁से](http://": 5349,
      "▁religious": 5350,
      "न्दिर": 5351,
      "▁these": 5352,
      "](https://en.wikipedia.org/wiki/India#CITEREFB": 5353,
      "22-9": 5354,
      "▁name": 5355,
      "क्षा": 5356,
      "▁1965": 5357,
      "▁गु": 5358,
      "27)": 5359,
      "▁Linguistic": 5360,
      "_Paper": 5361,
      "▁उत्पाद": 5362,
      "_मंदिर": 5363,
      "▁[↑](https://en.wikipedia.org/wiki/India#cite_ref-FOOTNOTEB": 5364,
      "लेट": 5365,
      "rief": 5366,
      "▁इन": 5367,
      "▁[British": 5368,
      "ligions": 5369,
      "emplate_": 5370,
      "_Totals": 5371,
      "opulation_Totals": 5372,
      "ociation": 5373,
      "ockey": 5374,
      "▁def": 5375,
      "▁development": 5376,
      "▁लोक": 5377,
      "▁language\"),": 5378,
      "▁राज्य\")": 5379,
      "▁\"Government": 5380,
      ")\n\nThe": 5381,
      "▁Press](https://en.wikipedia.org/wiki/C": 5382,
      "exist": 5383,
      "▁[अंग्रेज़": 5384,
      "▁अनु": 5385,
      "▁[Dyson": 5386,
      "ibcode": 5387,
      "ikhism": 5388,
      "▁करोड़": 5389,
      "MetcalfMetcalf2012": 5390,
      "_population": 5391,
      "▁mathema": 5392,
      "▁1994": 5393,
      "_1_of_2011": 5394,
      "onstitutional": 5395,
      "do-European": 5396,
      "▁राजनी": 5397,
      "html).": 5398,
      "674": 5399,
      "▁control": 5400,
      "▁when": 5401,
      "▁languages\")": 5402,
      "overnment_of_India": 5403,
      "न्तर": 5404,
      "▁addition": 5405,
      "▁\"पंजाब": 5406,
      "\")*,": 5407,
      "▁2,": 5408,
      "▁[पंजाब": 5409,
      "o-operation": 5410,
      "▁होता": 5411,
      "ighth": 5412,
      "gypt": 5413,
      "phere": 5414,
      "ब्ब": 5415,
      "official": 5416,
      "▁Programme": 5417,
      "▁composed": 5418,
      "▁km2": 5419,
      "श्मीरी": 5420,
      "uisine": 5421,
      "odiversity": 5422,
      "▁wide": 5423,
      "▁जिसमें": 5424,
      "dependence": 5425,
      "▁along": 5426,
      "▁कारण": 5427,
      "struc": 5428,
      "074-108": 5429,
      "_मेला?action=edit&redlink=1": 5430,
      "▁Registrar": 5431,
      "▁Plateau": 5432,
      "▁स्थित": 5433,
      "णिपुरी": 5434,
      "ennai": 5435,
      "-4020": 5436,
      "गोआ": 5437,
      "al_Population_Totals": 5438,
      "Articles\\_contain": 5439,
      "arnatic": 5440,
      "ynasty": 5441,
      "-78074-108": 5442,
      "ूर्ण": 5443,
      "श्रीलंका": 5444,
      "र्सिट": 5445,
      "roadcasting": 5446,
      "uthority": 5447,
      "entral_": 5448,
      "ूनिवर्सिट": 5449,
      "▁Increase": 5450,
      "▁स्थाप": 5451,
      "Provisional_Population_Totals": 5452,
      "GuaJIJ": 5453,
      "ZvaGuaJIJ": 5454,
      "ुम्बई": 5455,
      "याधीश": 5456,
      "_Paper_1_of_2011": 5457,
      "▁[अंग्रेज़ी](https://hi.wikipedia.org/wiki/अ": 5458,
      "-78074-108-6": 5459,
      "Provisional_Population_Totals_Paper_1_of_2011": 5460,
      "ZvaGuaJIJgo": 5461,
      "Provisional_Population_Totals_Paper_1_of_2011_India": 5462,
      "*)": 5463,
      "-R": 5464,
      "-S": 5465,
      "-k": 5466,
      "-r": 5467,
      "-an": 5468,
      "-India": 5469,
      "-शासित": 5470,
      "-logo": 5471,
      ".uk": 5472,
      "/g": 5473,
      "1-0": 5474,
      "1-3": 5475,
      "1-4": 5476,
      "338": 5477,
      "7%": 5478,
      "7-1": 5479,
      "83": 5480,
      "9/": 5481,
      "9]](https://en.wikipedia.org/wiki/India#cite_note-": 5482,
      "AG": 5483,
      "Con": 5484,
      "ES": 5485,
      "Home": 5486,
      "IF": 5487,
      "IUCN": 5488,
      "_v": 5489,
      "_pe": 5490,
      "_26": 5491,
      "_राज्य": 5492,
      "_43": 5493,
      "_2004": 5494,
      "_జాబితా": 5495,
      "a)": 5496,
      "ax": 5497,
      "b/": 5498,
      "cog": 5499,
      "cise": 5500,
      "day": 5501,
      "dust": 5502,
      "eth": 5503,
      "epend": 5504,
      "equality": 5505,
      "hut": 5506,
      "here": 5507,
      "hindu": 5508,
      "i-": 5509,
      "lue": 5510,
      "ov": 5511,
      "oint": 5512,
      "ption": 5513,
      "तम": 5514,
      "त\\_मापदण्ड": 5515,
      "पक": 5516,
      "पार": 5517,
      "भिय": 5518,
      "मर": 5519,
      "रत": 5520,
      "वल": 5521,
      "वर्त": 5522,
      "शिया\")": 5523,
      "शीन": 5524,
      "ीगढ़": 5525,
      "ेक": 5526,
      "ॉक": 5527,
      "ఆంధ": 5528,
      "కీ": 5529,
      "కాలు": 5530,
      "క్రమ": 5531,
      "గర్": 5532,
      "డో": 5533,
      "థి": 5534,
      "నె": 5535,
      "నాలు": 5536,
      "పించ": 5537,
      "బడ్డ": 5538,
      "భర": 5539,
      "మహ": 5540,
      "మై": 5541,
      "యన": 5542,
      "రంగ": 5543,
      "లయా": 5544,
      "వార": 5545,
      "శీ": 5546,
      "షనల్": 5547,
      "స్య": 5548,
      "ృద్ధి": 5549,
      "ెంగ": 5550,
      "ేర": 5551,
      "–24": 5552,
      "▁hist": 5553,
      "▁old": 5554,
      "▁దా": 5555,
      "▁నాగరికత": 5556,
      "▁టెక్నాలజీ": 5557,
      "iary": 5558,
      "orn": 5559,
      "](Template:": 5560,
      "▁[ड": 5561,
      "▁[वि": 5562,
      "\")\"": 5563,
      "infob": 5564,
      "erman": 5565,
      "alt": 5566,
      "hild": 5567,
      "of\\_": 5568,
      "▁कु": 5569,
      "ed,": 5570,
      "anda": 5571,
      "్రై": 5572,
      "్రప్రదేశ్": 5573,
      "](https://te.wikipedia.org/wiki/ఢిల్లీ": 5574,
      "▁(c": 5575,
      "▁(199": 5576,
      "asi": 5577,
      "ashi": 5578,
      "▁सँ": 5579,
      "▁स्त": 5580,
      "▁सूचना": 5581,
      "▁India.[[": 5582,
      "▁India](https://en.wikipedia.org/wiki/C": 5583,
      "idy": 5584,
      "raj": 5585,
      "rahm": 5586,
      "entury": 5587,
      "▁मध्य": 5588,
      "▁prom": 5589,
      "ripura": 5590,
      "▁colle": 5591,
      "▁पै": 5592,
      "\\_country": 5593,
      "\\_of\\_": 5594,
      "▁Central": 5595,
      "▁Cooperation": 5596,
      "-15": 5597,
      "ानव": 5598,
      "దేశం": 5599,
      "దేశాల": 5600,
      "దేశాలు": 5601,
      "స్\")": 5602,
      "▁fam": 5603,
      "adras": 5604,
      "adhya": 5605,
      "\n\nభారతదేశం": 5606,
      "ర్‌": 5607,
      "main": 5608,
      "▁Park": 5609,
      "\"),[[": 5610,
      "comm": 5611,
      "_of_B": 5612,
      "లు?action=edit&redlink=1": 5613,
      "▁des": 5614,
      "రాఠ": 5615,
      "▁2012.": 5616,
      "]](https://en.wikipedia.org/wiki/India#cite_note-Combined": 5617,
      "links": 5618,
      "▁top": 5619,
      "▁కి": 5620,
      "▁కో": 5621,
      "▁att": 5622,
      "ालदीव": 5623,
      "ign_": 5624,
      "igarh": 5625,
      "క్టో": 5626,
      "ेशन": 5627,
      "ेशिया": 5628,
      "నియా": 5629,
      "▁వర్": 5630,
      "▁వారస": 5631,
      "▁जी": 5632,
      "▁दशक": 5633,
      "irth": 5634,
      "26.": 5635,
      "260": 5636,
      "267": 5637,
      "ల్వే": 5638,
      "pecially": 5639,
      "eccan": 5640,
      "▁సరిహద్దు": 5641,
      "▁మన": 5642,
      "▁మూ": 5643,
      "▁भारत\")": 5644,
      "28.": 5645,
      "▁Games": 5646,
      "▁H.": 5647,
      "ండమా": 5648,
      "षाण": 5649,
      "▁చిన్న": 5650,
      "తాన": 5651,
      "▁only": 5652,
      "_Act": 5653,
      "ముఖ": 5654,
      "aryana": 5655,
      "▁religion": 5656,
      "▁report": 5657,
      "▁through": 5658,
      "ability": 5659,
      "▁2001": 5660,
      "▁2008": 5661,
      "త్వం": 5662,
      "▁आर": 5663,
      "▁आर्थिक": 5664,
      "▁near": 5665,
      "क्षर": 5666,
      "▁(సా.శ.17": 5667,
      "▁(సా.శ.14": 5668,
      "ులు,": 5669,
      "–సా.శ.15": 5670,
      "–సా.శ.17": 5671,
      "▁ప్రతి": 5672,
      "▁ప్రస్తు": 5673,
      "▁ప్రకారం": 5674,
      "▁ప్రముఖ": 5675,
      "archive.org/detail": 5676,
      "▁growth": 5677,
      "AAJ": 5678,
      "166": 5679,
      "hai": 5680,
      "ంచిన": 5681,
      "కుడు": 5682,
      "▁Ocean": 5683,
      "నుమ": 5684,
      "▁कोर": 5685,
      "काश": 5686,
      "▁\"Mughal": 5687,
      "▁రో": 5688,
      "▁రంగ": 5689,
      "▁రవాణా": 5690,
      "▁సాధించ": 5691,
      "▁शिक्षा": 5692,
      "](https://en.wikipedia.org/wiki/Mugh": 5693,
      "ష్టు": 5694,
      "law": 5695,
      "ियर": 5696,
      "a_d": 5697,
      "a_Empire": 5698,
      "▁within": 5699,
      "](https://en.wikipedia.org/wiki/British": 5700,
      "ంతో": 5701,
      "▁\"Template:": 5702,
      "▁తరువా": 5703,
      "పాలన": 5704,
      "ंडीगढ़": 5705,
      "▁लोग": 5706,
      "▁exp": 5707,
      "ం](https://te.wikipedia.org/wiki/భారతీయ": 5708,
      "issing": 5709,
      "▁क्षेत्रीय": 5710,
      ")\n\n-": 5711,
      "▁Press,": 5712,
      "గుర్": 5713,
      "నేషనల్": 5714,
      "ender": 5715,
      "▁ప్రాంతం": 5716,
      ",_కేంద్రపాలిత": 5717,
      "content": 5718,
      "▁రాజ్యం](https://te.wikipedia.org/wiki/": 5719,
      "▁नेतृत": 5720,
      "వందే": 5721,
      "▁బా": 5722,
      "▁బహు": 5723,
      "▁బెంగ": 5724,
      "▁\"ब्रिटिश": 5725,
      "▁पुरा": 5726,
      "सभ\\_सहितक\\_पृष्ठसभ#": 5727,
      "जनसंख्या": 5728,
      "▁जनवरी": 5729,
      "▁जनसंख्या": 5730,
      "ాల్లో": 5731,
      "handigarh": 5732,
      "html)": 5733,
      "శ్వా": 5734,
      "ారిటీ": 5735,
      "PPP": 5736,
      "▁ప్రాంతాలు\")": 5737,
      "AsherTalbot20": 5738,
      "గోళ": 5739,
      "▁२०१": 5740,
      "1971": 5741,
      "బడిన": 5742,
      "_Lank": 5743,
      "ediff": 5744,
      "▁ago": 5745,
      "తున్న": 5746,
      "న్నిక": 5747,
      "]](https://hi.wikipedia.org/wiki/भारत#cite_note-FOOTNOTEStein1998": 5748,
      "]](https://hi.wikipedia.org/wiki/भारत#cite_note-FOOTNOTESingh2009": 5749,
      "▁స్వాతంత్ర్య": 5750,
      "▁కాలంలో": 5751,
      "ote:": 5752,
      "▁use": 5753,
      "countries_and_depend": 5754,
      "mitt": 5755,
      "](https://mai.wikipedia.org/wiki/भारतक": 5756,
      "Dyson2018),": 5757,
      "िन्धु": 5758,
      "मुख्य": 5759,
      "ortal:": 5760,
      "ంపి": 5761,
      "encies_by": 5762,
      "బెంగాల్": 5763,
      "rishna": 5764,
      "▁especially": 5765,
      ".html).": 5766,
      "rmy": 5767,
      "ెలవు": 5768,
      "](https://te.wikipedia.org/wiki/భారతదేశంలో_": 5769,
      "▁Buddhist": 5770,
      "▁increased": 5771,
      "▁అధికారిక": 5772,
      "catal": 5773,
      "▁रहल": 5774,
      "▁सभ्यता": 5775,
      "](https://en.wikipedia.org/wiki/South_Asian_": 5776,
      "ज्ञात\\_मापदण्ड": 5777,
      "culpture": 5778,
      "text": 5779,
      "▁2018](https://en.wikipedia.org/wiki/India#CITEREFDyson2018),": 5780,
      ".php?": 5781,
      "ఆర్ధిక": 5782,
      "▁पार्टी": 5783,
      "▁పట్టణ": 5784,
      "▁కాశ్మీరు": 5785,
      "ological": 5786,
      "\\_अज्ञात\\_मापदण्ड": 5787,
      "▁Minorities": 5788,
      "▁dependencies": 5789,
      "ంగ్లీషు": 5790,
      "त्तराखण्ड": 5791,
      "▁estimate": 5792,
      "▁అయిన": 5793,
      "▁రెండు": 5794,
      "violence": 5795,
      "ాల్దీవులు": 5796,
      "एसियाक": 5797,
      "ట్రో": 5798,
      "ుల్తాన": 5799,
      "రాష్ట్రాలు,_కేంద్రపాలిత": 5800,
      "▁వ్యాసం:": 5801,
      "हायता:": 5802,
      "▁अप्रैल": 5803,
      "हिमाचल": 5804,
      "▁लेख:": 5805,
      "ార్లమెంట": 5806,
      "▁./వర్గం:Wikipedia\\_articles\\_with\\_": 5807,
      "▁ఏర్ప": 5808,
      "\\_देशमे\\_अज्ञात\\_मापदण्ड": 5809,
      "▁./श्रेणी:जानकारीबौक्स\\_देशमे\\_अज्ञात\\_मापदण्ड": 5810,
      "▁Quote:": 5811,
      "ZvaGuaJIJgoC&pg=PA": 5812,
      "ఆంధ్రప్రదేశ్": 5813,
      "లయాళ": 5814,
      "infobox": 5815,
      "archive.org/details/": 5816,
      "](https://en.wikipedia.org/wiki/Mughal_": 5817,
      "countries_and_dependencies_by": 5818,
      "రాష్ట్రాలు,_కేంద్రపాలిత_ప్రాంత": 5819,
      "▁./श्रेणी:जानकारीबौक्स\\_देशमे\\_अज्ञात\\_मापदण्डसभ\\_सहितक\\_पृष्ठसभ#": 5820,
      "-T": 5821,
      "-world": 5822,
      ".co": 5823,
      "/s": 5824,
      "/India": 5825,
      "313": 5826,
      "4]](https://en.wikipedia.org/wiki/India#cite_note-": 5827,
      "418": 5828,
      "5]](https://en.wikipedia.org/wiki/India#cite_note-": 5829,
      "66": 5830,
      "677": 5831,
      "72": 5832,
      "7C": 5833,
      "82": 5834,
      "9]](https://en.wikipedia.org/wiki/India#cite_note-FOOTNOTE": 5835,
      ";[[": 5836,
      "Alig": 5837,
      "EX": 5838,
      "Ex": 5839,
      "Ze": 5840,
      "_&": 5841,
      "_उ": 5842,
      "_20": 5843,
      "_राज": 5844,
      "_36": 5845,
      "_38": 5846,
      "_dom": 5847,
      "_2024": 5848,
      "aha": 5849,
      "ather": 5850,
      "ative": 5851,
      "ault": 5852,
      "baki": 5853,
      "dic": 5854,
      "ethnologue": 5855,
      "hak": 5856,
      "ka": 5857,
      "kb": 5858,
      "khand": 5859,
      "lm": 5860,
      "mil": 5861,
      "oin": 5862,
      "p)": 5863,
      "page": 5864,
      "s:": 5865,
      "subcontinent": 5866,
      "tain": 5867,
      "tandard": 5868,
      "vent": 5869,
      "vil": 5870,
      "wana": 5871,
      "अरब": 5872,
      "एन": 5873,
      "एल": 5874,
      "गाल": 5875,
      "टि": 5876,
      "द्वार": 5877,
      "धा": 5878,
      "मु": 5879,
      "लिस": 5880,
      "षय": 5881,
      "िनेमा": 5882,
      "ृद्ध": 5883,
      "ॉल": 5884,
      "▁३": 5885,
      "▁ge": 5886,
      "▁36": 5887,
      "▁eng": 5888,
      "orship": 5889,
      "tter": 5890,
      "▁[n": 5891,
      "▁[य": 5892,
      "▁[नेपाल": 5893,
      "ences": 5894,
      "tection": 5895,
      "▁\"U": 5896,
      "▁\"य": 5897,
      "▁\"World": 5898,
      "▁\"नेपाल": 5899,
      "](https://en.wikipedia.org/wiki/World": 5900,
      "erved": 5901,
      "artition": 5902,
      "alit": 5903,
      "him": 5904,
      "ार्व": 5905,
      "ederal": 5906,
      "▁(S": 5907,
      "▁(अ": 5908,
      "▁(ed.).": 5909,
      "भारतीय": 5910,
      "ichell": 5911,
      "▁India*.": 5912,
      "्यों": 5913,
      "ately": 5914,
      "▁popul": 5915,
      "▁political": 5916,
      "ets": 5917,
      "▁coast": 5918,
      "राक": 5919,
      "ator": 5920,
      "atab": 5921,
      "atna": 5922,
      "\\_(": 5923,
      "▁As": 5924,
      "▁Comp": 5925,
      "▁Chand": 5926,
      "agen": 5927,
      "▁See": 5928,
      "ango": 5929,
      "angam": 5930,
      "\n\nमुख्य": 5931,
      "▁bu": 5932,
      "lima": 5933,
      "78.": 5934,
      "umar": 5935,
      "vert": 5936,
      "very": 5937,
      "ults": 5938,
      "▁14.": 5939,
      "iland": 5940,
      "stani": 5941,
      "▁work": 5942,
      "ourbaki": 5943,
      ".\n10": 5944,
      ".\n11": 5945,
      "oln": 5946,
      "▁Rothermund": 5947,
      "▁Man": 5948,
      "▁Muslim": 5949,
      "-0)\n": 5950,
      "rest": 5951,
      "▁Bi": 5952,
      "▁By": 5953,
      "238": 5954,
      "▁जय": 5955,
      "▁Dictionary": 5956,
      "▁दिल्ल": 5957,
      "105": 5958,
      "_(भारत)": 5959,
      ".jpe": 5960,
      "त्रु": 5961,
      "index": 5962,
      "▁[↑](https://en.wikipedia.org/wiki/India#cite_ref-4": 5963,
      "eck": 5964,
      "▁प्रस": 5965,
      "▁प्रेस": 5966,
      "▁प्रौद्योगिक": 5967,
      "-39": 5968,
      "-45": 5969,
      "115": 5970,
      "50th": 5971,
      "22.": 5972,
      "▁व्य": 5973,
      "▁व्या": 5974,
      "ghts": 5975,
      "▁International": 5976,
      "▁[\"P": 5977,
      "406]](https://en.wikipedia.org/wiki/India#cite_note-": 5978,
      "▁gen": 5979,
      "▁\"Cambridge": 5980,
      "oss": 5981,
      "hatt": 5982,
      "harkhand": 5983,
      "_Comm": 5984,
      "ड़िया": 5985,
      "▁Languages": 5986,
      "▁[Cambridge": 5987,
      "▁[978-0-521": 5988,
      "ndhra": 5989,
      "▁[↑](https://en.wikipedia.org/wiki/India#cite_ref-FOOTNOTEStein2010": 5990,
      "▁before": 5991,
      "▁शु": 5992,
      "lative": 5993,
      "ियार": 5994,
      "▁original](http://www.": 5995,
      "साई": 5996,
      "_Mah": 5997,
      "▁सागर": 5998,
      "inema": 5999,
      "aith": 6000,
      "48)": 6001,
      "arden": 6002,
      "▁लग": 6003,
      "ेली": 6004,
      "▁range": 6005,
      "issile": 6006,
      "ंग्रेज": 6007,
      "iance": 6008,
      "परमाणु": 6009,
      "akistani": 6010,
      "vention": 6011,
      "▁[New": 6012,
      "▁lite": 6013,
      "class": 6014,
      "type": 6015,
      "onstitution_of_India": 6016,
      "ज्ज": 6017,
      "▁vill": 6018,
      "▁राजधान": 6019,
      "▁राजवंश": 6020,
      "ambridge_University_Press": 6021,
      "▁स्थान": 6022,
      "▁(2014).": 6023,
      "▁जाती": 6024,
      "alayal": 6025,
      "erves": 6026,
      "on-Alig": 6027,
      "aceu": 6028,
      "%E0%A4%A": 6029,
      "▁2007](https://en.wikipedia.org/wiki/India#CITEREF": 6030,
      "▁News": 6031,
      "attle": 6032,
      "ureau": 6033,
      "1947)": 6034,
      "▁प्राचीन": 6035,
      "▁Pradesh\")": 6036,
      "आईएस": 6037,
      "ondon": 6038,
      "रेन्द्र": 6039,
      "▁धर्म\")": 6040,
      "hola": 6041,
      "ollingham": 6042,
      "▁था।": 6043,
      "▁2024.": 6044,
      "▁शासित": 6045,
      "▁different": 6046,
      "ांग्लादेश": 6047,
      "लोकसभा": 6048,
      "धुनिक": 6049,
      "cheduled": 6050,
      "▁साम्राज्य\")": 6051,
      "4/4": 6052,
      "olkata": 6053,
      ".nlm": 6054,
      "bi.nlm": 6055,
      "दिल्ली": 6056,
      "▁including": 6057,
      "▁[India](https://en.wikipedia.org/wiki/India": 6058,
      "ritsch": 6059,
      "troduction": 6060,
      "ilgrim": 6061,
      "langoff-1": 6062,
      "vatsyayan-lord-4": 6063,
      "vatsyayan-lord_43": 6064,
      "jection": 6065,
      "_of_South_Asia": 6066,
      "nergy": 6067,
      "_साम्राज्य": 6068,
      "arnataka": 6069,
      "owever,": 6070,
      "bank.org/": 6071,
      "▁पहले": 6072,
      "harmaceu": 6073,
      "Congress2004": 6074,
      "▁mi)": 6075,
      "olonial": 6076,
      "ouncil": 6077,
      "do-Pakistani": 6078,
      ".nih": 6079,
      "नुसार_देश": 6080,
      "▁[हिन्दी](https://hi.wikipedia.org/wiki/हिन्दी": 6081,
      "arliest": 6082,
      "hmedabad": 6083,
      "▁चुनावों": 6084,
      "Front": 6085,
      "kZVuDwAAQBAJ&pg=PA": 6086,
      "mritsar": 6087,
      "ncbi.nlm": 6088,
      "▁सैन्य": 6089,
      "urvey": 6090,
      "भाजपा": 6091,
      "▁Press](https://en.wikipedia.org/wiki/Cambridge_University_Press": 6092,
      "dustrial": 6093,
      "ethnologue.com/": 6094,
      "406]](https://en.wikipedia.org/wiki/India#cite_note-vatsyayan-lord-4": 6095,
      "on-Aligned": 6096,
      "ncbi.nlm.nih": 6097,
      "%3": 6098,
      ")\"),": 6099,
      "-F": 6100,
      "-the": 6101,
      "-24": 6102,
      "/).": 6103,
      "2-1": 6104,
      "221": 6105,
      "2)[[": 6106,
      "3-1": 6107,
      "32)": 6108,
      "4,": 6109,
      "8+": 6110,
      "CH": 6111,
      "Collingham": 6112,
      "F)": 6113,
      "M50th": 6114,
      "NCL": 6115,
      "OV": 6116,
      "Pakistan": 6117,
      "S$": 6118,
      "Sanskrit": 6119,
      "TO": 6120,
      "Template": 6121,
      "Tarlo": 6122,
      "_-": 6123,
      "_घ": 6124,
      "_వి": 6125,
      "_industry": 6126,
      "_కాశ్మీ": 6127,
      "athe": 6128,
      "aos": 6129,
      "athematics": 6130,
      "bhasha": 6131,
      "dis": 6132,
      "eat": 6133,
      "ead": 6134,
      "even": 6135,
      "eligious": 6136,
      "evanagari": 6137,
      "gu": 6138,
      "hdr": 6139,
      "lar": 6140,
      "mill": 6141,
      "ns": 6142,
      "odia": 6143,
      "ren": 6144,
      "round": 6145,
      "rune": 6146,
      "yd": 6147,
      "yth": 6148,
      "zer": 6149,
      "इव": 6150,
      "खन": 6151,
      "ग्व": 6152,
      "च्": 6153,
      "चित्र": 6154,
      "जं": 6155,
      "ञ्": 6156,
      "तनाम": 6157,
      "दर्": 6158,
      "नत्व": 6159,
      "पया": 6160,
      "पदी": 6161,
      "फोर्ड": 6162,
      "ब्ल": 6163,
      "बेट": 6164,
      "भग": 6165,
      "भ्स": 6166,
      "म\")": 6167,
      "यर": 6168,
      "लों": 6169,
      "िंग": 6170,
      "ीठ": 6171,
      "ुवै": 6172,
      "ैंक": 6173,
      "ॉंग्रेस": 6174,
      "ौसेना": 6175,
      "ौपदी": 6176,
      "२००": 6177,
      "ంస్కృ": 6178,
      "ఉత్తరా": 6179,
      "ఖో": 6180,
      "ఘాలయ": 6181,
      "చ్": 6182,
      "టై": 6183,
      "టర్": 6184,
      "డమ్": 6185,
      "డఖ్": 6186,
      "ణే": 6187,
      "ణంగా": 6188,
      "తే": 6189,
      "తెల": 6190,
      "దరంగ": 6191,
      "నో": 6192,
      "నంద": 6193,
      "బర్": 6194,
      "బార్": 6195,
      "యె": 6196,
      "రె": 6197,
      "లడఖ్": 6198,
      "ళా": 6199,
      "ళి": 6200,
      "శు": 6201,
      "హించ": 6202,
      "ుకు": 6203,
      "ెన్న": 6204,
      "ెట్రో": 6205,
      "ేతి": 6206,
      "ేఘాలయ": 6207,
      "ైనిక": 6208,
      "ొగలు": 6209,
      "ోళ": 6210,
      "‌కా": 6211,
      "‌మహ": 6212,
      "▁`": 6213,
      "▁°": 6214,
      "▁·": 6215,
      "▁५": 6216,
      "▁ఐ": 6217,
      "▁ఖ": 6218,
      "▁ला": 6219,
      "▁–సా.శ.": 6220,
      "▁భారతీయ": 6221,
      "▁46": 6222,
      "▁దినోత్స": 6223,
      "▁kingdom": 6224,
      "iated": 6225,
      "▁[Y": 6226,
      "▁[ई": 6227,
      "▁[ग": 6228,
      "▁[प्र": 6229,
      "▁[రాష్ట్ర": 6230,
      "▁[జన": 6231,
      "▁[గో": 6232,
      "▁[तमिल": 6233,
      "▁\"ड": 6234,
      "▁\"सा": 6235,
      "▁\"పా": 6236,
      "▁\"జన": 6237,
      "▁\"గో": 6238,
      "▁\"మూస:": 6239,
      "ino-": 6240,
      "an,": 6241,
      "anat": 6242,
      "anchi": 6243,
      "tile": 6244,
      "ties/": 6245,
      "thang": 6246,
      "India_G": 6247,
      "ars": 6248,
      "arth": 6249,
      "ester": 6250,
      "es.[[": 6251,
      "rel": 6252,
      "report": 6253,
      "ofker": 6254,
      "ारी": 6255,
      "thehindu": 6256,
      "▁कम": 6257,
      "](https://hi.wikipedia.org/wiki/पाकिस्तान": 6258,
      "omo": 6259,
      "itation": 6260,
      "](https://te.wikipedia.org/wiki/B": 6261,
      "](https://te.wikipedia.org/wiki/G": 6262,
      "](https://te.wikipedia.org/wiki/భారతదేశ": 6263,
      "](https://te.wikipedia.org/wiki/గో": 6264,
      "](https://te.wikipedia.org/wiki/మూస:": 6265,
      "▁(क": 6266,
      "ారస్వ": 6267,
      "▁सह": 6268,
      "▁साल": 6269,
      "▁स्व": 6270,
      "▁स्वतंत्रता": 6271,
      "196": 6272,
      "id-": 6273,
      "ratic": 6274,
      "▁school": 6275,
      "▁मौ": 6276,
      "ాలె": 6277,
      "▁pres": 6278,
      "-0-3": 6279,
      "etry": 6280,
      "acmill": 6281,
      "ingap": 6282,
      "▁can": 6283,
      "▁capita": 6284,
      "राम": 6285,
      "ating": 6286,
      "\\_template": 6287,
      "▁Ad": 6288,
      "ager": 6289,
      "స్ట": 6290,
      "స్వాతంత్ర్య": 6291,
      "▁Sabha": 6292,
      "▁Society": 6293,
      "▁four": 6294,
      "▁fol": 6295,
      "▁fig": 6296,
      "▁పర": 6297,
      "▁పండు": 6298,
      "angered": 6299,
      "lite": 6300,
      "loped": 6301,
      "urk": 6302,
      "urry": 6303,
      "umeration": 6304,
      "▁हर": 6305,
      "](https://hi.wikipedia.org/wiki/भारत_के": 6306,
      "well": 6307,
      "లు](https://te.wikipedia.org/wiki/": 6308,
      "▁would": 6309,
      "రాన్": 6310,
      "రాస్య": 6311,
      "fir": 6312,
      "▁Temple": 6313,
      ".\n15": 6314,
      "▁Routledge": 6315,
      "▁Minister": 6316,
      "▁Machine": 6317,
      "▁కే": 6318,
      "▁కోర్": 6319,
      "త్రిక": 6320,
      "▁B.": 6321,
      "▁B.;": 6322,
      "igration": 6323,
      "క్స్": 6324,
      "క్కి": 6325,
      "s.com": 6326,
      "23.": 6327,
      "▁వె": 6328,
      "▁వంట": 6329,
      "▁led": 6330,
      "▁\"Sanskrit": 6331,
      "269,": 6332,
      "indhi": 6333,
      "_की_": 6334,
      "ంగో": 6335,
      "▁సముద్ర": 6336,
      "▁సూచ": 6337,
      "▁సౌక": 6338,
      "▁*India": 6339,
      "लाओ": 6340,
      "लादेश": 6341,
      "1991": 6342,
      "్రామ": 6343,
      "ंगाना": 6344,
      "upt": 6345,
      "bert": 6346,
      "287,": 6347,
      "tudi": 6348,
      "▁ele": 6349,
      "▁Greek": 6350,
      "▁Health": 6351,
      "▁N.": 6352,
      "▁Nicobar": 6353,
      "ండా": 6354,
      "ండీ": 6355,
      "ండ్య": 6356,
      "_in_New": 6357,
      "తాజ్": 6358,
      "_A7C": 6359,
      "నాథ": 6360,
      "▁third": 6361,
      "సింది.": 6362,
      "త్వా": 6363,
      "▁व्यवस्था": 6364,
      "▁[SAARC": 6365,
      "-85": 6366,
      "ody": 6367,
      "▁(సా.శ.16": 6368,
      "▁1962": 6369,
      "ులు?action=edit&redlink=1": 6370,
      "▁అభి": 6371,
      "ountain": 6372,
      "▁[\"G": 6373,
      "▁ప్రజా": 6374,
      "తం?action=edit&redlink=1": 6375,
      "▁\"Chin": 6376,
      "17.": 6377,
      "osphere": 6378,
      "hailand": 6379,
      "good": 6380,
      "▁Organization": 6381,
      "ड़ियाँ": 6382,
      "పూర్": 6383,
      "▁[Central": 6384,
      "aph": 6385,
      "_Pradesh": 6386,
      "ప్రిల్": 6387,
      "ngineering": 6388,
      "▁उन": 6389,
      "▁[978-81": 6390,
      "▁ఉంట": 6391,
      "▁ఉత్తర": 6392,
      "काता": 6393,
      "](https://books.google.com/books?id=3TRtDwAAQBAJ&pg=PA": 6394,
      "_महासागर": 6395,
      "▁సామా": 6396,
      "వాద": 6397,
      "▁शक्त": 6398,
      "విధ": 6399,
      "▁विस्त": 6400,
      "▁विदेश": 6401,
      "ార్ఖండ్": 6402,
      "క్షరాస్య": 6403,
      "▁इंडिया": 6404,
      "▁\"Special:BookSources/978-81": 6405,
      "](Special:BookSources/978-81": 6406,
      "otal": 6407,
      "%20A": 6408,
      "त्ति": 6409,
      "ogri": 6410,
      "_March": 6411,
      "709": 6412,
      "పుర": 6413,
      "▁నడి": 6414,
      "2011religion": 6415,
      "जापान": 6416,
      "▁ఇండియా": 6417,
      "▁now": 6418,
      "मन्त": 6419,
      "ंडोन": 6420,
      "हात्": 6421,
      "▁राज्यक्षेत्र": 6422,
      "▁areas": 6423,
      "_and_union_territ": 6424,
      "%2C5": 6425,
      "%2C_India": 6426,
      "ोलकाता": 6427,
      "▁क्षेत्रों": 6428,
      "గుప్": 6429,
      "డుకు": 6430,
      "నేషియా": 6431,
      "र्मू": 6432,
      "_River": 6433,
      "▁Ved": 6434,
      "्राष्ट्र": 6435,
      "▁[![The": 6436,
      "aking": 6437,
      "ంగాణ": 6438,
      "article": 6439,
      "▁జన": 6440,
      "లియా": 6441,
      "▁\"अंग्रेज़ी": 6442,
      "▁ప్రాచ": 6443,
      "▁విభ": 6444,
      "▁వివిధ": 6445,
      "▁సంఘ": 6446,
      "49-2": 6447,
      "ंध्र": 6448,
      "ameez": 6449,
      "ండిచ్చేరి": 6450,
      "▁like": 6451,
      "भिज्ञा": 6452,
      "feb": 6453,
      "ोगरी": 6454,
      "▁main": 6455,
      "सभक": 6456,
      "svg": 6457,
      "Asher2006": 6458,
      "AsherAsher2006": 6459,
      "▁1998": 6460,
      "▁[ब्रिटिश": 6461,
      "▁जनता": 6462,
      "_128": 6463,
      "egistrar": 6464,
      "▁देश\")": 6465,
      "िशा": 6466,
      "मेव": 6467,
      "▁[Kulke": 6468,
      "amese": 6469,
      "జీరియా": 6470,
      "पुरम": 6471,
      "do-G": 6472,
      "33-7": 6473,
      "orthographic": 6474,
      "ంకేతి": 6475,
      "हरिया": 6476,
      "వేలీ": 6477,
      "▁contin": 6478,
      "alaysia": 6479,
      "DwAAQBAJ": 6480,
      "ष्ण": 6481,
      "द्रौपदी": 6482,
      "▁मेला\"),": 6483,
      "_Fund": 6484,
      "_Force": 6485,
      "ंग्रेज़ी_भाषा": 6486,
      "rates": 6487,
      "ालीन": 6488,
      "బియా": 6489,
      "▁change": 6490,
      "ukesh": 6491,
      "न्नई": 6492,
      "श्चिमी": 6493,
      "▁river": 6494,
      "ynth": 6495,
      "जराय": 6496,
      "డామన్": 6497,
      "▁రాష్ట్రపతి": 6498,
      "national-language": 6499,
      "▁agriculture": 6500,
      "▁मानसून": 6501,
      "త్రిపుర": 6502,
      "_కాల": 6503,
      "समिया": 6504,
      "▁రైల్వే": 6505,
      "ographical": 6506,
      "య్యూ": 6507,
      "త్తీస్": 6508,
      "▁ప్రదేశ్](https://te.wikipedia.org/wiki/": 6509,
      "▁disc": 6510,
      "▁[Archived](https://web.archive.org/web/20210": 6511,
      "నాగాలా": 6512,
      "िपीठ": 6513,
      "▁पुरालेखित।,": 6514,
      "▁[संयुक्त": 6515,
      "▁\"జమ్మూ": 6516,
      "▁These": 6517,
      "्वतन्त्र": 6518,
      "बंधन": 6519,
      "–123": 6520,
      "ambodia": 6521,
      "▁పాకిస్తాన్": 6522,
      "▁subcontinent\")": 6523,
      "ually": 6524,
      "tected": 6525,
      "కోవ": 6526,
      "కోబార్": 6527,
      "](https://te.wikipedia.org/wiki/జమ్మూ": 6528,
      "lock": 6529,
      "local_": 6530,
      "ల్లవ": 6531,
      "तेलंगाना": 6532,
      "▁देख": 6533,
      "_और_संघ": 6534,
      "क्सफोर्ड": 6535,
      "▁commun": 6536,
      "▁Force": 6537,
      "▁2020.": 6538,
      "त्यमेव": 6539,
      "▁युग": 6540,
      "▁\"संस्कृत": 6541,
      "रक्षा": 6542,
      "हित्य": 6543,
      "▁species": 6544,
      "chedule": 6545,
      "emocratic": 6546,
      "_के_आधार_पर_भारत_के_राज्यों_की_सूची": 6547,
      "రేబియా": 6548,
      "_एशिया": 6549,
      "f/f": 6550,
      "▁rock": 6551,
      "ominion": 6552,
      "▁2025.": 6553,
      "టాక్": 6554,
      "▁|\n\nCategory:": 6555,
      "ataraj": 6556,
      "▁People": 6557,
      "▁మాత్ర": 6558,
      "్రిటిష్": 6559,
      "▁बहुत": 6560,
      "_from": 6561,
      "janta": 6562,
      "వెను": 6563,
      "ూచి": 6564,
      "▁Chinese": 6565,
      "భారతదేశ_రాష్ట్రాలు,_కేంద్రపాలిత_ప్రాంత": 6566,
      "sites/": 6567,
      "tiger": 6568,
      "...]": 6569,
      "ప్పటిక": 6570,
      ".htm)": 6571,
      "▁emerg": 6572,
      "▁(1,269,": 6573,
      "లేషియా": 6574,
      "▁ओर": 6575,
      "्यानमार": 6576,
      "_projection": 6577,
      "▁majority": 6578,
      "▁3,287,": 6579,
      "▁మొదల": 6580,
      "Chennai": 6581,
      "▁occup": 6582,
      "Library_of_": 6583,
      "Sharma2007": 6584,
      "ద్యు": 6585,
      "▁చిత్ర": 6586,
      "ద్వీప్": 6587,
      "▁ఉపఖండ": 6588,
      "ంటుంది.": 6589,
      "▁దేశంలోని": 6590,
      "▁కాంగ్రెసు": 6591,
      "दिभ्स": 6592,
      "▁appro": 6593,
      "त्रिपुरा": 6594,
      "▁निर्माण": 6595,
      "Report.pdf)": 6596,
      "Taj_Mah": 6597,
      "इप्रस": 6598,
      "ఆగష్టు": 6599,
      "లక్షద్వీప్": 6600,
      "హాయం:": 6601,
      "ీకరణ": 6602,
      "ోల్‌కా": 6603,
      "-0-415": 6604,
      "al_in_March": 6605,
      "प्राचीन": 6606,
      "మిజోరా": 6607,
      "तेलुगू": 6608,
      "lurton199": 6609,
      "ravidian": 6610,
      "elangana": 6611,
      "भीमबेट": 6612,
      "▁employed": 6613,
      "झारखंड": 6614,
      "ర్యానా": 6615,
      "▁[ఢిల్లీ](https://te.wikipedia.org/wiki/ఢిల్లీ": 6616,
      "▁\"पाकिस्तान\")": 6617,
      "reedom": 6618,
      "razil": 6619,
      "టిబెట్": 6620,
      "మెరికా": 6621,
      "nclm.nic.in/shared/linkimages/NCL": 6622,
      "Census2011religion": 6623,
      "छत्तीसगढ़": 6624,
      "िंधु": 6625,
      "lothing": 6626,
      "ाल्दिभ्स": 6627,
      "ब्बत": 6628,
      "▁widely": 6629,
      "▁[अंग्रेज़ी](https://hi.wikipedia.org/wiki/अंग्रेज़ी_भाषा": 6630,
      "Home_Affairs": 6631,
      "IFT": 6632,
      "బడ్డీ": 6633,
      "ేరళ": 6634,
      "▁कुछ": 6635,
      "్రైస్త": 6636,
      "ండమాన్": 6637,
      "▁नेतृत्व": 6638,
      "ెలవుదిన": 6639,
      "▁./श्रेणी:जानकारीबौक्स\\_देशमे\\_अज्ञात\\_मापदण्डसभ\\_सहितक\\_पृष्ठसभ#l": 6640,
      "olnar": 6641,
      "hattis": 6642,
      "_Commission": 6643,
      "alayalam": 6644,
      "M50thReport.pdf)": 6645,
      "Tarlo1996": 6646,
      "runei": 6647,
      "च्छ": 6648,
      "दर्श": 6649,
      "ुवैत": 6650,
      "తెలంగాణ": 6651,
      "ెన్నై": 6652,
      "‌మహల్": 6653,
      "India_Goa": 6654,
      "acmillan": 6655,
      "ingapore": 6656,
      "tudies": 6657,
      "_in_New_Delhi": 6658,
      "తాజ్‌మహల్": 6659,
      "క్షరాస్యత": 6660,
      "हात्मा": 6661,
      "_and_union_territories": 6662,
      "भिज्ञापक": 6663,
      "orthographic_projection": 6664,
      "నాగాలాండ్": 6665,
      "्वतन्त्रता": 6666,
      "](https://te.wikipedia.org/wiki/జమ్మూ_కాశ్మీ": 6667,
      "Taj_Mahal_in_March": 6668,
      "ోల్‌కాతా": 6669,
      "भीमबेटका": 6670,
      "nclm.nic.in/shared/linkimages/NCLM50thReport.pdf)": 6671,
      "Taj_Mahal_in_March_2004": 6672,
      "&ss": 6673,
      "*](https://": 6674,
      "-H": 6675,
      "-e": 6676,
      "-w": 6677,
      "-ex": 6678,
      "-II": 6679,
      ".ed": 6680,
      "/national": 6681,
      "09": 6682,
      "0/0": 6683,
      "1]](https://en.wikipedia.org/wiki/India#cite_note-": 6684,
      "220": 6685,
      "2),": 6686,
      "226": 6687,
      "2nd": 6688,
      "3).": 6689,
      "3]](https://en.wikipedia.org/wiki/India#cite_note-": 6690,
      "41": 6691,
      "400": 6692,
      "5-3": 6693,
      "7]](https://en.wikipedia.org/wiki/India#cite_note-": 6694,
      "8]](https://en.wikipedia.org/wiki/India#cite_note-FOOTNOTE": 6695,
      "A5%": 6696,
      "C)": 6697,
      "Countries": 6698,
      "Constituent": 6699,
      "EN": 6700,
      "Forest": 6701,
      "Hindustan": 6702,
      "Jha": 6703,
      "Language": 6704,
      "Mumbai": 6705,
      "Petraglia": 6706,
      "States": 6707,
      "Wright": 6708,
      "\\*": 6709,
      "_त": 6710,
      "_श": 6711,
      "_15": 6712,
      "_per": 6713,
      "_2011": 6714,
      "_Union": 6715,
      "_term": 6716,
      "_धर्म": 6717,
      "aci": 6718,
      "cu": 6719,
      "cod": 6720,
      "ctive": 6721,
      "dy": 6722,
      "eu": 6723,
      "gion": 6724,
      "hā": 6725,
      "mall": 6726,
      "rian": 6727,
      "rban": 6728,
      "sm": 6729,
      "s_in_India": 6730,
      "sources": 6731,
      "tou": 6732,
      "tate": 6733,
      "u,": 6734,
      "ui": 6735,
      "uries": 6736,
      "upee": 6737,
      "y=": 6738,
      "ँची": 6739,
      "टना": 6740,
      "बल": 6741,
      "मरी": 6742,
      "स्व": 6743,
      "हम": 6744,
      "ेड": 6745,
      "ोला": 6746,
      "्थ": 6747,
      "४७": 6748,
      "५०": 6749,
      "▁:": 6750,
      "▁औ": 6751,
      "▁40": 6752,
      "▁7.": 6753,
      "▁9.": 6754,
      "▁ob": 6755,
      "▁भाग": 6756,
      "org": 6757,
      "orpor": 6758,
      "pen": 6759,
      "](https://id": 6760,
      "▁[राज्य": 6761,
      "ened": 6762,
      "enous": 6763,
      "▁\"ग": 6764,
      "inated": 6765,
      "onk": 6766,
      "tification": 6767,
      "er-": 6768,
      "alace": 6769,
      "alk:": 6770,
      "hir": 6771,
      "reen": 6772,
      "्रु": 6773,
      "▁काल": 6774,
      "▁कॉंग्रेस": 6775,
      "](https://hi.wikipedia.org/wiki/दक्षिण": 6776,
      "](https://hi.wikipedia.org/wiki/तमिल": 6777,
      "itar": 6778,
      "▁(b": 6779,
      "▁(in": 6780,
      "▁(भारत": 6781,
      "▁(2007": 6782,
      "▁(India)": 6783,
      "▁(nominal)": 6784,
      "asht": 6785,
      "▁सन्": 6786,
      "▁सित": 6787,
      "▁समाज": 6788,
      "▁India\"](https://web.archive.org/web/201": 6789,
      "19.": 6790,
      "▁independence": 6791,
      "raman": 6792,
      "▁मई": 6793,
      "▁मन": 6794,
      "▁मिल": 6795,
      "▁prac": 6796,
      "ries/": 6797,
      "etwork": 6798,
      "ation,": 6799,
      "ations/": 6800,
      "acred": 6801,
      "ing,": 6802,
      "▁cre": 6803,
      "▁census": 6804,
      "amy": 6805,
      "ustice": 6806,
      "▁Agency": 6807,
      "-138": 6808,
      "▁Sub": 6809,
      "▁band": 6810,
      "▁based": 6811,
      "▁talk:": 6812,
      "lose": 6813,
      "ेंगल": 6814,
      "▁Policy": 6815,
      "](https://hi.wikipedia.org/wiki/भारत_के_राज्य": 6816,
      "rove": 6817,
      "rowing": 6818,
      "rocod": 6819,
      "▁men": 6820,
      "ilk": 6821,
      "ily": 6822,
      "ilbert": 6823,
      "▁[↑](https://en.wikipedia.org/wiki/India#cite_": 6824,
      "▁divis": 6825,
      "ourts": 6826,
      "ourism": 6827,
      "ficient": 6828,
      "](https://en.wikipedia.org/wiki/India#cite_ref-vatsyayan-lord_43": 6829,
      "▁अधिराज्य": 6830,
      "▁Trade": 6831,
      ".\n14": 6832,
      "▁Mar": 6833,
      "▁Michael": 6834,
      "▁में,": 6835,
      "न्ध": 6836,
      "igved": 6837,
      "igenous": 6838,
      "s.\"\n": 6839,
      "▁जब": 6840,
      "▁Dance": 6841,
      "भाई": 6842,
      "भाष": 6843,
      "▁last": 6844,
      "▁\"Special:EditPage/Template:": 6845,
      "indic": 6846,
      "24.": 6847,
      "lymp": 6848,
      "india.com/": 6849,
      "▁Economy": 6850,
      "▁Emer": 6851,
      "oung": 6852,
      "Univers": 6853,
      "beral": 6854,
      "▁east": 6855,
      "▁Ganges": 6856,
      "▁Gujarat": 6857,
      "▁Hindus": 6858,
      "▁नव": 6859,
      "opland": 6860,
      "▁republic": 6861,
      "▁though": 6862,
      "](https://en.wikipedia.org/wiki/India#CITEREFM": 6863,
      "ablish": 6864,
      "▁2007.": 6865,
      "▁आन्दोल": 6866,
      "akers": 6867,
      "1857": 6868,
      "▁ne": 6869,
      "▁[Singh": 6870,
      "_of_India.svg": 6871,
      "ountries/": 6872,
      "▁Informatics": 6873,
      "40px-": 6874,
      "▁\"Central": 6875,
      "▁\"Climate": 6876,
      "osa": 6877,
      "▁गई": 6878,
      "▁गठ": 6879,
      "_and_Development": 6880,
      "▁[China": 6881,
      "](https://en.wikipedia.org/wiki/China": 6882,
      "aving": 6883,
      "▁[मध्य": 6884,
      "▁\"Ministry": 6885,
      "](Special:EditPage/Template:": 6886,
      "▁become": 6887,
      "म्भ": 6888,
      "▁शहर": 6889,
      "](https://en.wikipedia.org/wiki/Ministry_of_": 6890,
      "संधान": 6891,
      "▁\"Special:BookSources/978-0-521": 6892,
      "](Special:BookSources/978-0-521": 6893,
      "a_M": 6894,
      "undarb": 6895,
      "Harv\\_and\\_Sfn\\_no-target\\_errors\n": 6896,
      "▁str": 6897,
      "]](https://hi.wikipedia.org/wiki/भारत#cite_note-pib": 6898,
      "ajas": 6899,
      "rchitecture": 6900,
      "_के_अ": 6901,
      "orea": 6902,
      "lled": 6903,
      "ज़ा": 6904,
      "_Times": 6905,
      "▁\"Template": 6906,
      "398": 6907,
      "489": 6908,
      "▁लिये": 6909,
      "▁ancient": 6910,
      "▁\"Delhi": 6911,
      "](https://en.wikipedia.org/wiki/Template_": 6912,
      "धानमन्त": 6913,
      "](https://en.wikipedia.org/wiki/Delhi": 6914,
      "_Gandhi": 6915,
      "▁Vedic": 6916,
      "्रांस": 6917,
      "_Nations": 6918,
      "1):": 6919,
      "▁\"Routledge": 6920,
      "](https://en.wikipedia.org/wiki/Routledge": 6921,
      "▁2011](https://en.wikipedia.org/wiki/India#CITEREF": 6922,
      "▁[Tamil": 6923,
      "▁[Routledge": 6924,
      "angetic": 6925,
      "▁यूनिवर्सिट": 6926,
      "▁चार": 6927,
      "▁जनजाति": 6928,
      "▁\"International": 6929,
      "_Economic": 6930,
      "-symbols": 6931,
      "▁centre": 6932,
      "▁centuries": 6933,
      "857": 6934,
      "iteracy": 6935,
      "▁2014](https://en.wikipedia.org/wiki/India#CITEREF": 6936,
      "▁tea": 6937,
      "▁[History": 6938,
      "▁Urdu": 6939,
      "▁US$": 6940,
      "▁(2017).": 6941,
      "▁adop": 6942,
      "▁milk": 6943,
      "▁military": 6944,
      "▁millen": 6945,
      "▁leg": 6946,
      "mblem": 6947,
      "▁घाटी": 6948,
      "isease": 6949,
      "रुणा": 6950,
      "न्नड़": 6951,
      "58)": 6952,
      "▁[Fisher": 6953,
      "▁मानव": 6954,
      "▁मान्यता": 6955,
      "ights": 6956,
      "▁[t](https://en.wikipedia.org/wiki/Template_": 6957,
      "▁plain": 6958,
      "▁parliament": 6959,
      "▁known": 6960,
      "ोर्ट": 6961,
      "talk:": 6962,
      "गुजराती": 6963,
      "ronom": 6964,
      "▁sever": 6965,
      "▁2019.\n": 6966,
      "▁State": 6967,
      "▁[e](Special:EditPage/Template:": 6968,
      "▁[v](Template:": 6969,
      "▁numbers": 6970,
      "त्पत्ति": 6971,
      "ctorate": 6972,
      "राष्ट्रपति\")": 6973,
      "a/a": 6974,
      "ेरल": 6975,
      "-level": 6976,
      "वादी": 6977,
      "▁Buddha": 6978,
      "Fisher2018),": 6979,
      "▁upper": 6980,
      "तुर्क": 6981,
      "Environment": 6982,
      "cms).": 6983,
      "▁refor": 6984,
      "▁2018](https://en.wikipedia.org/wiki/India#CITEREFFisher2018),": 6985,
      "वार्ता:": 6986,
      "arliamentary": 6987,
      "राठी": 6988,
      "CS1\\_": 6989,
      "▁दृष्ट": 6990,
      "merican": 6991,
      "-language\\_text": 6992,
      "-language\\_sources": 6993,
      "▁(2018),": 6994,
      "▁Conservation": 6995,
      "ताजमह": 6996,
      "▁Francis": 6997,
      "](https://en.wikipedia.org/wiki/History_of_": 6998,
      "▁Monetary": 6999,
      "default": 7000,
      "ibetan": 7001,
      "_न्या": 7002,
      "ield": 7003,
      "present": 7004,
      "aranth": 7005,
      ".worldbank.org/": 7006,
      "forcement": 7007,
      "▁वार्ता:": 7008,
      "imachal": 7009,
      "▁India](https://en.wikipedia.org/wiki/Government_of_India": 7010,
      "▁direct": 7011,
      "tlas": 7012,
      "▁[पाकिस्तान](https://hi.wikipedia.org/wiki/पाकिस्तान": 7013,
      "Allchin": 7014,
      "disha": 7015,
      "▁zone": 7016,
      "▁domestic": 7017,
      "▁1994](https://en.wikipedia.org/wiki/India#CITEREF": 7018,
      "न्तर्राष्ट्र": 7019,
      "struction": 7020,
      "▁Games\")": 7021,
      "क्षरता": 7022,
      "▁engineering": 7023,
      "limate_": 7024,
      "▁village": 7025,
      "8+5": 7026,
      "first": 7027,
      ".edu": 7028,
      "/national-symbols": 7029,
      "PetragliaAllchin": 7030,
      "Wright2010": 7031,
      "touch": 7032,
      "▁(भारत)\")": 7033,
      "▁(2007).": 7034,
      "ेंगलुरु": 7035,
      "▁[China](https://en.wikipedia.org/wiki/China": 7036,
      "undarbans": 7037,
      "▁\"Routledge\").": 7038,
      "▁[Routledge](https://en.wikipedia.org/wiki/Routledge": 7039,
      "▁यूनिवर्सिटी": 7040,
      "▁millennium": 7041,
      "▁[t](https://en.wikipedia.org/wiki/Template_talk:": 7042,
      "-language\\_sources\\_(": 7043,
      "\"](http://": 7044,
      "%)": 7045,
      ")[": 7046,
      "*](https://web.archive.org/web/201": 7047,
      "*](http://": 7048,
      "-O": 7049,
      "-j": 7050,
      "-v": 7051,
      "-th": 7052,
      "-no": 7053,
      "-st": 7054,
      "-27": 7055,
      "-asia": 7056,
      ".\"": 7057,
      ".0": 7058,
      "/M": 7059,
      "/we": 7060,
      "01": 7061,
      "1%20": 7062,
      "2-0": 7063,
      "2-10": 7064,
      "4-3": 7065,
      "528": 7066,
      "5–సా.శ.": 7067,
      "623": 7068,
      "8–": 7069,
      "=`": 7070,
      "Al": 7071,
      "Bharat": 7072,
      "CCN": 7073,
      "David": 7074,
      "E﻿": 7075,
      "Flag": 7076,
      "KI": 7077,
      "MAAJ": 7078,
      "Official": 7079,
      "Republic": 7080,
      "SN": 7081,
      "South_Asia": 7082,
      "Th": 7083,
      "Web": 7084,
      "YS": 7085,
      "_అ": 7086,
      "_ఎ": 7087,
      "_ర": 7088,
      "_10": 7089,
      "_50": 7090,
      "_18": 7091,
      "_14": 7092,
      "_45": 7093,
      "_యు": 7094,
      "_World": 7095,
      "_రాజ": 7096,
      "_శాస్త్ర": 7097,
      "a-b": 7098,
      "business/": 7099,
      "cia": 7100,
      "cted": 7101,
      "caste": 7102,
      "dat": 7103,
      "egh": 7104,
      "fun": 7105,
      "gar": 7106,
      "ji": 7107,
      "mas": 7108,
      "more": 7109,
      "music": 7110,
      "oz": 7111,
      "ogo": 7112,
      "po": 7113,
      "rince": 7114,
      "search": 7115,
      "ten": 7116,
      "tle": 7117,
      "tation": 7118,
      "top": 7119,
      "uin": 7120,
      "vin": 7121,
      "voy": 7122,
      "wa": 7123,
      "went": 7124,
      "xim": 7125,
      "ंतर": 7126,
      "ईल": 7127,
      "गत": 7128,
      "घर": 7129,
      "घालय": 7130,
      "चें": 7131,
      "तुल": 7132,
      "थियार": 7133,
      "दय": 7134,
      "फगान": 7135,
      "भौ": 7136,
      "मस": 7137,
      "मिर": 7138,
      "र-": 7139,
      "ल](https://hi.wikipedia.org/wiki/": 7140,
      "वर्": 7141,
      "वेश": 7142,
      "वैद": 7143,
      "ृष": 7144,
      "ेन्द्र": 7145,
      "ोट": 7146,
      "्लेट": 7147,
      "२६": 7148,
      "ఒలి": 7149,
      "కూ": 7150,
      "క్ర": 7151,
      "గే": 7152,
      "గ్ర": 7153,
      "గతి": 7154,
      "జు": 7155,
      "ఞాన": 7156,
      "టం": 7157,
      "టన్": 7158,
      "పో": 7159,
      "పచ్చ": 7160,
      "మ్య": 7161,
      "యి.": 7162,
      "యాలో": 7163,
      "లె": 7164,
      "వై": 7165,
      "వ్": 7166,
      "వత్స": 7167,
      "వృద్ధి": 7168,
      "శ్రమ": 7169,
      "సీ": 7170,
      "స్రా": 7171,
      "హక": 7172,
      "హన": 7173,
      "ాంగ": 7174,
      "ీఠ": 7175,
      "ువు": 7176,
      "ూపా": 7177,
      "ృష్": 7178,
      "ెహ": 7179,
      "ెట్": 7180,
      "ేన": 7181,
      "ైద": 7182,
      "ైగా": 7183,
      "ొయ": 7184,
      "▁,": 7185,
      "▁X": 7186,
      "▁ऐ": 7187,
      "▁९": 7188,
      "▁ఘ": 7189,
      "▁ve": 7190,
      "▁web": 7191,
      "▁జా": 7192,
      "▁education": 7193,
      "orial": 7194,
      "orig": 7195,
      "orse": 7196,
      "▁[గ": 7197,
      "▁[కు": 7198,
      "▁[పా": 7199,
      "▁[దక్షిణ": 7200,
      "▁[హిందూ": 7201,
      "▁[పాకిస్తాన్": 7202,
      "▁[ముంబై": 7203,
      "▁[गुजरात": 7204,
      "ene": 7205,
      "enjo": 7206,
      "▁\"ई": 7207,
      "▁\"గ": 7208,
      "▁\"రాష్ట్ర": 7209,
      "▁\"దక్షిణ": 7210,
      "▁\"राष्ट्रीय": 7211,
      "▁\"మూస": 7212,
      "▁\"హిందూ": 7213,
      "▁\"పాకిస్తాన్": 7214,
      "▁\"ప్రపంచ": 7215,
      "▁\"ముంబై": 7216,
      "▁\"వర్గం:Harv": 7217,
      "▁\"ప్రత్యేక:EditPage/మూస:": 7218,
      "\")\n\n[![](https://upload.wikimedia.org/wikipedia/commons/thumb/": 7219,
      "inan": 7220,
      "anada": 7221,
      "till": 7222,
      "](https://en.wikipedia.org/wiki/U": 7223,
      "India.pdf)": 7224,
      "eri": 7225,
      "ergy": 7226,
      "arv": 7227,
      "arrow": 7228,
      "es.": 7229,
      "reater": 7230,
      "ारो": 7231,
      "ारम्भ": 7232,
      "isl": 7233,
      "ising": 7234,
      "isted": 7235,
      "](https://hi.wikipedia.org/wiki/ज": 7236,
      "](https://hi.wikipedia.org/wiki/ह": 7237,
      "cid": 7238,
      "cir": 7239,
      "▁often": 7240,
      "](https://te.wikipedia.org/wiki/మూస": 7241,
      "](https://te.wikipedia.org/wiki/జన": 7242,
      "](https://te.wikipedia.org/wiki/వర్గం:Harv": 7243,
      "](https://te.wikipedia.org/wiki/ప్రత్యేక:EditPage/మూస:": 7244,
      "▁(2011": 7245,
      "ick": 7246,
      "ico": 7247,
      "ices": 7248,
      "lex": 7249,
      "198": 7250,
      "▁inte": 7251,
      "▁inter": 7252,
      "rak": 7253,
      "raw": 7254,
      "▁su": 7255,
      "▁set": 7256,
      "▁served": 7257,
      "▁मह": 7258,
      "▁poll": 7259,
      "్యాలె": 7260,
      "am\")": 7261,
      "▁पहु": 7262,
      "\\_n": 7263,
      "\\_क": 7264,
      "\\_par": 7265,
      "▁Asher": 7266,
      "▁After": 7267,
      "ाने": 7268,
      "ref-10": 7269,
      "స్వా": 7270,
      "note-10": 7271,
      "▁festi": 7272,
      "▁పొ": 7273,
      "▁పద్ధ": 7274,
      "▁పైగా": 7275,
      "[[18": 7276,
      "ad-": 7277,
      "adakh": 7278,
      "\n\n**": 7279,
      "ర్ద": 7280,
      "ర్ష": 7281,
      "ेंस": 7282,
      "న్ను": 7283,
      "ume": 7284,
      "▁हिम": 7285,
      "](https://hi.wikipedia.org/wiki/भारत_स": 7286,
      "comp": 7287,
      "cha": 7288,
      "hek": 7289,
      "▁middle": 7290,
      "▁market": 7291,
      "illi": 7292,
      "▁do": 7293,
      "▁dist": 7294,
      "రాజ్యం": 7295,
      "una": 7296,
      "unle": 7297,
      "unknown": 7298,
      "]](https://en.wikipedia.org/wiki/India#cite_note-1": 7299,
      "fied": 7300,
      "▁अमेर": 7301,
      "▁अलग": 7302,
      ".\n18": 7303,
      ".\n36": 7304,
      ".\n38": 7305,
      "ola": 7306,
      "21.": 7307,
      "▁Report": 7308,
      "▁Mana": 7309,
      "లోయ": 7310,
      "▁కేంద్ర": 7311,
      "▁కంపెనీ": 7312,
      "न्डिया": 7313,
      "ాలుగా": 7314,
      "ालैंड": 7315,
      "▁Br": 7316,
      "▁Book": 7317,
      "emen": 7318,
      "క్తి": 7319,
      "विय": 7320,
      "▁వై": 7321,
      "▁जिन": 7322,
      "▁Day": 7323,
      "▁दी": 7324,
      "▁दोन": 7325,
      "107": 7326,
      "भाजन": 7327,
      "263": 7328,
      "ayana": 7329,
      "ayashi": 7330,
      "▁సమా": 7331,
      "▁సర్వ": 7332,
      "▁సుల్తాన": 7333,
      "ional": 7334,
      "लाका": 7335,
      "▁प्रधानमंत्री": 7336,
      "ldlife": 7337,
      "▁भारतक": 7338,
      "▁बन": 7339,
      "▁बंगाल": 7340,
      "▁बड़े": 7341,
      "upreme": 7342,
      "bercu": 7343,
      "▁even": 7344,
      "▁early": 7345,
      "▁Gana": 7346,
      "▁Home": 7347,
      "▁Ne": 7348,
      "▁Nuclear": 7349,
      "_से": 7350,
      "](https://mai.wikipedia.org/wiki/अ": 7351,
      "](https://mai.wikipedia.org/wiki/सं": 7352,
      "_in_the": 7353,
      "-345": 7354,
      "-349": 7355,
      "-405": 7356,
      "opal": 7357,
      "▁सेवा": 7358,
      "▁చర్చ:": 7359,
      "తాక": 7360,
      "_Air": 7361,
      "_Agency": 7362,
      "నాట": 7363,
      "తి](https://te.wikipedia.org/wiki/": 7364,
      "▁religions": 7365,
      "▁काम": 7366,
      "न्दा": 7367,
      "abel": 7368,
      "▁2008](https://en.wikipedia.org/wiki/India#CITEREF": 7369,
      "astronom": 7370,
      "▁आ॔": 7371,
      "geoh": 7372,
      "▁nation": 7373,
      ".in)\n-": 7374,
      "establish": 7375,
      "▁John": 7376,
      "▁(సా.శ.6": 7377,
      "–సా.శ.14": 7378,
      "–సా.శ.1947)": 7379,
      "29)": 7380,
      "▁అను": 7381,
      "15/": 7382,
      "ిక,": 7383,
      "135": 7384,
      "AAMAAJ": 7385,
      "ensive": 7386,
      "haw": 7387,
      "रीब": 7388,
      "▁गेल": 7389,
      "270": 7390,
      "▁Indians": 7391,
      "ంచింది.": 7392,
      "కుపచ్చ": 7393,
      "▁On": 7394,
      "](https://te.wikipedia.org/wiki/భారతదేశం#CITEREF": 7395,
      ".jpg)\n\n[": 7396,
      "▁Law": 7397,
      "▁Library": 7398,
      "lated": 7399,
      "▁[Craven": 7400,
      "▁Asia:": 7401,
      "▁West": 7402,
      "▁Wiley": 7403,
      "ింది": 7404,
      "▁एशिया\")": 7405,
      "](https://en.wikipedia.org/wiki/Central_": 7406,
      "हिम": 7407,
      "▁संस्थान": 7408,
      "▁ఆకుపచ్చ": 7409,
      "▁రే": 7410,
      "▁परि": 7411,
      "▁being": 7412,
      "म्प्र": 7413,
      "మాతర": 7414,
      "మాబాద్": 7415,
      "రుపు": 7416,
      "రుగు": 7417,
      "-2\").": 7418,
      "संबर": 7419,
      "ियन": 7420,
      "alls": 7421,
      "allav": 7422,
      "▁ass": 7423,
      "dira": 7424,
      "▁रक्षा": 7425,
      "-7mar": 7426,
      "earning": 7427,
      "](https://hi.wikipedia.org/wiki/भारत#cite_ref-pib": 7428,
      "](https://hi.wikipedia.org/wiki/भारत#cite_ref-langoff": 7429,
      "]](https://hi.wikipedia.org/wiki/भारत#cite_note-langoff-1": 7430,
      "राष्ट्रीय_": 7431,
      "_Data_": 7432,
      "▁\"मध्य": 7433,
      "ommaraj": 7434,
      "ी](https://hi.wikipedia.org/wiki/म": 7435,
      "▁\"Tamil": 7436,
      "िसमस": 7437,
      "▁నది": 7438,
      "మించ": 7439,
      "▁[Pakistan": 7440,
      "▁తన": 7441,
      "▁deb": 7442,
      "▁deve": 7443,
      "स्तान\")": 7444,
      "kee": 7445,
      "▁\"En": 7446,
      "हिन्द_महासागर": 7447,
      "▁expectancy": 7448,
      "हाँ": 7449,
      "▁any": 7450,
      "_and_N": 7451,
      "](https://en.wikipedia.org/wiki/En": 7452,
      "34238": 7453,
      "ం](https://te.wikipedia.org/wiki/అ": 7454,
      "ం](https://te.wikipedia.org/wiki/క": 7455,
      "▁rise": 7456,
      "▁rural": 7457,
      "▁rupee": 7458,
      "▁\"Ge": 7459,
      "ంబంధ": 7460,
      "issions": 7461,
      "ोली": 7462,
      ")\n\n[": 7463,
      "ians": 7464,
      "గువ": 7465,
      "▁[GDP": 7466,
      "_Ram": 7467,
      "▁V.": 7468,
      "▁Vol": 7469,
      "hinese": 7470,
      "▁[Delhi": 7471,
      "](https://hi.wikipedia.org/wiki/मध्य": 7472,
      "▁సంస్థ": 7473,
      "▁సంవత్స": 7474,
      "డియా": 7475,
      "ंधी": 7476,
      "ameters": 7477,
      "▁mathematics": 7478,
      "ట్లు": 7479,
      "ational_P": 7480,
      "_చర్చ:": 7481,
      "general": 7482,
      "▁\"మధ్య": 7483,
      "120]](https://hi.wikipedia.org/wiki/भारत#cite_note-langoff-1": 7484,
      "▁ఎన్నిక": 7485,
      "▁ఎన్ను": 7486,
      "▁1997": 7487,
      "▁[మధ్య": 7488,
      "▁(సా.శ.పూ.1200": 7489,
      "▁గణ": 7490,
      "▁\"Indus": 7491,
      "](https://te.wikipedia.org/wiki/మధ్య": 7492,
      "▁central": 7493,
      "amily": 7494,
      "\"](https://web.archive.org/web/20140": 7495,
      "द्यालय": 7496,
      "पुर\")": 7497,
      "%E0%B0%": 7498,
      "गुप्त": 7499,
      "](https://en.wikipedia.org/wiki/Indus": 7500,
      "▁./వర్గం:Pages\\_using\\_": 7501,
      "▁./వర్గం:Harv\\_and\\_Sfn\\_no-target\\_errors\n": 7502,
      "ohenjo": 7503,
      "▁uni": 7504,
      "-daro": 7505,
      "efficient": 7506,
      "]](https://te.wikipedia.org/wiki/భారతదేశం#cite_note-india.gov.in": 7507,
      ".nic.in)\n-": 7508,
      "_సంగీతం": 7509,
      "▁where": 7510,
      "▁whose": 7511,
      "न्तु": 7512,
      "▁[Ludden": 7513,
      "▁[International": 7514,
      "ారిగా": 7515,
      "నాయక": 7516,
      "/articles/": 7517,
      "▁घाट": 7518,
      "▁घोष": 7519,
      "హాస": 7520,
      "न्नड": 7521,
      "▁rights": 7522,
      "▁[उत्तर": 7523,
      "దావరి": 7524,
      "2014-p": 7525,
      "▁కూడిన": 7526,
      "▁([help](https://te.wikipedia.org/wiki/వర్గం:Harv": 7527,
      "684": 7528,
      "▁నిర్వ": 7529,
      "▁స్థా": 7530,
      "orities/": 7531,
      "▁\"उत्तर": 7532,
      "▁निर्भर": 7533,
      "▁notation": 7534,
      "](https://hi.wikipedia.org/wiki/पश्चिम": 7535,
      "](https://hi.wikipedia.org/wiki/पंजाब": 7536,
      "▁consid": 7537,
      "▁CITEREFStein1998": 7538,
      "▁CITEREFSingh2009": 7539,
      "▁trade": 7540,
      "Stein1998),": 7541,
      "Singh2009),": 7542,
      "▁[t](https://te.wikipedia.org/wiki/మూస": 7543,
      "ों_की_सूची?action=edit&redlink=1": 7544,
      "son2014-p": 7545,
      "निर्भर": 7546,
      "ోర్చు": 7547,
      "](https://mai.wikipedia.org/wiki/भारतीय_": 7548,
      "ారు.\n\n": 7549,
      "oorkee": 7550,
      "_dance": 7551,
      "శాఖ": 7552,
      "▁Short": 7553,
      "▁Shankar": 7554,
      "unjabi": 7555,
      "KulkeRothermund200": 7556,
      "बंधीय": 7557,
      "▁[జమ్మూ": 7558,
      "▁\"Official": 7559,
      "▁పాత్ర": 7560,
      "](https://hi.wikipedia.org/wiki/भारत#CITEREFStein1998),": 7561,
      "](https://hi.wikipedia.org/wiki/भारत#CITEREFSingh2009),": 7562,
      "ropped": 7563,
      "क्षेत्रफल": 7564,
      "▁थे": 7565,
      "▁\"చైనా": 7566,
      "▁century,": 7567,
      "_War": 7568,
      "▁ఒకటి": 7569,
      "ृष्ण": 7570,
      "▁[e](https://te.wikipedia.org/wiki/ప్రత్యేక:EditPage/మూస:": 7571,
      "▁[v](https://te.wikipedia.org/wiki/మూస:": 7572,
      "జ్ఞాన": 7573,
      "▁पाकिस्तान": 7574,
      "▁\"संयुक्त": 7575,
      "2001),": 7576,
      "▁न्यायाधीश": 7577,
      "_1960": 7578,
      "cott": 7579,
      "▁speakers": 7580,
      "▁मंदिर\")": 7581,
      "rupee": 7582,
      "नागालैंड": 7583,
      "▁2009](https://hi.wikipedia.org/wiki/भारत#CITEREFSingh2009),": 7584,
      "▁మార్గాలు": 7585,
      ".net": 7586,
      "▁include": 7587,
      "▁2025.\n": 7588,
      "▁वर्षों": 7589,
      "Wikipedia:": 7590,
      "/authorities/": 7591,
      "రోపా": 7592,
      "IAF": 7593,
      "cms)": 7594,
      "▁భారతదేశానికి": 7595,
      "▁Art": 7596,
      "▁మతము\")": 7597,
      "▁మతము\"),": 7598,
      "▁उत्तर-प": 7599,
      "athakali": 7600,
      "क्रम": 7601,
      "रोहर": 7602,
      "_पार्ट": 7603,
      "riage": 7604,
      "भुटान": 7605,
      "ీనంలో": 7606,
      "▁ईसा": 7607,
      "▁According": 7608,
      "▁ప్రపంచంలో": 7609,
      "▁ప్రభుత్వ": 7610,
      "▁ప్రభుత్వం": 7611,
      "/articleshow/5": 7612,
      "%20%20%20%20%20%20%20%20": 7613,
      "▁Environmental": 7614,
      "Ludden2014": 7615,
      "d/d": 7616,
      "▁Africa": 7617,
      "-of-india-": 7618,
      "▁दृश्य": 7619,
      "▁major": 7620,
      "▁మొదటి": 7621,
      "union_territory": 7622,
      "IMFWEO.IN-": 7623,
      "▁cities": 7624,
      "▁(2018).": 7625,
      "11934238": 7626,
      "lackb": 7627,
      "क_सूची": 7628,
      "స్లామాబాద్": 7629,
      "▁పాలన": 7630,
      "▁కార్య": 7631,
      "▁కారణంగా": 7632,
      "▁కలిగి": 7633,
      "anorama": 7634,
      "arlung": 7635,
      "losis": 7636,
      "▁सिनेमा\"),": 7637,
      "శోకుడు": 7638,
      "retary": 7639,
      "itzel": 7640,
      "raditional": 7641,
      "rigonom": 7642,
      "▁జరిగిన": 7643,
      "వ](https://te.wikipedia.org/wiki/List_of_countries_by": 7644,
      "▁local": 7645,
      "▁Before": 7646,
      "▁contribu": 7647,
      "८५७": 7648,
      "▁[భారతదేశంలో": 7649,
      "▁(2006).": 7650,
      "▁होती": 7651,
      "▁अर्थव्यवस्था": 7652,
      "ecutive": 7653,
      "▁అనేక": 7654,
      "undamental": 7655,
      "▁ఎక్కువగా": 7656,
      "▁भूमिका": 7657,
      "awaharlal": 7658,
      "▁caused": 7659,
      "emographics": 7660,
      "▁दिसंबर": 7661,
      ".uk/": 7662,
      "AGE": 7663,
      "cogni": 7664,
      "▁oldest": 7665,
      "▁स्तर": 7666,
      "rajbhasha": 7667,
      "\\_country\\_with\\_": 7668,
      "▁వారసత్వ": 7669,
      "▁ప్రస్తుతం": 7670,
      "▁రోడ్": 7671,
      "a_dynasty": 7672,
      "▁తరువాత": 7673,
      "▁బెంగాల్": 7674,
      "_Lanka": 7675,
      "ంపిక్": 7676,
      "▁Minorities,": 7677,
      "](https://en.wikipedia.org/wiki/Mughal_Empire": 7678,
      "countries_and_dependencies_by_population": 7679,
      "टिबंधीय": 7680,
      "ार्वभौ": 7681,
      "▁व्यापार": 7682,
      "▁[India](https://en.wikipedia.org/wiki/India)": 7683,
      "harmaceutical": 7684,
      "ంస్కృతం": 7685,
      "▁`|": 7686,
      "▁దినోత్సవ": 7687,
      "s.com/": 7688,
      "▁వెబ్": 7689,
      "▁సౌకర్య": 7690,
      "ండీగఢ్": 7691,
      "▁అభివృద్ధి": 7692,
      "▁నడిపించ": 7693,
      "గుప్త": 7694,
      "▁1998](https://hi.wikipedia.org/wiki/भारत#CITEREFStein1998),": 7695,
      "భారతదేశ_రాష్ట్రాలు,_కేంద్రపాలిత_ప్రాంతాలు": 7696,
      "sites/default": 7697,
      "Library_of_Congress2004": 7698,
      "hattisgarh": 7699,
      "Tarlo1996-26": 7700,
      "_and_union_territories_of_India": 7701,
      "onkani": 7702,
      "▁[↑](https://en.wikipedia.org/wiki/India#cite_ref-1": 7703,
      "indicator": 7704,
      "beralisation": 7705,
      "ajasthan": 7706,
      "रुणाचल": 7707,
      "Davidson2014-p": 7708,
      "चेंज": 7709,
      "फगानिस्तान": 7710,
      "वैदिक": 7711,
      "ృష్ణా": 7712,
      "inancial": 7713,
      "\\_parameters": 7714,
      "▁Asher,": 7715,
      "berculosis": 7716,
      "geohack": 7717,
      "-7mar2011": 7718,
      "](https://hi.wikipedia.org/wiki/भारत#cite_ref-langoff_128": 7719,
      "120]](https://hi.wikipedia.org/wiki/भारत#cite_note-langoff-128)": 7720,
      "▁(సా.శ.పూ.1200–సా.శ.పూ.": 7721,
      "ohenjo-daro": 7722,
      "▁([help](https://te.wikipedia.org/wiki/వర్గం:Harv_and_Sfn_template_errors": 7723,
      "▁[t](https://te.wikipedia.org/wiki/మూస_చర్చ:": 7724,
      "ోర్చుగ": 7725,
      "ार्वभौम": 7726,
      "sites/default/files/": 7727,
      "\\_parameters#": 7728,
      "\"](https://web.archive.org/web/20": 7729,
      "%,": 7730,
      "*),": 7731,
      "*](https://www.": 7732,
      ",_India": 7733,
      "-h": 7734,
      "-कार": 7735,
      "-se": 7736,
      ".t": 7737,
      ".JPG": 7738,
      "0-0)": 7739,
      "0&s": 7740,
      "1st": 7741,
      "223": 7742,
      "2-7": 7743,
      "3-3": 7744,
      "317": 7745,
      "3-7": 7746,
      "4_": 7747,
      "4-0": 7748,
      "428": 7749,
      "41)": 7750,
      "534": 7751,
      "6-1": 7752,
      "613": 7753,
      "96": 7754,
      "9-6": 7755,
      ":IN": 7756,
      ";\n": 7757,
      "=20": 7758,
      "BI": 7759,
      "Bangalore": 7760,
      "CA": 7761,
      "DR": 7762,
      "Ge": 7763,
      "Gum": 7764,
      "HQ": 7765,
      "K:": 7766,
      "Mon": 7767,
      "PT": 7768,
      "Pe": 7769,
      "Political_": 7770,
      "Raj": 7771,
      "Sanchi": 7772,
      "VII": 7773,
      "Yum": 7774,
      "Zor": 7775,
      "_201": 7776,
      "_28": 7777,
      "_con": 7778,
      "_di": 7779,
      "_2008": 7780,
      "_history": 7781,
      "aur": 7782,
      "aver": 7783,
      "a](https://en.wikipedia.org/wiki/A": 7784,
      "audi": 7785,
      "bd": 7786,
      "bird": 7787,
      "cutt": 7788,
      "dministrative": 7789,
      "digenous": 7790,
      "ful": 7791,
      "fos": 7792,
      "gration": 7793,
      "ize": 7794,
      "jha": 7795,
      "jayan": 7796,
      "lé": 7797,
      "mand": 7798,
      "ocal": 7799,
      "pi": 7800,
      "p.org/": 7801,
      "put": 7802,
      "pper": 7803,
      "post": 7804,
      "rang": 7805,
      "rance": 7806,
      "sc": 7807,
      "sol": 7808,
      "spect": 7809,
      "wat": 7810,
      "water": 7811,
      "ypr": 7812,
      "ंश": 7813,
      "इटे": 7814,
      "उद्": 7815,
      "ऍथ": 7816,
      "ऑक्सफोर्ड": 7817,
      "क\")": 7818,
      "कृति": 7819,
      "ख़": 7820,
      "ख्": 7821,
      "गध": 7822,
      "जपुरी": 7823,
      "जिस्ट": 7824,
      "टिका": 7825,
      "तार": 7826,
      "ताल": 7827,
      "तंत्र": 7828,
      "थम": 7829,
      "दल": 7830,
      "दान": 7831,
      "दमन": 7832,
      "नो": 7833,
      "नोल": 7834,
      "पीय": 7835,
      "फिल": 7836,
      "फ्रांस": 7837,
      "बू": 7838,
      "बे": 7839,
      "मत": 7840,
      "मृत": 7841,
      "रि": 7842,
      "लक": 7843,
      "लिम": 7844,
      "शत": 7845,
      "शोक": 7846,
      "हें": 7847,
      "ाबा": 7848,
      "िड़": 7849,
      "ुरा": 7850,
      "ूबर": 7851,
      "ेद": 7852,
      "ेघालय": 7853,
      "ैली": 7854,
      "ॉग": 7855,
      "ोण": 7856,
      "ोडिया": 7857,
      "–10": 7858,
      "–11": 7859,
      "–18": 7860,
      "–17": 7861,
      "–Pakistan": 7862,
      "▁रा": 7863,
      "▁ter": 7864,
      "▁ना": 7865,
      "▁35": 7866,
      "▁4.": 7867,
      "▁5.": 7868,
      "▁8.": 7869,
      "▁times": 7870,
      "▁establish": 7871,
      "ora": 7872,
      "oria": 7873,
      "orary": 7874,
      "orne": 7875,
      "tte": 7876,
      "tten": 7877,
      "](https://www": 7878,
      "▁[श": 7879,
      "▁[28": 7880,
      "▁[चीन": 7881,
      "▁[Harle": 7882,
      "teri": 7883,
      "▁\"साँच": 7884,
      "▁\"साँचा:": 7885,
      "\")1": 7886,
      "inal_": 7887,
      "in-O": 7888,
      "anch": 7889,
      "onal": 7890,
      "Infos": 7891,
      "tives": 7892,
      "though": 7893,
      "](https://en.wikipedia.org/wiki/19": 7894,
      "Indian_": 7895,
      "ers,": 7896,
      "ardian": 7897,
      "2022": 7898,
      "alcutt": 7899,
      "hili": 7900,
      "reet": 7901,
      "is.": 7902,
      "isa": 7903,
      "istic": 7904,
      "isak": 7905,
      "istered": 7906,
      "tion,": 7907,
      "्रार": 7908,
      "](https://hi.wikipedia.org/wiki/ग": 7909,
      "](https://hi.wikipedia.org/wiki/न": 7910,
      "](https://hi.wikipedia.org/wiki/साँच": 7911,
      "](https://hi.wikipedia.org/wiki/साँचा:": 7912,
      "ed\\_": 7913,
      "anding": 7914,
      "ito": 7915,
      "itor": 7916,
      "itchi": 7917,
      "▁(J": 7918,
      "▁(union": 7919,
      "▁(a)": 7920,
      "▁(1):": 7921,
      "ought": 7922,
      "asian": 7923,
      "](https://en.wikipedia.org/wiki/Indian": 7924,
      "▁सक": 7925,
      "▁सूच": 7926,
      "▁सम्प": 7927,
      "▁सीमा": 7928,
      "ica": 7929,
      "▁India](https://en.wikipedia.org/wiki/P": 7930,
      "▁India\"](https://": 7931,
      "let": 7932,
      "19)": 7933,
      "▁ins": 7934,
      "▁inequality": 7935,
      "rame": 7936,
      "▁so": 7937,
      "▁sim": 7938,
      "▁sultanate": 7939,
      "▁small": 7940,
      "▁size": 7941,
      "्यूरो": 7942,
      "▁मन्दिर": 7943,
      "▁pur": 7944,
      "▁plate": 7945,
      "▁policy": 7946,
      "-05": 7947,
      "-026": 7948,
      "riy": 7949,
      "ricity": 7950,
      "ritten": 7951,
      "etnam": 7952,
      "▁char": 7953,
      "▁cap": 7954,
      "रात": 7955,
      "uscript": 7956,
      "▁पड़": 7957,
      "▁प्लेट": 7958,
      "aten": 7959,
      "atri": 7960,
      "atch": 7961,
      "\\_c": 7962,
      "\\_Wiki": 7963,
      "▁Am": 7964,
      "▁Summit": 7965,
      "▁Singh": 7966,
      "▁Social": 7967,
      "▁Schwartzberg": 7968,
      "▁Schedule": 7969,
      "▁fl": 7970,
      "\n\n\n": 7971,
      "▁trib": 7972,
      "▁turn": 7973,
      "urg": 7974,
      "uran": 7975,
      "urasia": 7976,
      "urasian": 7977,
      "istorical": 7978,
      "▁Portal": 7979,
      "▁Prin": 7980,
      "▁हाला": 7981,
      "▁हथियार": 7982,
      "_of_N": 7983,
      "chol": 7984,
      "▁12.": 7985,
      "ially": 7986,
      "rotected": 7987,
      "▁mark": 7988,
      "ilt": 7989,
      "ilar": 7990,
      "stat": 7991,
      "िकी": 7992,
      "िकिस्तान": 7993,
      "▁data": 7994,
      "▁2016.": 7995,
      "]](https://en.wikipedia.org/wiki/India#cite_note-Dyson2018": 7996,
      "▁Te": 7997,
      "▁Tim": 7998,
      ".\n1": 7999,
      ".\n9": 8000,
      ".\n23": 8001,
      "olice": 8002,
      "▁Ram": 8003,
      "▁Modi": 8004,
      "▁Movement": 8005,
      "?action=edit&redlink=1#": 8006,
      "mentin-O": 8007,
      "▁air": 8008,
      "results": 8009,
      "ालर": 8010,
      "▁Bharat": 8011,
      "▁Bengali": 8012,
      "igni": 8013,
      "emi": 8014,
      "▁ज़": 8015,
      "▁Dyson": 8016,
      "▁Desert": 8017,
      "नाइटे": 8018,
      "1016": 8019,
      "_(union_territory": 8020,
      "261": 8021,
      "266": 8022,
      "▁India\").[[": 8023,
      "▁India\")*.": 8024,
      "24_A7C": 8025,
      "▁[↑](https://en.wikipedia.org/wiki/India#cite_ref-Combined": 8026,
      "▁E.": 8027,
      "▁*A": 8028,
      "1999": 8029,
      "▁बार": 8030,
      "▁बने": 8031,
      "▁ब्रिटिश": 8032,
      "▁बड़ा": 8033,
      "तिब्बत": 8034,
      "्टॉक": 8035,
      "▁eaten": 8036,
      "_सागर": 8037,
      "▁नौसेना": 8038,
      "forest": 8039,
      "_in_T": 8040,
      "-459": 8041,
      "113": 8042,
      "ell": 8043,
      "elated": 8044,
      "elug": 8045,
      "508": 8046,
      "_Army": 8047,
      "▁remain": 8048,
      "▁three": 8049,
      "](https://en.wikipedia.org/wiki/India#CITEREFCraven1997": 8050,
      "abin": 8051,
      "abour": 8052,
      "▁2009.": 8053,
      "▁आधुनिक": 8054,
      "aks": 8055,
      "akes": 8056,
      "2221": 8057,
      "▁वे": 8058,
      "▁वृद्ध": 8059,
      "308": 8060,
      "क्षण": 8061,
      "क्षद्वीप": 8062,
      "▁[Sri": 8063,
      "▁Journal": 8064,
      "▁1970": 8065,
      "▁1980": 8066,
      ".[[23": 8067,
      "epali": 8068,
      "15)": 8069,
      "▁[\"H": 8070,
      "स्‍": 8071,
      "स्लिम": 8072,
      "ained": 8073,
      "▁around": 8074,
      "ension": 8075,
      "16]](https://en.wikipedia.org/wiki/India#cite_note-": 8076,
      "▁गान": 8077,
      "_and_T": 8078,
      "थाईल": 8079,
      "▁Organisation": 8080,
      "▁Olymp": 8081,
      "_Census": 8082,
      "▁L.": 8083,
      "▁London": 8084,
      "-981": 8085,
      "▁[978-0-19-9": 8086,
      "](https://en.wikipedia.org/wiki/Climate_": 8087,
      "uccess": 8088,
      "काउ": 8089,
      "कांक": 8090,
      "▁[महाराष्ट्र": 8091,
      "]](https://hi.wikipedia.org/wiki/भारत#cite_note-10": 8092,
      "नेई": 8093,
      "▁[*H": 8094,
      "▁[*M": 8095,
      "िलि": 8096,
      "ongol": 8097,
      "▁[↑](https://en.wikipedia.org/wiki/India#cite_ref-FOOTNOTEM": 8098,
      "▁[↑](https://en.wikipedia.org/wiki/India#cite_ref-FOOTNOTECraven1997": 8099,
      "▁[Mughal": 8100,
      "ummary": 8101,
      "लेब": 8102,
      "लेस": 8103,
      "-2](Special:BookSources/978-1": 8104,
      "▁विज्ञान": 8105,
      "laci": 8106,
      "ysHQ": 8107,
      "▁[BRICS": 8108,
      "alled": 8109,
      "▁\"Special:BookSources/978-0-19-9": 8110,
      "](Special:BookSources/978-0-19-9": 8111,
      "a_1": 8112,
      "▁\"BRICS": 8113,
      ")[[13": 8114,
      "▁original](http://": 8115,
      "सां": 8116,
      "artial": 8117,
      "Harvard": 8118,
      "384": 8119,
      "_Modi": 8120,
      "▁\"महाराष्ट्र": 8121,
      "ी](https://hi.wikipedia.org/wiki/प": 8122,
      "_Tamil_Nadu": 8123,
      "2006),": 8124,
      "39-4": 8125,
      "temporary": 8126,
      "irectorate": 8127,
      "ंडमान": 8128,
      "▁\"East": 8129,
      "▁\"Economic": 8130,
      "▁लिया": 8131,
      "sey": 8132,
      "](https://en.wikipedia.org/wiki/Economic": 8133,
      "▁क्षेत्र,": 8134,
      ")\n\nA": 8135,
      ")\n\nIndia": 8136,
      "_Games": 8137,
      "परेशन": 8138,
      "▁\"New": 8139,
      "्रांति": 8140,
      "_National_P": 8141,
      "_Bank": 8142,
      "किर्ग": 8143,
      "ible": 8144,
      "ibli": 8145,
      "▁करना": 8146,
      "▁करता": 8147,
      "▁\"Russia": 8148,
      "](https://hi.wikipedia.org/wiki/महाराष्ट्र": 8149,
      "](https://en.wikipedia.org/wiki/Russia": 8150,
      "ultur": 8151,
      "ultures": 8152,
      "49-0": 8153,
      "▁[2](https://hi.wikipedia.org/wiki/भारत#cite_ref-FOOTNOTE": 8154,
      "▁[1](https://hi.wikipedia.org/wiki/भारत#cite_ref-FOOTNOTE": 8155,
      "ublications/": 8156,
      "▁[Russia": 8157,
      "neworld": 8158,
      "ंदोल": 8159,
      "▁भाषा\")[[": 8160,
      "मीरात": 8161,
      "मेनि": 8162,
      "economy": 8163,
      "मान्य": 8164,
      "times.indiatimes.com/": 8165,
      "%E0%A5%": 8166,
      "](https://en.wikipedia.org/wiki/International_": 8167,
      "ohan": 8168,
      "रबै": 8169,
      "ोकोस": 8170,
      "▁(2016).": 8171,
      "राष्ट्रीय_स": 8172,
      "alaya": 8173,
      "atis": 8174,
      "हारजिस्ट": 8175,
      "▁subject": 8176,
      "Stein201011": 8177,
      "▁सूची\"))": 8178,
      "_भारतीय_": 8179,
      "ervice": 8180,
      "▁वर्षा": 8181,
      "/profile": 8182,
      "_capita": 8183,
      "ा_वार्ता:": 8184,
      "▁घरेलू": 8185,
      "-in-india": 8186,
      "▁2007\n": 8187,
      "_Indian_subcontinent": 8188,
      "▁./Category:Articles\\_contain": 8189,
      "समूह": 8190,
      "oriz": 8191,
      "▁निभाई": 8192,
      "](https://hi.wikipedia.org/wiki/पूर्व": 8193,
      "2_22": 8194,
      "_relations": 8195,
      "ोर्नो": 8196,
      "▁2023.": 8197,
      "▁2023](https://en.wikipedia.org/wiki/India#CITEREF": 8198,
      "दाख": 8199,
      "िपि": 8200,
      "तिहासिक": 8201,
      "▁regional": 8202,
      "data.worldbank.org/": 8203,
      "▁[संस्कृत": 8204,
      "▁Religion": 8205,
      "230-345": 8206,
      "ppines": 8207,
      "oastrian": 8208,
      "▁था,": 8209,
      "ortality": 8210,
      "▁./श्रेणी:Harv\\_and\\_Sfn\\_no-target\\_errors\n8": 8211,
      "crimin": 8212,
      "place": 8213,
      "▁across": 8214,
      "ujarati": 8215,
      "▁music\")": 8216,
      "-107-026": 8217,
      "▁diversity": 8218,
      "जयनगर": 8219,
      "▁common": 8220,
      "▁about": 8221,
      "ID-19": 8222,
      "Vijayan": 8223,
      "Vietnam": 8224,
      "▁अपने": 8225,
      "ंपन": 8226,
      "ंपरा": 8227,
      "▁[↑](https://hi.wikipedia.org/wiki/भारत#cite_ref-10": 8228,
      "▁election\"),": 8229,
      "▁[*An": 8230,
      "▁28.": 8231,
      "pib.nic.in/": 8232,
      "▁Talbot,": 8233,
      "▁traditional": 8234,
      "▁well": 8235,
      "▁तटीय": 8236,
      "AsherTalbot2008),": 8237,
      "cat.org/": 8238,
      "al_Pradesh": 8239,
      "Harle1994),": 8240,
      "aharasht": 8241,
      "▁सदस": 8242,
      "Articles\\_with\\_": 8243,
      "ause": 8244,
      "▁ईस्ट": 8245,
      "▁highest": 8246,
      "▁longer": 8247,
      "_Shankar": 8248,
      "_News": 8249,
      "▁सुरक्षा": 8250,
      "resident_of_India": 8251,
      "िज़ोर": 8252,
      "ताजिकिस्तान": 8253,
      ".svg/40px-": 8254,
      "▁player": 8255,
      "Robb2011": 8256,
      "ilies": 8257,
      "पातकाल": 8258,
      "anoram": 8259,
      "▁जलवायु": 8260,
      "rishnan": 8261,
      "izor": 8262,
      "वासी": 8263,
      "▁Publishing\").": 8264,
      "▁texts": 8265,
      "timesofindia.indiatimes.com/india/": 8266,
      "ksai": 8267,
      "भोजपुरी": 8268,
      ".svg.png)](File:": 8269,
      "फाएं": 8270,
      "ार्कटिका": 8271,
      "स्लाम": 8272,
      "economictimes.indiatimes.com/": 8273,
      "hristianity": 8274,
      "Ministry_of_Home_Affairs": 8275,
      "hanghai": 8276,
      "▁mathematic": 8277,
      "▁राजनीतिक": 8278,
      "▁[पंजाब](https://hi.wikipedia.org/wiki/पंजाब": 8279,
      "b/b": 8280,
      "hutan": 8281,
      "▁historical": 8282,
      "▁colleges": 8283,
      "67733-7": 8284,
      "Zealand": 8285,
      "_राजवंश": 8286,
      "kbar": 8287,
      "ichell2000": 8288,
      "▁popular": 8289,
      "atabase": 8290,
      "▁जयते": 8291,
      "▁शुरू": 8292,
      "▁लगभग": 8293,
      "FrontView": 8294,
      "406]](https://en.wikipedia.org/wiki/India#cite_note-vatsyayan-lord-432)": 8295,
      "OVID-19": 8296,
      "खनऊ": 8297,
      "▁kingdoms": 8298,
      "▁following": 8299,
      "लाओस": 8300,
      "▁\"China\")": 8301,
      "do-Gangetic": 8302,
      "हरियाणा": 8303,
      "ataraja": 8304,
      "▁emerged": 8305,
      "▁approxim": 8306,
      "IFTY": 8307,
      "_तथा": 8308,
      "्रुनेई": 8309,
      "▁(b)": 8310,
      "▁divisions": 8311,
      "_के_अनुसार_देश": 8312,
      "▁adopted": 8313,
      "तुर्कमेनि": 8314,
      "▁1994](https://en.wikipedia.org/wiki/India#CITEREFHarle1994),": 8315,
      "touchability": 8316,
      "-language\\_sources\\_(en": 8317,
      "rincely": 8318,
      "wait": 8319,
      "wenty": 8320,
      "तुल्य": 8321,
      "ृषि": 8322,
      "▁festival": 8323,
      "▁दोनों": 8324,
      "हिमालय": 8325,
      "▁developed": 8326,
      "▁1997](https://en.wikipedia.org/wiki/India#CITEREFCraven1997": 8327,
      "_पार्टी": 8328,
      "-काराबा": 8329,
      "Gumpa": 8330,
      "Sanchi2": 8331,
      "Yumthang": 8332,
      "Zoroastrian": 8333,
      "lémentin-O": 8334,
      "yprus": 8335,
      "ऍथनोल": 8336,
      "बेकिस्तान": 8337,
      "िड़ला": 8338,
      "▁\"साँचा": 8339,
      "InfosysHQ": 8340,
      "alcutta": 8341,
      "hilippines": 8342,
      "](https://hi.wikipedia.org/wiki/साँचा_वार्ता:": 8343,
      "itchison": 8344,
      "▁similar": 8345,
      "ignific": 8346,
      "▁Dyson,": 8347,
      "नाइटेड": 8348,
      "_(union_territory)": 8349,
      "▁वृद्धि": 8350,
      "▁[महाराष्ट्र](https://hi.wikipedia.org/wiki/महाराष्ट्र": 8351,
      "▁\"महाराष्ट्र\")": 8352,
      "_National_Park": 8353,
      "हारजिस्ट्रार": 8354,
      "ोर्नो-काराबा": 8355,
      "data.worldbank.org/indicator": 8356,
      "230-34549-2": 8357,
      "-107-02649-0": 8358,
      "Vijayanagar": 8359,
      "aharashtra": 8360,
      "Ministry_of_Home_Affairs_1960": 8361,
      "▁1997](https://en.wikipedia.org/wiki/India#CITEREFCraven1997),": 8362,
      "lémentin-Ojha": 8363,
      "ऍथनोलॉग": 8364,
      "InfosysHQFrontView": 8365,
      "#S": 8366,
      "-Y": 8367,
      "-i": 8368,
      "-ve": 8369,
      "-for": 8370,
      "-पा": 8371,
      "-news/": 8372,
      "-गंगा": 8373,
      "-national-language": 8374,
      ". ": 8375,
      ".\n\n": 8376,
      "/in": 8377,
      "/hind": 8378,
      "/C-0": 8379,
      "1b": 8380,
      "126": 8381,
      "1-9": 8382,
      "2%29": 8383,
      "2]](https://te.wikipedia.org/wiki/భారతదేశం#cite_note-india.gov.in": 8384,
      "319": 8385,
      "340": 8386,
      "314": 8387,
      "425": 8388,
      "410": 8389,
      "6-9": 8390,
      "728": 8391,
      "7-8": 8392,
      "8%": 8393,
      "96)": 8394,
      "9857": 8395,
      "AL": 8396,
      "AQAAQBAJ&pg=PA": 8397,
      "BRICS": 8398,
      "Co": 8399,
      "Col": 8400,
      "DS": 8401,
      "English": 8402,
      "Garg": 8403,
      "HDR": 8404,
      "Island": 8405,
      "Kumar": 8406,
      "L.": 8407,
      "LD": 8408,
      "LS": 8409,
      "MDD": 8410,
      "NI": 8411,
      "OL": 8412,
      "OLA": 8413,
      "RA": 8414,
      "SE": 8415,
      "Special:": 8416,
      "Search": 8417,
      "SYS": 8418,
      "Tab": 8419,
      "Tritsch": 8420,
      "US": 8421,
      "W00": 8422,
      "XLS": 8423,
      "[https": 8424,
      "_7": 8425,
      "_ఇ": 8426,
      "_ఫ": 8427,
      "_శ": 8428,
      "_te": 8429,
      "_స్": 8430,
      "_he": 8431,
      "_21": 8432,
      "_india": 8433,
      "_30": 8434,
      "_1.": 8435,
      "_39": 8436,
      "_ex": 8437,
      "_2009": 8438,
      "_2007": 8439,
      "_val": 8440,
      "_शासित": 8441,
      "_గాంధీ": 8442,
      "_द्वीप": 8443,
      "aidy": 8444,
      "bu": 8445,
      "business": 8446,
      "culture": 8447,
      "ees": 8448,
      "gi": 8449,
      "gions": 8450,
      "hl": 8451,
      "iN": 8452,
      "io": 8453,
      "iosphere": 8454,
      "jol": 8455,
      "jana": 8456,
      "k-e": 8457,
      "lc": 8458,
      "mc": 8459,
      "nus": 8460,
      "nised": 8461,
      "nins": 8462,
      "nathura": 8463,
      "ochi": 8464,
      "pro": 8465,
      "pub": 8466,
      "pts": 8467,
      "run": 8468,
      "ride": 8469,
      "sci": 8470,
      "tats": 8471,
      "uff": 8472,
      "via": 8473,
      "yr": 8474,
      "zard": 8475,
      "ædia": 8476,
      "ँकि": 8477,
      "ंथ": 8478,
      "आर": 8479,
      "ऊर्जा": 8480,
      "ऋतु": 8481,
      "ऑपरेशन": 8482,
      "क्": 8483,
      "कालीन": 8484,
      "ख्य": 8485,
      "त्या": 8486,
      "थाली": 8487,
      "दु": 8488,
      "द्रा": 8489,
      "दरण": 8490,
      "नत": 8491,
      "पूर्ण": 8492,
      "भरत": 8493,
      "मय": 8494,
      "र_": 8495,
      "ल्त": 8496,
      "वत": 8497,
      "विक": 8498,
      "वर्ष": 8499,
      "शी": 8500,
      "शील": 8501,
      "सत": 8502,
      "सङ्": 8503,
      "सैन": 8504,
      "ाय": 8505,
      "ीए": 8506,
      "ीर": 8507,
      "ुक": 8508,
      "ूस": 8509,
      "ोब": 8510,
      "्म": 8511,
      "१८५७": 8512,
      "२.": 8513,
      "४.": 8514,
      "ం**": 8515,
      "ం\").": 8516,
      "ఎల": 8517,
      "ఏప్రిల్": 8518,
      "జిల్": 8519,
      "డీ": 8520,
      "ఢా": 8521,
      "తై": 8522,
      "థారిటీ": 8523,
      "ధు": 8524,
      "పై": 8525,
      "పార": 8526,
      "ఫి": 8527,
      "బీ": 8528,
      "బై": 8529,
      "మల": 8530,
      "మంత": 8531,
      "యూ": 8532,
      "రల్": 8533,
      "వో": 8534,
      "వి.": 8535,
      "విక": 8536,
      "వార్": 8537,
      "వాల్": 8538,
      "వలస": 8539,
      "వలం": 8540,
      "వత్రిక": 8541,
      "శక": 8542,
      "శి": 8543,
      "శకు": 8544,
      "సై": 8545,
      "సార్": 8546,
      "హిత": 8547,
      "హోర్": 8548,
      "ితి": 8549,
      "ిటన్": 8550,
      "ీం": 8551,
      "ీర": 8552,
      "ుప్ర": 8553,
      "ుతున్న": 8554,
      "ృత్య": 8555,
      "ెర్": 8556,
      "ే,": 8557,
      "ైల్": 8558,
      "ైథి": 8559,
      "ోత్తర": 8560,
      "ౌర": 8561,
      "–19": 8562,
      "–29": 8563,
      "–13": 8564,
      "–70": 8565,
      "▁<": 8566,
      "▁x": 8567,
      "▁y": 8568,
      "▁झ": 8569,
      "▁७": 8570,
      "▁ధ": 8571,
      "▁er": 8572,
      "▁enti": 8573,
      "▁go": 8574,
      "▁op": 8575,
      "▁vers": 8576,
      "▁తి": 8577,
      "▁rit": 8578,
      "▁ద్": 8579,
      "▁గా": 8580,
      "▁70": 8581,
      "▁3.": 8582,
      "▁భూ": 8583,
      "▁దీవ": 8584,
      "▁దక్షిణాసియా": 8585,
      "▁own": 8586,
      "▁ద్వీ": 8587,
      "▁గుర్": 8588,
      "▁very": 8589,
      "▁టై": 8590,
      "▁డామన్": 8591,
      "win": 8592,
      "or\\_": 8593,
      "orbe": 8594,
      "ttac": 8595,
      "people": 8596,
      "](https://catal": 8597,
      "▁[ర": 8598,
      "▁[1947": 8599,
      "▁[लोक": 8600,
      "▁[హిందీ": 8601,
      "▁[భూటాన్": 8602,
      "▁[ఉత్తర": 8603,
      "▁[ఒడి": 8604,
      "▁[తూర్పు": 8605,
      "▁[రాష్ట్రపతి": 8606,
      "▁[తమిళనాడు": 8607,
      "▁[గణతంత్ర": 8608,
      "▁[శ్రీలంక": 8609,
      "▁[నేపాల్": 8610,
      "▁[...]": 8611,
      "en:": 8612,
      "enced": 8613,
      "tesv": 8614,
      "▁\"Y": 8615,
      "▁\"ची": 8616,
      "▁\"కు": 8617,
      "▁\"प्र": 8618,
      "▁\"హిందీ": 8619,
      "▁\"భూటాన్": 8620,
      "▁\"ఉత్తర": 8621,
      "▁\"ఒడి": 8622,
      "▁\"తూర్పు": 8623,
      "▁\"తమిళనాడు": 8624,
      "▁\"ప్రధానమంత్రి": 8625,
      "▁\"గణతంత్ర": 8626,
      "▁\"శ్రీలంక": 8627,
      "▁\"నేపాల్": 8628,
      "▁\"యునైటెడ్": 8629,
      "▁\"ISO": 8630,
      "▁\"विशेष:EditPage/साँचा:": 8631,
      "anal": 8632,
      "Ins": 8633,
      "til": 8634,
      "thme": 8635,
      "th_East_Asia_Summit": 8636,
      "erce": 8637,
      "arc": 8638,
      "arak": 8639,
      "2020": 8640,
      "alak": 8641,
      "algh": 8642,
      "hic": 8643,
      "hip": 8644,
      "ison": 8645,
      "isni": 8646,
      "ispu": 8647,
      "islative": 8648,
      "्रह": 8649,
      "▁कर्ज": 8650,
      "▁कएल": 8651,
      "](https://hi.wikipedia.org/wiki/य": 8652,
      "](https://hi.wikipedia.org/wiki/विशेष:EditPage/साँचा:": 8653,
      "edary": 8654,
      "omic": 8655,
      "andy": 8656,
      "andoor": 8657,
      "andemic": 8658,
      "▁-15": 8659,
      "ital": 8660,
      "](https://te.wikipedia.org/wiki/D": 8661,
      "](https://te.wikipedia.org/wiki/హ": 8662,
      "](https://te.wikipedia.org/wiki/పా": 8663,
      "](https://te.wikipedia.org/wiki/హిందూ": 8664,
      "](https://te.wikipedia.org/wiki/పాకిస్తాన్": 8665,
      "](https://te.wikipedia.org/wiki/హిందీ": 8666,
      "](https://te.wikipedia.org/wiki/ముంబై": 8667,
      "](https://te.wikipedia.org/wiki/భారతదేశ_": 8668,
      "](https://te.wikipedia.org/wiki/భూటాన్": 8669,
      "](https://te.wikipedia.org/wiki/ఒడి": 8670,
      "](https://te.wikipedia.org/wiki/తమిళనాడు": 8671,
      "](https://te.wikipedia.org/wiki/ప్రధానమంత్రి": 8672,
      "](https://te.wikipedia.org/wiki/శ్రీలంక": 8673,
      "](https://te.wikipedia.org/wiki/నేపాల్": 8674,
      "▁(2010": 8675,
      "▁(2003": 8676,
      "asu": 8677,
      "ases": 8678,
      "asp?": 8679,
      "▁सूर": 8680,
      "▁सङ्": 8681,
      "▁India](https://en.wikipedia.org/wiki/E": 8682,
      "▁India](https://en.wikipedia.org/wiki/D": 8683,
      "▁India\".": 8684,
      "lease": 8685,
      "190": 8686,
      "1967": 8687,
      "▁institu": 8688,
      "ooking": 8689,
      "nold": 8690,
      "entin": 8691,
      "ently": 8692,
      "▁sur": 8693,
      "▁sec": 8694,
      "▁shar": 8695,
      "▁science": 8696,
      "▁series": 8697,
      "▁signific": 8698,
      "▁महा": 8699,
      "▁मील": 8700,
      "▁मिला": 8701,
      "ateway": 8702,
      "ాలకు": 8703,
      "ాలతో": 8704,
      "▁pred": 8705,
      "▁poli": 8706,
      "20085": 8707,
      "ation)": 8708,
      "acter": 8709,
      "ing)": 8710,
      "ingle": 8711,
      "ing\\_S": 8712,
      "▁che": 8713,
      "▁constitution": 8714,
      "▁cricket": 8715,
      "▁cultural": 8716,
      "▁coral": 8717,
      "్యాయ": 8718,
      "amaj": 8719,
      "ush": 8720,
      "usion": 8721,
      "atpura": 8722,
      "\\_links": 8723,
      "\\_or\\_": 8724,
      "▁Ag": 8725,
      "▁Age": 8726,
      "▁Amb": 8727,
      "▁Cup": 8728,
      "▁Court": 8729,
      "▁Caves": 8730,
      "▁Century": 8731,
      "▁Cather": 8732,
      "▁Council": 8733,
      "ago": 8734,
      "agle": 8735,
      "agogue": 8736,
      "-100": 8737,
      "ानी": 8738,
      "స్?action=edit&redlink=1": 8739,
      "స్ట్": 8740,
      ").svg": 8741,
      "▁Ste": 8742,
      "▁Some": 8743,
      "▁SCO": 8744,
      "▁Sikh": 8745,
      "▁Studies": 8746,
      "▁ful": 8747,
      "▁flow": 8748,
      "▁feat": 8749,
      "▁పద": 8750,
      "▁పో": 8751,
      "▁పీఠ": 8752,
      "angra": 8753,
      "angla": 8754,
      "angrove": 8755,
      "ads": 8756,
      "adav": 8757,
      "\n\n1.": 8758,
      "▁bas": 8759,
      "▁bord": 8760,
      "▁bread": 8761,
      "▁border": 8762,
      "▁bott": 8763,
      "▁birth": 8764,
      "▁tril": 8765,
      "ర్కొ": 8766,
      "ర్జె": 8767,
      "ర్నేషనల్": 8768,
      "78)": 8769,
      "urther": 8770,
      "urmu": 8771,
      "న్క": 8772,
      "న్మ": 8773,
      "న్](https://te.wikipedia.org/wiki/": 8774,
      "maint:": 8775,
      "istrib": 8776,
      "uler": 8777,
      "_of_L": 8778,
      "chae": 8779,
      "▁11.": 8780,
      "heel": 8781,
      "roti": 8782,
      "roban": 8783,
      "▁mo": 8784,
      "▁met": 8785,
      "లుపు": 8786,
      "▁won": 8787,
      "▁dances": 8788,
      "▁dynast": 8789,
      "uns": 8790,
      "unbird": 8791,
      "00%20A": 8792,
      "▁2017.": 8793,
      "▁2013.": 8794,
      "▁2015.": 8795,
      "]](https://en.wikipedia.org/wiki/India#cite_note-4": 8796,
      "▁Time": 8797,
      ".\n17": 8798,
      ".\n16": 8799,
      ".\n37": 8800,
      "tices": 8801,
      "▁Mani": 8802,
      "▁Mughal": 8803,
      ".శ.)": 8804,
      "లోన్": 8805,
      "లోమీ": 8806,
      "▁today": 8807,
      "▁కల్": 8808,
      "▁కంట": 8809,
      "▁కనుమ": 8810,
      "▁క్యాలె": 8811,
      "rested": 8812,
      "ాలు\n\n-": 8813,
      "▁Britannica": 8814,
      "▁Bangladesh": 8815,
      "▁Barb": 8816,
      "ందిన": 8817,
      "विद्यालय": 8818,
      "s.jpg": 8819,
      "నిడ్": 8820,
      "నియన్": 8821,
      "▁వు": 8822,
      "▁వంటి": 8823,
      "▁వహించ": 8824,
      "▁Dec": 8825,
      "▁दिव": 8826,
      "108": 8827,
      "_(orthographic_projection": 8828,
      "▁lists": 8829,
      "▁\"Sri": 8830,
      "iris": 8831,
      "independ": 8832,
      "240": 8833,
      "247": 8834,
      "ల్లో": 8835,
      "राजनी": 8836,
      "భారతదేశం\nCategory:": 8837,
      "▁[↑](https://en.wikipedia.org/wiki/India#cite_ref-3": 8838,
      "▁[↑](https://en.wikipedia.org/wiki/India#cite_ref-35": 8839,
      "▁Emi": 8840,
      "▁సార్": 8841,
      "▁సమాఖ్య": 8842,
      "▁సమర": 8843,
      "▁సైనిక": 8844,
      "▁సంబంధ": 8845,
      "▁మతం\")": 8846,
      "▁*2011": 8847,
      "लावा": 8848,
      "▁प्रण": 8849,
      "▁प्रभा": 8850,
      "▁प्रकार": 8851,
      "▁प्रशास": 8852,
      "▁प्रमाण": 8853,
      "▁प्रारम्भ": 8854,
      "్రాన్": 8855,
      "▁however,": 8856,
      "▁बनी": 8857,
      "▁बड़ी": 8858,
      "▁epic": 8859,
      "▁earliest": 8860,
      "_सभा": 8861,
      "_सिनेमा": 8862,
[...]
