{
  "version": "1.0",
  "truncation": null,
  "padding": null,
  "added_tokens": [
    {
      "id": 0,
      "content": "[UNK]",
      "single_word": false,
      "lstrip": false,
      "rstrip": false,
      "normalized": false,
      "special": true
    }
  ],
  "normalizer": {
    "type": "NFKC"
  },
  "pre_tokenizer": {
    "type": "Metaspace",
    "replacement": "▁",
    "prepend_scheme": "never",
    "split": true
  },
  "post_processor": null,
  "decoder": {
    "type": "Metaspace",
    "replacement": "▁",
    "prepend_scheme": "never",
    "split": true
  },
  "model": {
    "type": "BPE",
    "dropout": null,
    "unk_token": "[UNK]",
    "continuing_subword_prefix": null,
    "end_of_word_suffix": null,
    "fuse_unk": false,
    "byte_fallback": false,
    "ignore_merges": false,
    "vocab": {
      "[UNK]": 0,
      "\n": 1,
      "!": 2,
      "\"": 3,
      "#": 4,
      "$": 5,
      "%": 6,
      "&": 7,
      "'": 8,
      "(": 9,
      ")": 10,
      "*": 11,
      "+": 12,
      ",": 13,
      "-": 14,
      ".": 15,
      "/": 16,
      "0": 17,
      "1": 18,
      "2": 19,
      "3": 20,
      "4": 21,
      "5": 22,
      "6": 23,
      "7": 24,
      "8": 25,
      "9": 26,
      ":": 27,
      ";": 28,
      "<": 29,
      "=": 30,
      ">": 31,
      "?": 32,
      "A": 33,
      "B": 34,
      "C": 35,
      "D": 36,
      "E": 37,
      "F": 38,
      "G": 39,
      "H": 40,
      "I": 41,
      "J": 42,
      "K": 43,
      "L": 44,
      "M": 45,
      "N": 46,
      "O": 47,
      "P": 48,
      "Q": 49,
      "R": 50,
      "S": 51,
      "T": 52,
      "U": 53,
      "V": 54,
      "W": 55,
      "X": 56,
      "Y": 57,
      "Z": 58,
      "[": 59,
      "\\": 60,
      "]": 61,
      "^": 62,
      "_": 63,
      "`": 64,
      "a": 65,
      "b": 66,
      "c": 67,
      "d": 68,
      "e": 69,
      "f": 70,
      "g": 71,
      "h": 72,
      "i": 73,
      "j": 74,
      "k": 75,
      "l": 76,
      "m": 77,
      "n": 78,
      "o": 79,
      "p": 80,
      "q": 81,
      "r": 82,
      "s": 83,
      "t": 84,
      "u": 85,
      "v": 86,
      "w": 87,
      "x": 88,
      "y": 89,
      "z": 90,
      "{": 91,
      "|": 92,
      "}": 93,
      "~": 94,
      "°": 95,
      "·": 96,
      "Ö": 97,
      "á": 98,
      "â": 99,
      "æ": 100,
      "ç": 101,
      "è": 102,
      "é": 103,
      "í": 104,
      "ñ": 105,
      "ö": 106,
      "ü": 107,
      "ā": 108,
      "ī": 109,
      "İ": 110,
      "Ś": 111,
      "ś": 112,
      "ū": 113,
      "ș": 114,
      "ə": 115,
      "ɦ": 116,
      "ɪ": 117,
      "ɾ": 118,
      "ʊ": 119,
      "ʼ": 120,
      "ˈ": 121,
      "ː": 122,
      "ί": 123,
      "α": 124,
      "δ": 125,
      "θ": 126,
      "ν": 127,
      "π": 128,
      "ς": 129,
      "ό": 130,
      "ँ": 131,
      "ं": 132,
      "ः": 133,
      "अ": 134,
      "आ": 135,
      "इ": 136,
      "ई": 137,
      "उ": 138,
      "ऊ": 139,
      "ऋ": 140,
      "ऍ": 141,
      "ए": 142,
      "ऐ": 143,
      "ऑ": 144,
      "ओ": 145,
      "औ": 146,
      "क": 147,
      "ख": 148,
      "ग": 149,
      "घ": 150,
      "ङ": 151,
      "च": 152,
      "छ": 153,
      "ज": 154,
      "झ": 155,
      "ञ": 156,
      "ट": 157,
      "ठ": 158,
      "ड": 159,
      "ढ": 160,
      "ण": 161,
      "त": 162,
      "थ": 163,
      "द": 164,
      "ध": 165,
      "न": 166,
      "ऩ": 167,
      "प": 168,
      "फ": 169,
      "ब": 170,
      "भ": 171,
      "म": 172,
      "य": 173,
      "र": 174,
      "ल": 175,
      "ळ": 176,
      "व": 177,
      "श": 178,
      "ष": 179,
      "स": 180,
      "ह": 181,
      "ऻ": 182,
      "़": 183,
      "ऽ": 184,
      "ा": 185,
      "ि": 186,
      "ी": 187,
      "ु": 188,
      "ू": 189,
      "ृ": 190,
      "े": 191,
      "ै": 192,
      "ॉ": 193,
      "ॊ": 194,
      "ो": 195,
      "ौ": 196,
      "्": 197,
      "॔": 198,
      "।": 199,
      "०": 200,
      "१": 201,
      "२": 202,
      "३": 203,
      "४": 204,
      "५": 205,
      "६": 206,
      "७": 207,
      "८": 208,
      "९": 209,
      "॰": 210,
      "ం": 211,
      "ః": 212,
      "అ": 213,
      "ఆ": 214,
      "ఇ": 215,
      "ఈ": 216,
      "ఉ": 217,
      "ఋ": 218,
      "ఎ": 219,
      "ఏ": 220,
      "ఐ": 221,
      "ఒ": 222,
      "ఓ": 223,
      "ఔ": 224,
      "క": 225,
      "ఖ": 226,
      "గ": 227,
      "ఘ": 228,
      "చ": 229,
      "ఛ": 230,
      "జ": 231,
      "ఞ": 232,
      "ట": 233,
      "ఠ": 234,
      "డ": 235,
      "ఢ": 236,
      "ణ": 237,
      "త": 238,
      "థ": 239,
      "ద": 240,
      "ధ": 241,
      "న": 242,
      "ప": 243,
      "ఫ": 244,
      "బ": 245,
      "భ": 246,
      "మ": 247,
      "య": 248,
      "ర": 249,
      "ల": 250,
      "ళ": 251,
      "వ": 252,
      "శ": 253,
      "ష": 254,
      "స": 255,
      "హ": 256,
      "ా": 257,
      "ి": 258,
      "ీ": 259,
      "ు": 260,
      "ూ": 261,
      "ృ": 262,
      "ె": 263,
      "ే": 264,
      "ై": 265,
      "ొ": 266,
      "ో": 267,
      "ౌ": 268,
      "్": 269,
      "ṅ": 270,
      "ṇ": 271,
      "Ṛ": 272,
      "ṣ": 273,
      "ṭ": 274,
      "Ἰ": 275,
      "‌": 276,
      "‍": 277,
      "‎": 278,
      "–": 279,
      "—": 280,
      "‘": 281,
      "’": 282,
      "“": 283,
      "”": 284,
      "†": 285,
      "•": 286,
      "′": 287,
      "‹": 288,
      "›": 289,
      "⁡": 290,
      "₹": 291,
      "↑": 292,
      "−": 293,
      "▁": 294,
      "﻿": 295,
      "wi": 296,
      "ki": 297,
      "wiki": 298,
      "ia": 299,
      "dia": 300,
      "or": 301,
      "tt": 302,
      "](": 303,
      "pe": 304,
      ":/": 305,
      "htt": 306,
      "http": 307,
      "://": 308,
      "https": 309,
      "https://": 310,
      "](https://": 311,
      "g/": 312,
      ".or": 313,
      ".org/": 314,
      "pedia": 315,
      ".wiki": 316,
      ".org/wiki": 317,
      ".org/wiki/": 318,
      ".wikipedia": 319,
      ".wikipedia.org/wiki/": 320,
      "▁[": 321,
      "en": 322,
      "te": 323,
      "▁\"": 324,
      "\")": 325,
      "in": 326,
      "an": 327,
      "on": 328,
      "In": 329,
      "ti": 330,
      "th": 331,
      "](https://en": 332,
      "](https://en.wikipedia.org/wiki/": 333,
      "India": 334,
      "er": 335,
      "ar": 336,
      "20": 337,
      "al": 338,
      "es": 339,
      "hi": 340,
      "▁|": 341,
      "re": 342,
      "of": 343,
      "ार": 344,
      "is": 345,
      "tion": 346,
      "the": 347,
      "्र": 348,
      "▁क": 349,
      "](https://hi": 350,
      "](https://hi.wikipedia.org/wiki/": 351,
      "ci": 352,
      "ed": 353,
      "om": 354,
      "and": 355,
      "▁-": 356,
      "్ర": 357,
      "it": 358,
      "▁of": 359,
      "▁the": 360,
      "te_": 361,
      "](https://te": 362,
      "](https://te.wikipedia.org/wiki/": 363,
      "▁(": 364,
      "ou": 365,
      "#ci": 366,
      "#cite_": 367,
      "भार": 368,
      "भारत": 369,
      "as": 370,
      "](https://en.wikipedia.org/wiki/India": 371,
      "ార": 372,
      "▁स": 373,
      "201": 374,
      "ic": 375,
      "▁India": 376,
      "le": 377,
      "19": 378,
      "OT": 379,
      "▁in": 380,
      "oo": 381,
      "id": 382,
      "no": 383,
      "ra": 384,
      "ent": 385,
      "](https://en.wikipedia.org/wiki/India#cite_": 386,
      "▁s": 387,
      "्य": 388,
      "▁म": 389,
      "▁and": 390,
      "**": 391,
      "ate": 392,
      "ాల": 393,
      "▁p": 394,
      "-0": 395,
      "200": 396,
      "ri": 397,
      "et": 398,
      "ation": 399,
      "ac": 400,
      "ing": 401,
      "▁c": 402,
      "్య": 403,
      "रा": 404,
      "am": 405,
      "us": 406,
      "▁प": 407,
      "at": 408,
      "\\_": 409,
      "▁A": 410,
      "▁C": 411,
      "ag": 412,
      "భార": 413,
      "భారత": 414,
      "-1": 415,
      "దే": 416,
      "ान": 417,
      "ref": 418,
      "దేశ": 419,
      "స్": 420,
      ").": 421,
      "▁S": 422,
      "note": 423,
      "▁f": 424,
      "ook": 425,
      "▁ప": 426,
      "ang": 427,
      "[[": 428,
      "ad": 429,
      "\n\n": 430,
      "्त": 431,
      "▁b": 432,
      "▁t": 433,
      "సా": 434,
      "ref-": 435,
      "note-": 436,
      "li": 437,
      "lo": 438,
      "ve": 439,
      "र्": 440,
      "ర్": 441,
      "78": 442,
      "ur": 443,
      "ें": 444,
      "న్": 445,
      "ma": 446,
      "um": 447,
      "ist": 448,
      "▁P": 449,
      "▁के": 450,
      "\"),": 451,
      "ver": 452,
      "या": 453,
      "▁ह": 454,
      "](https://hi.wikipedia.org/wiki/भारत": 455,
      "ul": 456,
      "of_": 457,
      "com": 458,
      "▁1": 459,
      "_of_": 460,
      "ch": 461,
      "IS": 462,
      "we": 463,
      "FO": 464,
      "lin": 465,
      "NOT": 466,
      "he": 467,
      "OTNOT": 468,
      "FOOTNOT": 469,
      "FOOTNOTE": 470,
      "ial": 471,
      "ro": 472,
      "ww": 473,
      "▁m": 474,
      "ce": 475,
      "978": 476,
      "BN": 477,
      "il": 478,
      "ISBN": 479,
      "st": 480,
      "िक": 481,
      "▁[↑": 482,
      "ory": 483,
      "red": 484,
      "లు": 485,
      "▁w": 486,
      "▁d": 487,
      "రా": 488,
      "un": 489,
      "00": 490,
      "our": 491,
      "ter": 492,
      "]](https://en.wikipedia.org/wiki/India#cite_": 493,
      "▁201": 494,
      "ीय": 495,
      "fi": 496,
      "ons": 497,
      "](https://en.wikipedia.org/wiki/India#cite_ref-": 498,
      "]](https://en.wikipedia.org/wiki/India#cite_note-": 499,
      "▁अ": 500,
      "▁T": 501,
      ".\n": 502,
      "enti": 503,
      "ol": 504,
      "21": 505,
      "tic": 506,
      "=1": 507,
      "భారతదేశ": 508,
      "link": 509,
      "▁R": 510,
      "▁M": 511,
      "edit": 512,
      "action": 513,
      ".శ": 514,
      ".శ.": 515,
      "లో": 516,
      "identi": 517,
      "action=": 518,
      "సా.శ.": 519,
      "action=edit": 520,
      "fier": 521,
      "identifier": 522,
      "&red": 523,
      "?action=edit": 524,
      "link=1": 525,
      "&redlink=1": 526,
      "?action=edit&redlink=1": 527,
      "▁|\n": 528,
      "▁**": 529,
      "▁|\n|": 530,
      "▁में": 531,
      "▁to": 532,
      "▁క": 533,
      "identifier)": 534,
      "-0)": 535,
      "ment": 536,
      "िया": 537,
      "chi": 538,
      "▁a": 539,
      "न्": 540,
      "web": 541,
      "res": 542,
      "త్ర": 543,
      "es/": 544,
      "ాలు": 545,
      "book": 546,
      "age": 547,
      "ाल": 548,
      "▁B": 549,
      "cial": 550,
      "ig": 551,
      "రి": 552,
      "em": 553,
      "्ष": 554,
      "క్": 555,
      "ni": 556,
      "ంద": 557,
      "वि": 558,
      "ों": 559,
      "s.": 560,
      "23": 561,
      "pg": 562,
      "ेश": 563,
      "ని": 564,
      "▁వ": 565,
      "25": 566,
      "▁ज": 567,
      "▁D": 568,
      "ना": 569,
      "▁द": 570,
      "),": 571,
      "10": 572,
      "भा": 573,
      "_(": 574,
      "▁l": 575,
      ".j": 576,
      "▁\"S": 577,
      "ity": 578,
      "angu": 579,
      "ir": 580,
      "26": 581,
      "▁India\")": 582,
      "sia": 583,
      "IT": 584,
      "त्र": 585,
      "ind": 586,
      "24": 587,
      "_क": 588,
      "ల్": 589,
      "राज": 590,
      "భారతదేశం": 591,
      "ay": 592,
      "▁[↑](https://en.wikipedia.org/wiki/India#cite_ref-": 593,
      "ly": 594,
      "ER": 595,
      ".com": 596,
      "pecial": 597,
      "ec": 598,
      "EF": 599,
      "▁है": 600,
      "ITER": 601,
      "ంగ": 602,
      "ITEREF": 603,
      "·**": 604,
      "india": 605,
      "▁**·**": 606,
      "▁E": 607,
      "ourc": 608,
      "▁స": 609,
      "ion": 610,
      "](https://hi.wikipedia.org/wiki/भारत#cite_": 611,
      ".com/": 612,
      "्व": 613,
      "me": 614,
      "▁మ": 615,
      "pecial:": 616,
      "_India": 617,
      "\").": 618,
      "▁*": 619,
      "ला": 620,
      "199": 621,
      "▁प्र": 622,
      "ld": 623,
      "al_": 624,
      "oun": 625,
      "్రా": 626,
      "Uni": 627,
      "▁भारत": 628,
      "ता": 629,
      "▁h": 630,
      "▁ब": 631,
      "ंग": 632,
      "go": 633,
      "ources/": 634,
      "ति": 635,
      "Book": 636,
      "up": 637,
      "ved": 638,
      "्ट": 639,
      "ber": 640,
      "28": 641,
      "#C": 642,
      "Sources/": 643,
      "tu": 644,
      "ీయ": 645,
      "▁e": 646,
      "pecial:Book": 647,
      "pecial:BookSources/": 648,
      "और": 649,
      "outh": 650,
      "mai": 651,
      "#CITEREF": 652,
      "▁G": 653,
      "▁H": 654,
      "▁N": 655,
      "_स": 656,
      "](https://mai": 657,
      "rom": 658,
      "ండ": 659,
      "▁न": 660,
      "pecial:BookSources/978": 661,
      "](https://mai.wikipedia.org/wiki/": 662,
      "gory": 663,
      "ategory": 664,
      "for": 665,
      "▁की": 666,
      "_in": 667,
      "-3": 668,
      "cal": 669,
      "्रे": 670,
      "_S": 671,
      "▁•": 672,
      "ategory:": 673,
      "-4": 674,
      "ry": 675,
      "op": 676,
      "జ్య": 677,
      "sh": 678,
      "▁से": 679,
      "www": 680,
      "षा": 681,
      "▁చ": 682,
      "11": 683,
      "el": 684,
      "50": 685,
      "ి.": 686,
      "www.": 687,
      "తా": 688,
      "▁on": 689,
      "▁और": 690,
      "_A": 691,
      "ew": 692,
      "स्त": 693,
      "ము": 694,
      "anguage": 695,
      "నా": 696,
      "ary": 697,
      "్ట": 698,
      "vers": 699,
      "\n-": 700,
      "తి": 701,
      "▁20": 702,
      "▁re": 703,
      "▁का": 704,
      "ित": 705,
      "न्द": 706,
      "archi": 707,
      "ub": 708,
      "▁th": 709,
      "-0-": 710,
      "▁\"भारत": 711,
      "](https://en.wikipedia.org/wiki/India#CITEREF": 712,
      "mp": 713,
      "ab": 714,
      "भाषा": 715,
      "సి": 716,
      "calf": 717,
      "rit": 718,
      "▁200": 719,
      "ast": 720,
      "త్": 721,
      "▁आ": 722,
      "etcalf": 723,
      "ak": 724,
      "ge": 725,
      "ish": 726,
      "राज्य": 727,
      "22": 728,
      "ास": 729,
      "▁व": 730,
      "▁or": 731,
      "30": 732,
      "The": 733,
      "18": 734,
      "▁n": 735,
      "con": 736,
      "क्ष": 737,
      "ted": 738,
      "archive": 739,
      "n_": 740,
      "▁[S": 741,
      "-8": 742,
      ".in": 743,
      "_of_India": 744,
      "--": 745,
      "est": 746,
      "od": 747,
      "▁J": 748,
      ".jpg": 749,
      "▁---": 750,
      "▁(సా.శ.": 751,
      "ress": 752,
      "▁19": 753,
      "▁from": 754,
      "]](https://en.wikipedia.org/wiki/India#cite_note-FOOTNOTE": 755,
      "యా": 756,
      "▁F": 757,
      "ులు": 758,
      "▁రా": 759,
      "ct": 760,
      "gh": 761,
      "देश": 762,
      "▁.": 763,
      "–సా.శ.": 764,
      "▁(identifier)": 765,
      "_(identifier)": 766,
      "▁(identifier)\")": 767,
      ".[[": 768,
      "29": 769,
      "List": 770,
      "▁అ": 771,
      "ep": 772,
      "▁by": 773,
      "ount": 774,
      "orld": 775,
      "ust": 776,
      "▁In": 777,
      "http://": 778,
      "▁for": 779,
      "ud": 780,
      "15": 781,
      "▁[\"": 782,
      "▁ప్ర": 783,
      "archive.org/": 784,
      "40": 785,
      "ిక": 786,
      "im": 787,
      "Metcalf": 788,
      "पु": 789,
      "स्": 790,
      "తం": 791,
      "▁g": 792,
      "with": 793,
      "13": 794,
      "▁त": 795,
      "▁p.": 796,
      "ational": 797,
      "ain": 798,
      "▁ar": 799,
      "▁\"C": 800,
      "17": 801,
      "▁is": 802,
      "web.": 803,
      "versity": 804,
      "AA": 805,
      "os": 806,
      "ిన": 807,
      "](https://web.": 808,
      "▁[A": 809,
      "జ్యం": 810,
      "मा": 811,
      "web/": 812,
      "archive.org/web/": 813,
      "](https://web.archive.org/web/": 814,
      "ens": 815,
      "ha": 816,
      "ची": 817,
      "री": 818,
      "](https://en.wikipedia.org/wiki/S": 819,
      "books": 820,
      "▁./": 821,
      "16": 822,
      "goo": 823,
      "har": 824,
      "umb": 825,
      "gle": 826,
      "ts": 827,
      "▁ग": 828,
      "27": 829,
      "జా": 830,
      "▁Indian": 831,
      "_and": 832,
      "णी": 833,
      "Har": 834,
      "err": 835,
      "ంచ": 836,
      "కు": 837,
      "id=": 838,
      "था": 839,
      "▁O": 840,
      "##": 841,
      "_C": 842,
      "ड़": 843,
      "ष्ट": 844,
      "](https://te.wikipedia.org/wiki/భారతదేశం": 845,
      ".jpg)": 846,
      "▁L": 847,
      "'s": 848,
      "google": 849,
      "error": 850,
      "ను": 851,
      "పూ": 852,
      "14": 853,
      "?id=": 854,
      "late": 855,
      "భా": 856,
      "▁[ISBN": 857,
      "books.": 858,
      ".com/books": 859,
      "_in_India": 860,
      "google.com/books": 861,
      "books.google.com/books": 862,
      "-9": 863,
      "▁[C": 864,
      "▁Asia": 865,
      "books.google.com/books?id=": 866,
      "▁K": 867,
      "ap": 868,
      "_P": 869,
      "ప్ర": 870,
      "▁\"ISBN": 871,
      "ISBN_(identifier)": 872,
      "gov": 873,
      "*.": 874,
      "ng": 875,
      "▁W": 876,
      "▁उ": 877,
      "▁[978": 878,
      "inal": 879,
      "▁को": 880,
      "ाद": 881,
      "ద్": 882,
      "ింద": 883,
      "\"))": 884,
      "▁ए": 885,
      "](https://en.wikipedia.org/wiki/C": 886,
      "ष्ट्र": 887,
      "mons": 888,
      "nd": 889,
      "px": 890,
      "media": 891,
      "av": 892,
      "uc": 893,
      "▁ఉ": 894,
      "का": 895,
      "ం:": 896,
      "▁([": 897,
      "ut": 898,
      "हि": 899,
      "](https://books.google.com/books?id=": 900,
      "▁[म": 901,
      "▁The": 902,
      ".gov": 903,
      "श्रे": 904,
      "University": 905,
      "▁सं": 906,
      "श्रेणी": 907,
      "▁ఆ": 908,
      "▁\"M": 909,
      "ther": 910,
      "]](https://hi.wikipedia.org/wiki/भारत#cite_": 911,
      "per": 912,
      "de": 913,
      "ff": 914,
      "ने": 915,
      "प्र": 916,
      "▁[*": 917,
      "do": 918,
      "श्रेणी:": 919,
      "िल": 920,
      "ेत्र": 921,
      "s/": 922,
      "](S": 923,
      "▁ర": 924,
      "▁पर": 925,
      "ort": 926,
      "ong": 927,
      "_म": 928,
      "load": 929,
      "▁[↑](https://en.wikipedia.org/wiki/India#cite_ref-FOOTNOTE": 930,
      "p.": 931,
      ".wikimedia": 932,
      "▁be": 933,
      "commons": 934,
      "upload": 935,
      "म्": 936,
      "మా": 937,
      "▁సా": 938,
      "భారతీయ": 939,
      "![": 940,
      "వా": 941,
      "▁[M": 942,
      "arg": 943,
      "umm": 944,
      "▁श": 945,
      "pedia/": 946,
      ".org/wikipedia/": 947,
      ".wikimedia.org/wikipedia/": 948,
      "upload.wikimedia.org/wikipedia/": 949,
      "over": 950,
      "ले": 951,
      "రు": 952,
      "](https://upload.wikimedia.org/wikipedia/": 953,
      "thumb": 954,
      "](https://en.wikipedia.org/wiki/M": 955,
      "ance": 956,
      "-2": 957,
      "/thumb": 958,
      "▁है।": 959,
      "/thumb/": 960,
      "सं": 961,
      "▁pp.": 962,
      "](https://upload.wikimedia.org/wikipedia/commons": 963,
      "Category:": 964,
      "s,": 965,
      "వి": 966,
      "ష్ట": 967,
      "▁वि": 968,
      "ార్": 969,
      "्या": 970,
      "పూ.": 971,
      "br": 972,
      "la": 973,
      "ence": 974,
      "క్ష": 975,
      "_के": 976,
      "▁orig": 977,
      "px-": 978,
      "](https://upload.wikimedia.org/wikipedia/commons/thumb/": 979,
      "ys": 980,
      "rie": 981,
      "िय": 982,
      "](https://en.wikipedia.org/wiki/ISBN_(identifier)": 983,
      "స్థ": 984,
      "రిత్ర": 985,
      ".in/": 986,
      "▁[ISBN](https://en.wikipedia.org/wiki/ISBN_(identifier)": 987,
      "47": 988,
      "PA": 989,
      "▁इ": 990,
      "▁[B": 991,
      "all": 992,
      "▁\"Special:BookSources/978": 993,
      "](Special:BookSources/978": 994,
      "a_": 995,
      "ow": 996,
      "▁\"B": 997,
      "ans": 998,
      ")[[": 999,
      "35": 1000,
      "▁as": 1001,
      "ages": 1002,
      "di": 1003,
      "ot": 1004,
      "▁र": 1005,
      "und": 1006,
      "▁original": 1007,
      "-7": 1008,
      "cy": 1009,
      "ear": 1010,
      "lig": 1011,
      "న్న": 1012,
      "1.": 1013,
      "सा": 1014,
      "log": 1015,
      "tern": 1016,
      "-5": 1017,
      "art": 1018,
      "▁भाषा": 1019,
      "Harv": 1020,
      "▁I": 1021,
      "errors": 1022,
      "▁st": 1023,
      "36": 1024,
      "▁\"P": 1025,
      "](https://hi.wikipedia.org/wiki/भारत#cite_ref-": 1026,
      "]](https://hi.wikipedia.org/wiki/भारत#cite_note-": 1027,
      "%2": 1028,
      "aj": 1029,
      "▁with": 1030,
      "▁\"A": 1031,
      "राष्ट्र": 1032,
      "ensus": 1033,
      "%20": 1034,
      "2.": 1035,
      "_D": 1036,
      "त्त": 1037,
      "tein": 1038,
      "ture": 1039,
      "les": 1040,
      "land": 1041,
      "▁Ret": 1042,
      "emp": 1043,
      "&pg": 1044,
      "opul": 1045,
      "](https://te.wikipedia.org/wiki/భారతదేశం#cite_": 1046,
      "rieved": 1047,
      "▁Retrieved": 1048,
      "&pg=": 1049,
      "rchi": 1050,
      "ana": 1051,
      "र्व": 1052,
      "గా": 1053,
      "38": 1054,
      "og": 1055,
      "ంట": 1056,
      "కి": 1057,
      "ere": 1058,
      "_के_": 1059,
      "fn": 1060,
      "ss": 1061,
      "ore": 1062,
      "](https://en.wikipedia.org/wiki/B": 1063,
      "Indian": 1064,
      "्षेत्र": 1065,
      "conom": 1066,
      "_M": 1067,
      "మ్రా": 1068,
      "▁\"म": 1069,
      ".\n-": 1070,
      "](https://web.archive.org/web/201": 1071,
      "ష్ట్ర": 1072,
      ".p": 1073,
      "\")\n-": 1074,
      "omm": 1075,
      "\n\n##": 1076,
      "70": 1077,
      "ంత": 1078,
      "ummit": 1079,
      "ी](https://hi.wikipedia.org/wiki/": 1080,
      "titu": 1081,
      "▁सा": 1082,
      "ll": 1083,
      "ज़": 1084,
      "ine": 1085,
      "ates": 1086,
      "&pg=PA": 1087,
      "ile": 1088,
      "](https://en.wikipedia.org/wiki/P": 1089,
      ".jp": 1090,
      "_T": 1091,
      "ी_": 1092,
      "పు": 1093,
      "ht": 1094,
      "](http://": 1095,
      "▁\"T": 1096,
      "2006": 1097,
      "िस": 1098,
      "▁న": 1099,
      "ries": 1100,
      "2018": 1101,
      "opulation": 1102,
      "ric": 1103,
      "మి": 1104,
      "ాన": 1105,
      "▁University": 1106,
      "▁[P": 1107,
      "ism": 1108,
      "ass": 1109,
      "nment": 1110,
      "oc": 1111,
      "ue": 1112,
      "▁&": 1113,
      "2011": 1114,
      "जा": 1115,
      "ूची": 1116,
      "పా": 1117,
      "▁ఇ": 1118,
      "▁త": 1119,
      "భాష": 1120,
      "rchived": 1121,
      "ai": 1122,
      "पा": 1123,
      "ani": 1124,
      "▁*[": 1125,
      ".jpg/": 1126,
      "39": 1127,
      "nic": 1128,
      "कार": 1129,
      "▁no": 1130,
      "temp": 1131,
      "▁was": 1132,
      "48": 1133,
      "िम": 1134,
      "ubl": 1135,
      "language": 1136,
      "పాల": 1137,
      "లీ": 1138,
      "ord": 1139,
      "ank": 1140,
      "ard": 1141,
      "▁de": 1142,
      "स्तान": 1143,
      "*](https://books.google.com/books?id=": 1144,
      "60": 1145,
      "ire": 1146,
      "ke": 1147,
      "मन": 1148,
      "▁Category:": 1149,
      "indu": 1150,
      "/https://": 1151,
      "ंड": 1152,
      "▁దేశ": 1153,
      "▁\"E": 1154,
      "స్తా": 1155,
      "istory": 1156,
      "हिन्द": 1157,
      "गर": 1158,
      "▁ल": 1159,
      "▁language": 1160,
      "▁ex": 1161,
      "हा": 1162,
      "వర్": 1163,
      "ాయ": 1164,
      "▁an": 1165,
      "▁राज्य": 1166,
      "ी\")": 1167,
      "▁are": 1168,
      "यु": 1169,
      "-10": 1170,
      "tics": 1171,
      "anguages": 1172,
      "-6": 1173,
      "ies": 1174,
      "se": 1175,
      "](https://www.": 1176,
      "](https://en.wikipedia.org/wiki/A": 1177,
      "eral": 1178,
      "to": 1179,
      "▁भ": 1180,
      "ach": 1181,
      "_and_": 1182,
      "మ్రాజ్యం": 1183,
      "7.": 1184,
      "्च": 1185,
      "ont": 1186,
      "](https://en.wikipedia.org/wiki/E": 1187,
      "ations": 1188,
      "ountries": 1189,
      "0%": 1190,
      "▁\"D": 1191,
      "▁\"List": 1192,
      "దేశ్": 1193,
      "विश": 1194,
      "CS": 1195,
      "क्त": 1196,
      "ेल": 1197,
      "esh": 1198,
      "sher": 1199,
      "34": 1200,
      "9.": 1201,
      "ం](https://te.wikipedia.org/wiki/": 1202,
      "▁r": 1203,
      "▁\"G": 1204,
      "](https://en.wikipedia.org/wiki/T": 1205,
      "onstitu": 1206,
      "a\")": 1207,
      "als": 1208,
      "श्रेणी:Harv": 1209,
      "%2C": 1210,
      "ीप": 1211,
      "ంబ": 1212,
      "టి": 1213,
      "iss": 1214,
      "ंग्रे": 1215,
      "90": 1216,
      "ोल": 1217,
      "▁it": 1218,
      "▁क्षेत्र": 1219,
      "2010": 1220,
      ")\n\n": 1221,
      "Stein": 1222,
      "ంలో": 1223,
      "ian": 1224,
      "tem": 1225,
      "▁Press": 1226,
      "▁हैं": 1227,
      "స్తాన్": 1228,
      "_b": 1229,
      "धान": 1230,
      "List_of_": 1231,
      "vi": 1232,
      "గు": 1233,
      "డు": 1234,
      "నే": 1235,
      "్చ": 1236,
      "▁[G": 1237,
      "](https://en.wikipedia.org/wiki/D": 1238,
      "ical": 1239,
      "र्म": 1240,
      "▁whi": 1241,
      "AJ": 1242,
      "_G": 1243,
      "_R": 1244,
      "▁V": 1245,
      "ford": 1246,
      "4.": 1247,
      "BAJ": 1248,
      "QBAJ": 1249,
      "पर": 1250,
      "మూ": 1251,
      "▁\"N": 1252,
      "्रा": 1253,
      "్రీ": 1254,
      "_Asia": 1255,
      "udd": 1256,
      "జాత": 1257,
      "37": 1258,
      "45": 1259,
      "_N": 1260,
      "ex": 1261,
      "द्": 1262,
      "ृत": 1263,
      "▁[![": 1264,
      "▁मे": 1265,
      "ata": 1266,
      "_s": 1267,
      "aki": 1268,
      "hin": 1269,
      "other": 1270,
      "िण": 1271,
      "లా": 1272,
      "eng": 1273,
      "omp": 1274,
      "ంగా": 1275,
      "_B": 1276,
      "xford": 1277,
      "ers": 1278,
      "artic": 1279,
      "▁[↑](https://hi.wikipedia.org/wiki/भारत#cite_ref-": 1280,
      "econ": 1281,
      "46": 1282,
      "ven": 1283,
      "డ్": 1284,
      "ిల్": 1285,
      "▁జ": 1286,
      "tim": 1287,
      "ern": 1288,
      "ess": 1289,
      "arget": 1290,
      "RI": 1291,
      "hm": 1292,
      "ral": 1293,
      "िर": 1294,
      "ेष": 1295,
      "▁[अ": 1296,
      "tive": 1297,
      "-0-19": 1298,
      "3.": 1299,
      "ction": 1300,
      "oli": 1301,
      "कि": 1302,
      "లి": 1303,
      "▁१": 1304,
      "▁[N": 1305,
      "స్త్ర": 1306,
      "▁अन": 1307,
      "AAQBAJ": 1308,
      "htm": 1309,
      "ions": 1310,
      "वा": 1311,
      "▁[D": 1312,
      "▁\"अ": 1313,
      "lop": 1314,
      "stan": 1315,
      "df": 1316,
      "ib": 1317,
      "ik": 1318,
      "ం\")": 1319,
      "కా": 1320,
      "ణా": 1321,
      "దక్ష": 1322,
      "ధిక": 1323,
      "end": 1324,
      "▁\"स": 1325,
      "▁कर": 1326,
      "▁(P": 1327,
      "▁ప్రా": 1328,
      "▁వి": 1329,
      "సియా": 1330,
      "क्षिण": 1331,
      "జాతీయ": 1332,
      ",_": 1333,
      "-p": 1334,
      "6.": 1335,
      "au": 1336,
      "rou": 1337,
      "से": 1338,
      "MetcalfMetcalf": 1339,
      "1)": 1340,
      "5.": 1341,
      "▁[भारत": 1342,
      "▁\"R": 1343,
      "](https://hi.wikipedia.org/wiki/म": 1344,
      "▁సం": 1345,
      "▁చరిత్ర": 1346,
      "/http://": 1347,
      "77": 1348,
      "iv": 1349,
      "▁\"क": 1350,
      "](https://en.wikipedia.org/wiki/G": 1351,
      "](https://en.wikipedia.org/wiki/R": 1352,
      "ult": 1353,
      "india.gov": 1354,
      "49": 1355,
      "_p": 1356,
      "డి": 1357,
      "▁–": 1358,
      "ark": 1359,
      "riti": 1360,
      "ीय_": 1361,
      "indi": 1362,
      "cont": 1363,
      "ింది.": 1364,
      "▁which": 1365,
      "ंध": 1366,
      "धार": 1367,
      "▁[2": 1368,
      "▁[E": 1369,
      "▁[स": 1370,
      "ంధ": 1371,
      "](https://en.wikipedia.org/wiki/N": 1372,
      "his": 1373,
      "ame": 1374,
      "-1)": 1375,
      "ाना": 1376,
      "స్త": 1377,
      "▁2011": 1378,
      "▁రాజ్యం": 1379,
      "▁సామ్రాజ్యం": 1380,
      "వర్గ": 1381,
      "దక్షి": 1382,
      "ोत": 1383,
      "United": 1384,
      "▁एक": 1385,
      ")\")": 1386,
      "ope": 1387,
      "దీ": 1388,
      "▁[1": 1389,
      "ingh": 1390,
      "ండి": 1391,
      "ublic": 1392,
      "వర్గం:": 1393,
      "3)": 1394,
      "ath": 1395,
      "▁li": 1396,
      "▁[T": 1397,
      "](https://en.wikipedia.org/wiki/List_of_": 1398,
      "out": 1399,
      "▁South": 1400,
      "▁De": 1401,
      "▁ने": 1402,
      "8.": 1403,
      "DP": 1404,
      "cl": 1405,
      "ob": 1406,
      "भि": 1407,
      "తర": 1408,
      "వం": 1409,
      "▁బ": 1410,
      "▁[R": 1411,
      "▁[क": 1412,
      "▁\"ब": 1413,
      "territ": 1414,
      "DF": 1415,
      "bot": 1416,
      "fe": 1417,
      "ूल": 1418,
      "ोग": 1419,
      "▁ma": 1420,
      "ties": 1421,
      "icial": 1422,
      "▁India's": 1423,
      "250": 1424,
      "df)": 1425,
      "new": 1426,
      "ట్": 1427,
      "ిత": 1428,
      "▁पु": 1429,
      ").\n": 1430,
      "▁प्रदेश": 1431,
      "▁has": 1432,
      "▁that": 1433,
      "विशेष": 1434,
      "RICS": 1435,
      "सभ": 1436,
      "▁ति": 1437,
      "pend": 1438,
      "albot": 1439,
      "ree": 1440,
      "ous": 1441,
      "ational_": 1442,
      "\n\n[": 1443,
      "▁\"भारतीय": 1444,
      "▁[Archived": 1445,
      "2)": 1446,
      "_చ": 1447,
      "gen": 1448,
      "sv": 1449,
      "sland": 1450,
      "ty": 1451,
      "जन": 1452,
      "्स": 1453,
      "ది": 1454,
      "▁\"మ": 1455,
      "ration": 1456,
      "▁pro": 1457,
      "ange": 1458,
      "लेख": 1459,
      "▁(PDF": 1460,
      "56": 1461,
      "000": 1462,
      "ile:": 1463,
      "120": 1464,
      "4%": 1465,
      "80": 1466,
      "Asher": 1467,
      "E0%": 1468,
      "दी": 1469,
      "धिक": 1470,
      "▁य": 1471,
      "▁ఎ": 1472,
      "▁199": 1473,
      "▁[ब": 1474,
      "▁[మ": 1475,
      "inist": 1476,
      "ali": 1477,
      "▁(సా.శ.పూ.": 1478,
      "logy": 1479,
      "ंद": 1480,
      "ंत्र": 1481,
      "िट": 1482,
      "▁च": 1483,
      "्री": 1484,
      "▁जन": 1485,
      "▁भाषा\")": 1486,
      "File:": 1487,
      "_1": 1488,
      "ah": 1489,
      "eg": 1490,
      "iki": 1491,
      "थि": 1492,
      "मी": 1493,
      "ధ్య": 1494,
      "▁గ": 1495,
      "▁శ": 1496,
      "▁\"In": 1497,
      "aste": 1498,
      "rad": 1499,
      "ంద్ర": 1500,
      "ంది.": 1501,
      "▁देश": 1502,
      "ountry": 1503,
      ".pdf)": 1504,
      "onstitution": 1505,
      "विशेष:": 1506,
      "ूर्व": 1507,
      "▁5": 1508,
      "▁\"H": 1509,
      "velop": 1510,
      "AAQBAJ&pg=PA": 1511,
      "..": 1512,
      "ost": 1513,
      "ైన": 1514,
      "▁3": 1515,
      "](https://te.wikipedia.org/wiki/మ": 1516,
      "2009": 1517,
      "▁పే": 1518,
      "10.": 1519,
      "ritish": 1520,
      "_E": 1521,
      "िश": 1522,
      "idge": 1523,
      "rap": 1524,
      "ated": 1525,
      "mpire": 1526,
      "▁तथा": 1527,
      "man": 1528,
      "ज्": 1529,
      "नी": 1530,
      "ట్ట": 1531,
      "హింద": 1532,
      "▁ख": 1533,
      "▁భారతదేశం": 1534,
      "](File:": 1535,
      "hist": 1536,
      "ack": 1537,
      "ంగ్": 1538,
      "elhi": 1539,
      "ద్ధ": 1540,
      "-s": 1541,
      "43": 1542,
      "ove": 1543,
      "ta": 1544,
      "मे": 1545,
      "हास": 1546,
      "▁pe": 1547,
      "▁at": 1548,
      "▁[K": 1549,
      "](https://hi.wikipedia.org/wiki/क": 1550,
      "▁cent": 1551,
      "▁भारतीय": 1552,
      "स्क": 1553,
      "hy": 1554,
      "ించ": 1555,
      "▁ఒ": 1556,
      "▁భాష": 1557,
      "▁[క": 1558,
      "ాల్": 1559,
      "2004": 1560,
      "ames": 1561,
      "amil": 1562,
      "](https://en.wikipedia.org/wiki/India#cite_ref-FOOTNOTE": 1563,
      "-0-5": 1564,
      "ansk": 1565,
      "MetcalfMetcalf2006": 1566,
      "▁तिथि": 1567,
      "velopment": 1568,
      "-b": 1569,
      "85": 1570,
      "गमन": 1571,
      "▁7": 1572,
      "▁ध": 1573,
      "्वीप": 1574,
      "outh_Asia": 1575,
      "econom": 1576,
      "\"](https://web.archive.org/web/201": 1577,
      "/978": 1578,
      "]](https://te.wikipedia.org/wiki/భారతదేశం#cite_": 1579,
      "hand": 1580,
      "na": 1581,
      "s\")": 1582,
      "ढ़": 1583,
      "द्य": 1584,
      "न\")": 1585,
      "मान": 1586,
      "ी_स": 1587,
      "చ్చ": 1588,
      "జీ": 1589,
      "ేంద్ర": 1590,
      "▁v": 1591,
      "▁\"K": 1592,
      "▁\"క": 1593,
      "▁\"The": 1594,
      "usic": 1595,
      "पुर": 1596,
      "do-": 1597,
      "म्ब": 1598,
      "times": 1599,
      "anskrit": 1600,
      "\nCategory:": 1601,
      "\"\n": 1602,
      "%E0%": 1603,
      "33": 1604,
      "RC": 1605,
      "duc": 1606,
      "ite": 1607,
      "qu": 1608,
      "ँच": 1609,
      "गु": 1610,
      "्ड": 1611,
      "्ल": 1612,
      "▁\"Indian": 1613,
      "](https://en.wikipedia.org/wiki/H": 1614,
      "](https://en.wikipedia.org/wiki/In": 1615,
      "2007": 1616,
      "emplate": 1617,
      "वं": 1618,
      "త్య": 1619,
      "బ్": 1620,
      "మీ": 1621,
      "▁[the": 1622,
      "isation": 1623,
      "](https://te.wikipedia.org/wiki/ద": 1624,
      "్యా": 1625,
      "ury": 1626,
      "రాష్ట్ర": 1627,
      "▁2014": 1628,
      "▁./వర్గం:": 1629,
      "bridge": 1630,
      "conomy": 1631,
      "▁its": 1632,
      "▁तिथि:": 1633,
      "4)": 1634,
      "census": 1635,
      "oh": 1636,
      "▁te": 1637,
      "▁un": 1638,
      "▁राज": 1639,
      "orth": 1640,
      "ome": 1641,
      "ambridge": 1642,
      "gover": 1643,
      "द्ध": 1644,
      "html": 1645,
      "-d": 1646,
      "67": 1647,
      "ef": 1648,
      "world": 1649,
      "त्": 1650,
      "पाल": 1651,
      "रब": 1652,
      "रकार": 1653,
      "ून": 1654,
      "ంక": 1655,
      "ప్": 1656,
      "యు": 1657,
      "▁[H": 1658,
      "any": 1659,
      "ase": 1660,
      "lection": 1661,
      "ater": 1662,
      "lion": 1663,
      "row": 1664,
      "▁अभि": 1665,
      "తంత్ర": 1666,
      "](https://te.wikipedia.org/wiki/భారతదేశం#cite_ref-": 1667,
      "roup": 1668,
      "దక్షిణ": 1669,
      "]](https://te.wikipedia.org/wiki/భారతదేశం#cite_note-": 1670,
      "▁अभिगमन": 1671,
      "12": 1672,
      "Oxford": 1673,
      "World": 1674,
      "हर": 1675,
      "ुस": 1676,
      "ोक": 1677,
      "▁U": 1678,
      "\")\n\n": 1679,
      "inent": 1680,
      "्रोत": 1681,
      "▁स्": 1682,
      "ril": 1683,
      "matics": 1684,
      "ulture": 1685,
      "▁reg": 1686,
      "yson": 1687,
      ".nic": 1688,
      "/c": 1689,
      "6)": 1690,
      "IN": 1691,
      "_స": 1692,
      "ave": 1693,
      "dit": 1694,
      "hr": 1695,
      "lia": 1696,
      "ug": 1697,
      "ती": 1698,
      "ुख": 1699,
      "తము": 1700,
      "వే": 1701,
      "ష్": 1702,
      "ాన్": 1703,
      "▁4": 1704,
      "alth": 1705,
      "▁(201": 1706,
      "స్క": 1707,
      "ligion": 1708,
      "▁हैं।": 1709,
      "ిల్లీ": 1710,
      "किस्तान": 1711,
      "_language": 1712,
      "lish": 1713,
      "mer": 1714,
      "](https://en.wikipedia.org/wiki/K": 1715,
      "ashm": 1716,
      "▁cont": 1717,
      "uring": 1718,
      "िका": 1719,
      "▁wh": 1720,
      "ign": 1721,
      "▁जा": 1722,
      "▁languages": 1723,
      "overnment": 1724,
      "dition": 1725,
      "राष्ट्रीय": 1726,
      "_by": 1727,
      "akistan": 1728,
      "led": 1729,
      "pu": 1730,
      "न्त": 1731,
      "జి": 1732,
      "ధాన": 1733,
      "బె": 1734,
      "▁[L": 1735,
      "\").\n-": 1736,
      "alay": 1737,
      "ారు": 1738,
      "2005": 1739,
      "▁కా": 1740,
      "स्तक": 1741,
      "▁రాజ": 1742,
      "पुस्तक": 1743,
      "AARC": 1744,
      "▁[978-1": 1745,
      "late_": 1746,
      "ograp": 1747,
      "/https://www.": 1748,
      "विशेष:पुस्तक": 1749,
      "्रोत/978": 1750,
      "5)": 1751,
      "Dw": 1752,
      "दक्षिण": 1753,
      "ष्": 1754,
      "िव": 1755,
      "▁ad": 1756,
      "▁\"प": 1757,
      "urope": 1758,
      "▁18": 1759,
      "▁mil": 1760,
      "िया\")": 1761,
      "radesh": 1762,
      "-m": 1763,
      "ati": 1764,
      "port": 1765,
      "द्र": 1766,
      "हार": 1767,
      "దు": 1768,
      "మ్": 1769,
      "శ్": 1770,
      "](https://hi.wikipedia.org/wiki/स": 1771,
      "](https://te.wikipedia.org/wiki/క": 1772,
      "▁सम": 1773,
      "▁sub": 1774,
      "్యవ": 1775,
      "hel": 1776,
      "▁were": 1777,
      "irst": 1778,
      "▁History": 1779,
      "▁2021": 1780,
      "template": 1781,
      "Stein2010": 1782,
      "_చరిత్ర": 1783,
      "7)": 1784,
      "mber": 1785,
      "ित्र": 1786,
      "▁le": 1787,
      "anc": 1788,
      "▁सूची": 1789,
      "र्थ": 1790,
      "1998": 1791,
      "ound": 1792,
      "▁Hindu": 1793,
      "odern": 1794,
      "doi": 1795,
      "▁इस": 1796,
      "conomic": 1797,
      "\n\n###": 1798,
      "government": 1799,
      ".;": 1800,
      ".sv": 1801,
      "9)": 1802,
      "A4%": 1803,
      "_प्र": 1804,
      "ण्ड": 1805,
      "ఢిల్లీ": 1806,
      "పంచ": 1807,
      "▁[In": 1808,
      "▁\"L": 1809,
      "ారి": 1810,
      "\\_S": 1811,
      "une": 1812,
      "त्तर": 1813,
      "మూస": 1814,
      "▁मेला": 1815,
      "\"](https://www.": 1816,
      "-t": 1817,
      "-india": 1818,
      "62": 1819,
      "65": 1820,
      "_भारत": 1821,
      "por": 1822,
      "uary": 1823,
      "▁8": 1824,
      "\")*": 1825,
      "erv": 1826,
      "ese": 1827,
      "्रिट": 1828,
      "ice": 1829,
      "रालेख": 1830,
      "▁Ap": 1831,
      "tical": 1832,
      "age/": 1833,
      "ght": 1834,
      "continent": 1835,
      "0.": 1836,
      "05": 1837,
      "_F": 1838,
      "dom": 1839,
      "gan": 1840,
      "mb": 1841,
      "oi": 1842,
      "tates": 1843,
      "val": 1844,
      "వు": 1845,
      "▁\"భారతీయ": 1846,
      "ined": 1847,
      "](https://hi.wikipedia.org/wiki/च": 1848,
      "▁हु": 1849,
      "_की_स": 1850,
      ".jpg)](File:": 1851,
      "_में": 1852,
      "ission": 1853,
      "_m": 1854,
      "_the": 1855,
      "ms": 1856,
      "गण": 1857,
      "ते": 1858,
      "मिल": 1859,
      "▁2": 1860,
      "](https://hi.wikipedia.org/wiki/अ": 1861,
      "cies": 1862,
      "2003": 1863,
      "\").[[": 1864,
      "▁वर्": 1865,
      "ंग्रेज़": 1866,
      "ज्ञ": 1867,
      "रालेखित": 1868,
      "/p": 1869,
      "PP": 1870,
      "Wiki": 1871,
      "_c": 1872,
      "జన": 1873,
      "టు": 1874,
      "టె": 1875,
      "▁26": 1876,
      "](https://en.wikipedia.org/wiki/Indian_": 1877,
      "rate": 1878,
      "2008": 1879,
      "▁Comm": 1880,
      "old": 1881,
      "नाम": 1882,
      "▁చె": 1883,
      "నాయ": 1884,
      "–సా.శ.పూ.": 1885,
      "▁./श्रेणी:": 1886,
      "▁Asian": 1887,
      "▁ఆర్": 1888,
      "![](https://upload.wikimedia.org/wikipedia/commons/thumb/": 1889,
      "ystem": 1890,
      "పాలిత": 1891,
      "▁भी": 1892,
      "స్త్రం:": 1893,
      "▁ప్రాంత": 1894,
      "inistry": 1895,
      "-0-521": 1896,
      "ేంద్రపాలిత": 1897,
      "](https://te.wikipedia.org/wiki/దస్త్రం:": 1898,
      ".nic.in/": 1899,
      "Talbot": 1900,
      "air": 1901,
      "vis": 1902,
      "के": 1903,
      "थान": 1904,
      "ध्य": 1905,
      "ा_": 1906,
      "ूप": 1907,
      "▁[प": 1908,
      "on-": 1909,
      "▁सरकार": 1910,
      "usin": 1911,
      "uly": 1912,
      "ाली": 1913,
      "AsherTalbot": 1914,
      "-g": 1915,
      "/artic": 1916,
      "Edit": 1917,
      "Page/": 1918,
      "aw": 1919,
      "mund": 1920,
      "जी": 1921,
      "फ़": 1922,
      "ूर": 1923,
      "ఖ్య": 1924,
      "గో": 1925,
      "తో": 1926,
      "బి": 1927,
      "హి": 1928,
      "▁घ": 1929,
      "ories": 1930,
      "▁\"F": 1931,
      "ant": 1932,
      "](https://en.wikipedia.org/wiki/L": 1933,
      "ari": 1934,
      "arch": 1935,
      "](https://hi.wikipedia.org/wiki/ब": 1936,
      "ood": 1937,
      "▁ch": 1938,
      "](https://web.archive.org/web/20": 1939,
      "\"))\n": 1940,
      "othermund": 1941,
      "india.gov.in/": 1942,
      "స్కృ": 1943,
      "EditPage/": 1944,
      "-in": 1945,
      "ail": 1946,
      "shi": 1947,
      "▁territ": 1948,
      "ork": 1949,
      "ise": 1950,
      "ace": 1951,
      "](https://hi.wikipedia.org/wiki/भारत_में": 1952,
      "ulke": 1953,
      "▁15": 1954,
      "250px-": 1955,
      "1_": 1956,
      "330": 1957,
      "_ప": 1958,
      "_भाषा": 1959,
      "fter": 1960,
      "lass": 1961,
      "o-": 1962,
      "uk": 1963,
      "year": 1964,
      "ख्या": 1965,
      "रु": 1966,
      "श्च": 1967,
      "हु": 1968,
      "ा:": 1969,
      "హా": 1970,
      "▁२": 1971,
      "▁ను": 1972,
      "▁జాతీయ": 1973,
      "ister": 1974,
      "omb": 1975,
      "197": 1976,
      "rib": 1977,
      "न्न": 1978,
      "ాలు\")": 1979,
      "न्द्र": 1980,
      "ustry": 1981,
      "%20%20": 1982,
      "▁చరిత్ర\")": 1983,
      "్యవస్థ": 1984,
      "श्चिम": 1985,
      "69": 1986,
      "▁ri": 1987,
      "▁[उ": 1988,
      "eneral": 1989,
      "ats": 1990,
      "▁2010": 1991,
      "Union": 1992,
      "चीन": 1993,
      "_and_S": 1994,
      "▁April": 1995,
      "-l": 1996,
      "1,": 1997,
      "yn": 1998,
      "कर": 1999,
      "ङ्": 2000,
      "जरा": 2001,
      "ूच": 2002,
      "డా": 2003,
      "దా": 2004,
      "బడ": 2005,
      "మే": 2006,
      "రణ": 2007,
      "▁లో": 2008,
      "▁25": 2009,
      "ority": 2010,
      "](https://en.wikipedia.org/wiki/F": 2011,
      "2014": 2012,
      "entre": 2013,
      "aman": 2014,
      "\\_and": 2015,
      "\\_errors": 2016,
      "umber": 2017,
      "▁17": 2018,
      "▁కూ": 2019,
      "ాలు,": 2020,
      "isher": 2021,
      "▁రాష్ట్ర": 2022,
      "ower": 2023,
      "earch": 2024,
      "కిస్తాన్": 2025,
      "](http://www.": 2026,
      "%E0%A4%": 2027,
      "help": 2028,
      "59": 2029,
      "8)": 2030,
      "8/": 2031,
      "_H": 2032,
      "_L": 2033,
      "national": 2034,
      "uch": 2035,
      "ugh": 2036,
      "एस": 2037,
      "ोर": 2038,
      "▁[F": 2039,
      "edi": 2040,
      "▁India,": 2041,
      "▁An": 2042,
      "low": 2043,
      "▁हो": 2044,
      "▁2007": 2045,
      "युक्त": 2046,
      "ुसार": 2047,
      "ashmir": 2048,
      "्रिटिश": 2049,
      "1/": 2050,
      "57": 2051,
      "C&pg=PA": 2052,
      "uj": 2053,
      "ैद": 2054,
      "▁ఈ": 2055,
      "▁ag": 2056,
      "▁భారత": 2057,
      "▁errors": 2058,
      "▁मान": 2059,
      "lim": 2060,
      "త్రి": 2061,
      "ాలు](https://te.wikipedia.org/wiki/": 2062,
      "igh": 2063,
      "emb": 2064,
      "_Indian_": 2065,
      "▁तक": 2066,
      "▁./Category:": 2067,
      "nglish": 2068,
      "▁World": 2069,
      "▁([help": 2070,
      "ongress": 2071,
      "▁\"Special:BookSources/978-1": 2072,
      "](Special:BookSources/978-1": 2073,
      "साँच": 2074,
      "▁Island": 2075,
      "जाब": 2076,
      "emplate:": 2077,
      "▁errors\"))\n": 2078,
      "-c": 2079,
      "100": 2080,
      "Singh": 2081,
      "a,": 2082,
      "aper": 2083,
      "शिया": 2084,
      "▁[W": 2085,
      "act": 2086,
      "▁countries": 2087,
      "uman": 2088,
      "](https://hi.wikipedia.org/wiki/भारतीय_": 2089,
      "▁Empire": 2090,
      "▁New": 2091,
      "ople": 2092,
      "▁July": 2093,
      "▁Asia\")": 2094,
      "पाकिस्तान": 2095,
      "स्कृत": 2096,
      "87": 2097,
      "_క": 2098,
      "cre": 2099,
      "du": 2100,
      "fn_": 2101,
      "ober": 2102,
      "वी": 2103,
      "सम": 2104,
      "తు": 2105,
      "పతి": 2106,
      "▁ని": 2107,
      "▁error": 2108,
      "▁స్థ": 2109,
      "▁template": 2110,
      "king": 2111,
      "ori": 2112,
      "▁[అ": 2113,
      "▁[ప": 2114,
      "▁\"उ": 2115,
      "▁\"భారతదేశం": 2116,
      "ed.": 2117,
      "్రి": 2118,
      "ley": 2119,
      "no-t": 2120,
      "\\_no-t": 2121,
      "▁Sfn": 2122,
      "▁target": 2123,
      "ర్వ": 2124,
      "న్ని": 2125,
      "▁Pres": 2126,
      "ों_की_स": 2127,
      "▁नि": 2128,
      "imes": 2129,
      "fn\\_no-t": 2130,
      "మిళ": 2131,
      "▁not": 2132,
      "template_": 2133,
      "arget\\_errors": 2134,
      "వంశ": 2135,
      "ledge": 2136,
      "DwAAQBAJ&pg=PA": 2137,
      "\\_Sfn\\_no-t": 2138,
      "_and_Sfn_": 2139,
      "\\_and\\_Sfn\\_no-t": 2140,
      "▁error:": 2141,
      "▁target:": 2142,
      "template_errors": 2143,
      "arget\\_errors\n": 2144,
      "_and_Sfn_template_errors": 2145,
      "\\_and\\_Sfn\\_no-target\\_errors\n": 2146,
      "121": 2147,
      "gy": 2148,
      "ph": 2149,
      "ution": 2150,
      "ves": 2151,
      "ंब": 2152,
      "ओं": 2153,
      "प्त": 2154,
      "ब्": 2155,
      "ुल": 2156,
      "int": 2157,
      "off": 2158,
      "](https://hi.wikipedia.org/wiki/प": 2159,
      "lear": 2160,
      "▁cons": 2161,
      "▁CITEREF": 2162,
      "▁tra": 2163,
      "▁\"South": 2164,
      "iron": 2165,
      "▁this": 2166,
      "▁उप": 2167,
      "▁विश": 2168,
      "]](https://hi.wikipedia.org/wiki/भारत#cite_note-FOOTNOTE": 2169,
      "ummit\")": 2170,
      "news/": 2171,
      "\n\n[![](https://upload.wikimedia.org/wikipedia/commons/thumb/": 2172,
      "2_": 2173,
      "_మ": 2174,
      "_భాష": 2175,
      "att": 2176,
      "dus": 2177,
      "ocial": 2178,
      "ure": 2179,
      "ఫ్": 2180,
      "▁స్": 2181,
      "▁government": 2182,
      "▁[J": 2183,
      "▁[బ": 2184,
      "▁[స": 2185,
      "▁\"J": 2186,
      "▁\"అ": 2187,
      "▁किया": 2188,
      "cient": 2189,
      "1947": 2190,
      "ide": 2191,
      "rab": 2192,
      "ram": 2193,
      "న్నాయ": 2194,
      "▁Pro": 2195,
      "▁हि": 2196,
      "▁10": 2197,
      "line": 2198,
      "▁కాల": 2199,
      "ect": 2200,
      "▁have": 2201,
      "ులు](https://te.wikipedia.org/wiki/": 2202,
      "eptem": 2203,
      ".jpg)](https://te.wikipedia.org/wiki/దస్త్రం:": 2204,
      "▁రై": 2205,
      "_के_राज्य": 2206,
      "Stein1998": 2207,
      "/http://www.": 2208,
      "धिकार": 2209,
      "ंदिर": 2210,
      "హిందూ": 2211,
      "Singh2009": 2212,
      "eptember": 2213,
      "Dyson": 2214,
      "mar": 2215,
      "pr": 2216,
      "viron": 2217,
      "शास": 2218,
      "▁9": 2219,
      "▁year": 2220,
      "▁[t": 2221,
      "thno": 2222,
      "](https://en.wikipedia.org/wiki/J": 2223,
      "▁into": 2224,
      "▁system": 2225,
      "▁pl": 2226,
      "ालय": 2227,
      "▁प्रा": 2228,
      "_Press": 2229,
      "uclear": 2230,
      "brary": 2231,
      "also": 2232,
      "engal": 2233,
      "▁१९": 2234,
      "ographi": 2235,
      "uropean": 2236,
      "▁सूची\")": 2237,
      "ombined": 2238,
      "vironment": 2239,
      "\"](https://": 2240,
      ",000": 2241,
      "2-0)": 2242,
      "_K": 2243,
      "ote": 2244,
      "pt": 2245,
      "ंजाब": 2246,
      "वन": 2247,
      "श्": 2248,
      "ागर": 2249,
      "ैन": 2250,
      "ఆసియా": 2251,
      "ద్ర": 2252,
      "భూ": 2253,
      "మె": 2254,
      "య్య": 2255,
      "ర్య": 2256,
      "▁6": 2257,
      "▁ల": 2258,
      "▁us": 2259,
      "▁24": 2260,
      "▁\"ప": 2261,
      "▁\"బ": 2262,
      "▁\"స": 2263,
      "\")*.": 2264,
      "▁off": 2265,
      "▁their": 2266,
      "▁सब": 2267,
      "▁sfn": 2268,
      "▁par": 2269,
      "▁comp": 2270,
      "anges": 2271,
      "map": 2272,
      "▁Pradesh": 2273,
      "▁[↑](https://te.wikipedia.org/wiki/భారతదేశం#cite_ref-": 2274,
      "▁during": 2275,
      "ember": 2276,
      "s.[[": 2277,
      "త్త": 2278,
      "ctober": 2279,
      "▁అధిక": 2280,
      "▁ప్రదేశ్": 2281,
      "▁October": 2282,
      "ప్రదేశ్": 2283,
      "▁[मूल": 2284,
      "▁language\")": 2285,
      "_summit": 2286,
      "▁खाना": 2287,
      "330px-": 2288,
      "▁నుండి": 2289,
      "ों_की_सूची": 2290,
      "న్నాయి.": 2291,
      ".\"\n": 2292,
      "51": 2293,
      "_re": 2294,
      "countries": 2295,
      "mi": 2296,
      "son": 2297,
      "चल": 2298,
      "ज्य": 2299,
      "टी": 2300,
      "नि": 2301,
      "म्रा": 2302,
      "▁k": 2303,
      "▁econom": 2304,
      "inister": 2305,
      "time": 2306,
      "India)": 2307,
      "idd": 2308,
      "entral": 2309,
      "▁Archived": 2310,
      "▁Aug": 2311,
      "▁first": 2312,
      "ेंद्र": 2313,
      "याल": 2314,
      "](https://hi.wikipedia.org/wiki/भारत_क": 2315,
      "ill": 2316,
      "▁dis": 2317,
      "210": 2318,
      "▁En": 2319,
      "स्था": 2320,
      "▁गया": 2321,
      "argest": 2322,
      ".jpg/250px-": 2323,
      "▁राज्यों": 2324,
      "▁Press\").": 2325,
      "▁[भारतीय": 2326,
      "outledge": 2327,
      "▁[Archived](https://web.archive.org/web/20": 2328,
      "120px-": 2329,
      "▁August": 2330,
      "-language": 2331,
      "/0": 2332,
      "Combined": 2333,
      "Rothermund": 2334,
      "ee": 2335,
      "fl": 2336,
      "ive": 2337,
      "jab": 2338,
      "ोर्": 2339,
      "ణి": 2340,
      "తమిళ": 2341,
      "మైన": 2342,
      "హార": 2343,
      "ోర్": 2344,
      "▁also": 2345,
      "▁\"ఇ": 2346,
      "▁\"భారత": 2347,
      "ince": 2348,
      "](https://te.wikipedia.org/wiki/బ": 2349,
      "now": 2350,
      "\\_with": 2351,
      "ayan": 2352,
      "▁మొ": 2353,
      "1994": 2354,
      "](https://mai.wikipedia.org/wiki/भारत": 2355,
      "నాగ": 2356,
      "▁2023": 2357,
      "త్తర": 2358,
      "ులు\")": 2359,
      "ffair": 2360,
      "ternational": 2361,
      "▁(PDF)": 2362,
      "ారు.": 2363,
      "శ్మీ": 2364,
      "మూస:": 2365,
      "Dyson2018": 2366,
      "श्मी": 2367,
      "म्राज्य": 2368,
      "%28": 2369,
      "Kulke": 2370,
      "_at": 2371,
      "ban": 2372,
      "ne": 2373,
      "oor": 2374,
      "uis": 2375,
      "ule": 2376,
      "आई": 2377,
      "तमिल": 2378,
      "दा": 2379,
      "िप": 2380,
      "्क": 2381,
      "▁[I": 2382,
      "ond": 2383,
      "one": 2384,
      "er,": 2385,
      "2023": 2386,
      "cience": 2387,
      "▁con": 2388,
      "▁September": 2389,
      "▁world": 2390,
      "▁**[": 2391,
      "india/": 2392,
      "तिहास": 2393,
      "formatics": 2394,
      "odi": 2395,
      "▁June": 2396,
      "▁form": 2397,
      "माण": 2398,
      "ियों": 2399,
      "ी_भाषा": 2400,
      "hism": 2401,
      "▁पुरालेखित": 2402,
      "▁region": 2403,
      "liament": 2404,
      "ित्र:": 2405,
      ".svg": 2406,
      "▁Commission": 2407,
      "▁सबसे": 2408,
      "▁पुरालेखित।": 2409,
      "44": 2410,
      "_d": 2411,
      "data": 2412,
      "fr": 2413,
      "ology": 2414,
      "rans": 2415,
      "tal": 2416,
      "की": 2417,
      "रे": 2418,
      "वरी": 2419,
      "िन्": 2420,
      "శా": 2421,
      "ైనా": 2422,
      "▁wi": 2423,
      "▁[ఇ": 2424,
      "▁[सं": 2425,
      "▁\"జ": 2426,
      "annic": 2427,
      "estern": 2428,
      "](https://te.wikipedia.org/wiki/ఇ": 2429,
      "](https://te.wikipedia.org/wiki/స": 2430,
      "etwe": 2431,
      "▁class": 2432,
      "భారత_": 2433,
      "ural": 2434,
      "chno": 2435,
      "రాజ": 2436,
      "▁Th": 2437,
      "▁Re": 2438,
      "లో](https://te.wikipedia.org/wiki/": 2439,
      "ियाँ": 2440,
      "రిజ": 2441,
      "క్కు": 2442,
      "230": 2443,
      "▁बाद": 2444,
      "ండ్": 2445,
      "ritannic": 2446,
      "ishing": 2447,
      "fficial": 2448,
      "िल्ल": 2449,
      "logue": 2450,
      "hina": 2451,
      "](https://hi.wikipedia.org/wiki/चित्र:": 2452,
      "స్కృతి": 2453,
      "\\_with\\_": 2454,
      "etween": 2455,
      "\".": 2456,
      "-19": 2457,
      "31": 2458,
      "National_": 2459,
      "iver": 2460,
      "pp": 2461,
      "मह": 2462,
      "ीन": 2463,
      "ेला": 2464,
      "।[[": 2465,
      "▁per": 2466,
      "wing": 2467,
      "▁कि": 2468,
      "ool": 2469,
      "racy": 2470,
      "▁population": 2471,
      "-17": 2472,
      "▁Sh": 2473,
      "adu": 2474,
      "\n\n-": 2475,
      "unjab": 2476,
      "▁जिस": 2477,
      "्वत": 2478,
      "्वर": 2479,
      "▁आधार": 2480,
      "स्थान": 2481,
      "University_Press": 2482,
      "▁संघ": 2483,
      "india.gov.in": 2484,
      "▁[Archived](https://web.archive.org/web/201": 2485,
      "▁(PDF).": 2486,
      "history": 2487,
      "▁धर्म": 2488,
      "usiness": 2489,
      "thnologue": 2490,
      "KulkeRothermund": 2491,
      "/A": 2492,
      "8](https://en.wikipedia.org/wiki/India#CITEREF": 2493,
      "hol": 2494,
      "ibrary": 2495,
      "oast": 2496,
      "च्च": 2497,
      "बंध": 2498,
      "मुख": 2499,
      "ం?action=edit&redlink=1": 2500,
      "చే": 2501,
      "బా": 2502,
      "–1": 2503,
      "▁22": 2504,
      "▁[జ": 2505,
      "▁\"O": 2506,
      "omen": 2507,
      "▁India:": 2508,
      "▁India\"),": 2509,
      "raven": 2510,
      "▁part": 2511,
      "amb": 2512,
      "▁పా": 2513,
      "urr": 2514,
      "](https://hi.wikipedia.org/wiki/भारत#CITEREF": 2515,
      "rop": 2516,
      "oll": 2517,
      "▁వా": 2518,
      "_सं": 2519,
      "ండు": 2520,
      "▁చూ": 2521,
      "త్వ": 2522,
      "aint": 2523,
      "ప్రధాన": 2524,
      "▁साथ": 2525,
      "▁తే": 2526,
      ".jpg/330px-": 2527,
      "udden": 2528,
      "gency": 2529,
      "▁subcontinent": 2530,
      "](https://hi.wikipedia.org/wiki/भारत_में_": 2531,
      "▁विश्व": 2532,
      "-re": 2533,
      "-26": 2534,
      "3-0)": 2535,
      "CE": 2536,
      "_%28": 2537,
      "_University_Press": 2538,
      "ual": 2539,
      "ya": 2540,
      "पति": 2541,
      "स्ट": 2542,
      "▁res": 2543,
      "▁था": 2544,
      "tec": 2545,
      "▁\"श्रेणी:Harv": 2546,
      "eser": 2547,
      "](https://hi.wikipedia.org/wiki/श्रेणी:Harv": 2548,
      "▁Ass": 2549,
      "▁16": 2550,
      "cember": 2551,
      "▁Metcalf": 2552,
      "▁2024": 2553,
      "▁2006": 2554,
      "क्षेत्र": 2555,
      "epublic": 2556,
      "▁./श्रेणी:Harv": 2557,
      "umbai": 2558,
      "▁गण": 2559,
      "depend": 2560,
      "नेपाल": 2561,
      "ortal": 2562,
      "▁शास": 2563,
      "-2)": 2564,
      ".jpg/120px-": 2565,
      "गुजरा": 2566,
      "_प्रदेश": 2567,
      "embly": 2568,
      "▁([help](https://hi.wikipedia.org/wiki/श्रेणी:Harv": 2569,
      "_and_Sfn_template_errors?action=edit&redlink=1": 2570,
      "iddle": 2571,
      "chnology": 2572,
      "▁./श्रेणी:Harv\\_and\\_Sfn\\_no-target\\_errors\n": 2573,
      "▁([help](https://hi.wikipedia.org/wiki/श्रेणी:Harv_and_Sfn_template_errors?action=edit&redlink=1": 2574,
      "84": 2575,
      "Template:": 2576,
      "_I": 2577,
      "_సా": 2578,
      "cri": 2579,
      "fric": 2580,
      "lad": 2581,
      "ok": 2582,
      "pl": 2583,
      "par": 2584,
      "ron": 2585,
      "णा": 2586,
      "सद": 2587,
      "००": 2588,
      "ంప": 2589,
      "కో": 2590,
      "గణ": 2591,
      "దిన": 2592,
      "నై": 2593,
      "రీ": 2594,
      "▁थ": 2595,
      "▁al": 2596,
      "▁ac": 2597,
      "▁21": 2598,
      "ped": 2599,
      "encies": 2600,
      "▁\"W": 2601,
      "▁\"इ": 2602,
      "▁\"చ": 2603,
      "\"):": 2604,
      "ering": 2605,
      "are": 2606,
      "](https://hi.wikipedia.org/wiki/उ": 2607,
      "edic": 2608,
      "andhi": 2609,
      "](https://te.wikipedia.org/wiki/జ": 2610,
      "ారం": 2611,
      "▁se": 2612,
      "्यट": 2613,
      "ref-1": 2614,
      "note-1": 2615,
      "▁but": 2616,
      "▁between": 2617,
      "loc": 2618,
      "▁Population": 2619,
      "▁more": 2620,
      "ourt": 2621,
      "term": 2622,
      "▁2019": 2623,
      "▁క్రీ": 2624,
      "క్‌": 2625,
      "నికి": 2626,
      "ల్ల": 2627,
      "ంగీ": 2628,
      "▁సి": 2629,
      "నాభా": 2630,
      "able": 2631,
      "▁Jan": 2632,
      "harma": 2633,
      "జాబి": 2634,
      "Harle": 2635,
      "▁been": 2636,
      "▁रूप": 2637,
      "ligi": 2638,
      "हिन्दी": 2639,
      "view": 2640,
      "▁[![](https://upload.wikimedia.org/wikipedia/commons/thumb/": 2641,
      "▁శా": 2642,
      "▁భాష\")": 2643,
      "బెంగ": 2644,
      "ujar": 2645,
      "జాబితా": 2646,
      "%29": 2647,
      ")\n-": 2648,
      "-20": 2649,
      "58": 2650,
      "ft": 2651,
      "fil": 2652,
      "mu": 2653,
      "sl": 2654,
      "गढ़": 2655,
      "वे": 2656,
      "ांग": 2657,
      "▁Y": 2658,
      "▁[Indian": 2659,
      "an\")": 2660,
      "▁कार": 2661,
      "▁सि": 2662,
      "ics": 2663,
      "ident": 2664,
      "▁Act": 2665,
      "▁St": 2666,
      "▁bec": 2667,
      "ures": 2668,
      "▁music": 2669,
      "▁2016": 2670,
      "berg": 2671,
      "▁National": 2672,
      "-80": 2673,
      "%2F": 2674,
      "-107": 2675,
      "▁century": 2676,
      "▁हिन्द": 2677,
      "ffairs": 2678,
      "1-0)": 2679,
      "5_": 2680,
      ":[": 2681,
      "Ar": 2682,
      "_W": 2683,
      "_अ": 2684,
      "her": 2685,
      "rish": 2686,
      "van": 2687,
      "wo": 2688,
      "तेल": 2689,
      "दे": 2690,
      "ही": 2691,
      "्ला": 2692,
      "చల్": 2693,
      "యన్": 2694,
      "షు": 2695,
      "ూర్": 2696,
      "▁es": 2697,
      "▁all": 2698,
      "▁नाम": 2699,
      ".org/10.": 2700,
      "▁[చ": 2701,
      "▁[భారత": 2702,
      "▁[భారతీయ": 2703,
      "▁\"I": 2704,
      "2024": 2705,
      "](https://te.wikipedia.org/wiki/ప": 2706,
      "](https://te.wikipedia.org/wiki/భారతీయ": 2707,
      "ార్ట": 2708,
      "▁मु": 2709,
      "ాలయ": 2710,
      "amp": 2711,
      "ument": 2712,
      "▁di": 2713,
      "▁dance": 2714,
      "▁after": 2715,
      "క్క": 2716,
      "▁వ్యవస్థ": 2717,
      "▁दे": 2718,
      "्वार": 2719,
      "▁ము": 2720,
      "ండో": 2721,
      "ముంబ": 2722,
      "సిన": 2723,
      "-81": 2724,
      "ినల్": 2725,
      "apit": 2726,
      "ద్ద": 2727,
      "avid": 2728,
      "▁ఉన్న": 2729,
      "▁ఉంది.": 2730,
      "rick": 2731,
      "పాకిస్తాన్": 2732,
      "ompany": 2733,
      "-0-19-8": 2734,
      "ంధీ": 2735,
      "clud": 2736,
      "▁ఒక": 2737,
      "▁ఒరిజ": 2738,
      "doi.org/10.": 2739,
      "వంశం": 2740,
      "▁తేదీ": 2741,
      "ార్టీ": 2742,
      "▁ఒరిజినల్": 2743,
      ".html": 2744,
      "4-0)": 2745,
      "_और": 2746,
      "ces": 2747,
      "country": 2748,
      "dustry": 2749,
      "fic": 2750,
      "imp": 2751,
      "ls": 2752,
      "wart": 2753,
      "zberg": 2754,
      "एं": 2755,
      "क्स": 2756,
      "खा": 2757,
      "जय": 2758,
      "धी": 2759,
      "सी": 2760,
      "िन": 2761,
      "ृष्": 2762,
      "▁।": 2763,
      "▁over": 2764,
      "▁other": 2765,
      "iation": 2766,
      "ttar": 2767,
      "peration": 2768,
      "▁[3": 2769,
      "▁[e": 2770,
      "▁[v": 2771,
      "ones": 2772,
      "arh": 2773,
      "ार्ट": 2774,
      "icy": 2775,
      "▁comm": 2776,
      "▁Census": 2777,
      "ade": 2778,
      "lob": 2779,
      "chwart": 2780,
      "str": 2781,
      "▁ab": 2782,
      "विधान": 2783,
      "▁दक्षिण": 2784,
      "▁East": 2785,
      "form": 2786,
      "▁number": 2787,
      "▁1950": 2788,
      "▁For": 2789,
      "ड़ा": 2790,
      "▁[978-0-": 2791,
      "▁state": 2792,
      "_De": 2793,
      "auth": 2794,
      "▁यह": 2795,
      "त्प": 2796,
      "ganisation": 2797,
      "ज्ञान": 2798,
      "▁Press.": 2799,
      "▁years": 2800,
      "ographic": 2801,
      "ritannica": 2802,
      "chwartzberg": 2803,
      "%7": 2804,
      "07": 2805,
      "6_": 2806,
      "Asia": 2807,
      "GDP": 2808,
      "ID": 2809,
      "Vi": 2810,
      "rm": 2811,
      "y\")": 2812,
      "ze": 2813,
      "डिया": 2814,
      "तर": 2815,
      "भी": 2816,
      "में": 2817,
      "ली": 2818,
      "జ్": 2819,
      "వరి": 2820,
      "శ్చ": 2821,
      "ిన్న": 2822,
      "ెల": 2823,
      "ia\")": 2824,
      "pear": 2825,
      "▁[इ": 2826,
      "▁\"భారతదేశ": 2827,
      "▁\"विशेष:पुस्तक": 2828,
      "\").\n": 2829,
      "ini": 2830,
      "](https://en.wikipedia.org/wiki/W": 2831,
      "](https://hi.wikipedia.org/wiki/ISBN_(identifier)": 2832,
      "](https://hi.wikipedia.org/wiki/विशेष:पुस्तक": 2833,
      "్రె": 2834,
      "▁स्रोत/978": 2835,
      "्यव": 2836,
      "्यता": 2837,
      "▁pri": 2838,
      "ing\\_": 2839,
      "▁पा": 2840,
      "▁पूर्व": 2841,
      "▁Cambridge": 2842,
      "anglad": 2843,
      "life": 2844,
      "](https://hi.wikipedia.org/wiki/भारत_के_": 2845,
      "▁most": 2846,
      "▁अप": 2847,
      "▁May": 2848,
      "నిస్తాన్": 2849,
      "ird": 2850,
      "indust": 2851,
      "▁English": 2852,
      "▁మధ్య": 2853,
      "लाई": 2854,
      "_स्रोत/978": 2855,
      "▁2020": 2856,
      "▁विक": 2857,
      "ode": 2858,
      "ctor": 2859,
      "▁(identifier)\"):[": 2860,
      "ustral": 2861,
      "](https://te.wikipedia.org/wiki/భారతదేశంలో": 2862,
      "▁[ISBN](https://hi.wikipedia.org/wiki/ISBN_(identifier)": 2863,
      "▁ఉన్నాయి.": 2864,
      "స్థాన్": 2865,
      "राष्ट्रपति": 2866,
      "_के_आ": 2867,
      "▁अनुसार": 2868,
      "▁Development": 2869,
      "▁December": 2870,
      "▁పేజీ": 2871,
      "ovement": 2872,
      "हासागर": 2873,
      "▁2014.\n": 2874,
      "మ్మూ": 2875,
      "▁समय": 2876,
      "साँचा:": 2877,
      "▁\"భారతదేశంలో": 2878,
      "▁చూసిన": 2879,
      "▁January": 2880,
      "ांग्ला": 2881,
      "▁తేదీ:": 2882,
      "శ్చి": 2883,
      "](https://hi.wikipedia.org/wiki/विशेष:पुस्तक_स्रोत/978": 2884,
      "angladesh": 2885,
      "▁పేజీని": 2886,
      "1–": 2887,
      "81": 2888,
      "88": 2889,
      "CO": 2890,
      "a/": 2891,
      "how": 2892,
      "oon": 2893,
      "oth": 2894,
      "ंप": 2895,
      "त्य": 2896,
      "धर्म": 2897,
      "बर": 2898,
      "ल\")": 2899,
      "लोक": 2900,
      "▁en": 2901,
      "▁28": 2902,
      "▁यु": 2903,
      "▁राष्ट्रीय": 2904,
      "kim": 2905,
      "▁[न": 2906,
      "▁[Metcalf": 2907,
      "▁\"सं": 2908,
      "arb": 2909,
      "alley": 2910,
      "ofindia": 2911,
      "asia": 2912,
      "2012": 2913,
      "196": 2914,
      "2000": 2915,
      "2001": 2916,
      "▁Constitution": 2917,
      "▁Congress": 2918,
      "र्भ": 2919,
      "come": 2920,
      "_of_the": 2921,
      "ross": 2922,
      "▁[↑](https://hi.wikipedia.org/wiki/भारत#cite_": 2923,
      "union": 2924,
      "ticles": 2925,
      "ेश्वर": 2926,
      "▁जु": 2927,
      "▁है,": 2928,
      "▁election": 2929,
      "▁न्या": 2930,
      "fore": 2931,
      "▁national": 2932,
      "▁[South": 2933,
      "ose": 2934,
      "_Centre": 2935,
      ".jpg)\n\n": 2936,
      "ाद्वीप": 2937,
      "▁[*A": 2938,
      "▁\"Special:BookSources/978-0-": 2939,
      "](Special:BookSources/978-0-": 2940,
      "emple": 2941,
      "ikshi": 2942,
      "▁[2](https://en.wikipedia.org/wiki/India#cite_ref-FOOTNOTE": 2943,
      "▁[1](https://en.wikipedia.org/wiki/India#cite_ref-FOOTNOTE": 2944,
      "obb": 2945,
      "times.com/": 2946,
      "censusindia.gov.in/": 2947,
      "▁territories": 2948,
      "ूचना": 2949,
      "शासित": 2950,
      "ikshit": 2951,
      ".as": 2952,
      "2/": 2953,
      "4–": 2954,
      "500": 2955,
      "CN": 2956,
      "_t": 2957,
      "_पर": 2958,
      "_territ": 2959,
      "co": 2960,
      "cent": 2961,
      "ges": 2962,
      "lations": 2963,
      "pur": 2964,
      "बाद": 2965,
      "मार": 2966,
      "रक्ष": 2967,
      "श्री": 2968,
      "ाष्ट्र": 2969,
      "ेट": 2970,
      "ेर": 2971,
      "షన్": 2972,
      "హ్": 2973,
      "ెలు": 2974,
      "▁23": 2975,
      "orther": 2976,
      "Informatics": 2977,
      "eration": 2978,
      "theast": 2979,
      "](https://te.wikipedia.org/wiki/అ": 2980,
      "ash": 2981,
      "ased": 2982,
      "2019": 2983,
      "1950": 2984,
      "agar": 2985,
      "ान\")": 2986,
      "wealth": 2987,
      "िक्ष": 2988,
      "ters": 2989,
      "olicy": 2990,
      "రియా": 2991,
      "_क्षेत्र": 2992,
      "▁మార్": 2993,
      "▁[Stein": 2994,
      "▁Oxford": 2995,
      ".jpg)\n-": 2996,
      "ప్రపంచ": 2997,
      "ndaman": 2998,
      "नेमा": 2999,
      "_मेला": 3000,
      "cyc": 3001,
      "▁states": 3002,
      "olitical": 3003,
      "▁సంస్కృతి": 3004,
      "धार_पर": 3005,
      "దీవ": 3006,
      "द्योग": 3007,
      "न्त्र": 3008,
      "हाराष्ट्र": 3009,
      "▁2006](https://en.wikipedia.org/wiki/India#CITEREF": 3010,
      "_के_आधार_पर": 3011,
      "_के_आधार_पर_भारत": 3012,
      "-le": 3013,
      "-21": 3014,
      "-to": 3015,
      ".india": 3016,
      "2-": 3017,
      "5-0)": 3018,
      "79": 3019,
      "Fisher": 3020,
      "Hindi": 3021,
      "_O": 3022,
      "han": 3023,
      "oci": 3024,
      "pa": 3025,
      "pib": 3026,
      "rin": 3027,
      "ran": 3028,
      "धु": 3029,
      "वै": 3030,
      "वाद": 3031,
      "हित": 3032,
      "ृति": 3033,
      "ोन": 3034,
      "▁27": 3035,
      "▁[s": 3036,
      "▁\"हिन्द": 3037,
      "\")**": 3038,
      "ann": 3039,
      "onwealth": 3040,
      "ale": 3041,
      "high": 3042,
      "reat": 3043,
      "ised": 3044,
      "andard": 3045,
      "ough": 3046,
      "▁spe": 3047,
      "▁मंदिर": 3048,
      "ama": 3049,
      "र्द": 3050,
      "▁1.": 3051,
      "ched": 3052,
      "▁March": 3053,
      "▁Budd": 3054,
      "▁BCE": 3055,
      "emoc": 3056,
      "▁had": 3057,
      "ंगा": 3058,
      "▁Hindi": 3059,
      "harat": 3060,
      "▁साम्राज्य": 3061,
      "904": 3062,
      "▁[2](https://en.wikipedia.org/wiki/India#cite_ref-": 3063,
      "▁[1](https://en.wikipedia.org/wiki/India#cite_ref-": 3064,
      "ंग्रेज़ी": 3065,
      "vision": 3066,
      "▁2010](https://en.wikipedia.org/wiki/India#CITEREF": 3067,
      "ughal": 3068,
      "ed.).": 3069,
      "▁official": 3070,
      "countries_by": 3071,
      "▁पुरालेखित।.": 3072,
      "ligious": 3073,
      "्यवस्था": 3074,
      "▁जुलाई": 3075,
      "censusindia.gov.in/2011": 3076,
      "orthern": 3077,
      "_के_आधार_पर_भारत_के_राज्य": 3078,
      "Fisher2018": 3079,
      ",[[": 3080,
      "-f": 3081,
      "1]](https://en.wikipedia.org/wiki/India#cite_note-FOOTNOTE": 3082,
      "4).": 3083,
      "76": 3084,
      "Uttar": 3085,
      "back": 3086,
      "lang": 3087,
      "p?": 3088,
      "ru": 3089,
      "va": 3090,
      "र्त": 3091,
      "ం\"),": 3092,
      "ంత్రి": 3093,
      "ఆఫ్": 3094,
      "కత": 3095,
      "కై": 3096,
      "క్య": 3097,
      "దాయ": 3098,
      "రే": 3099,
      "లంక": 3100,
      "వీ": 3101,
      "శ్రీ": 3102,
      "షి": 3103,
      "సు": 3104,
      "▁ఏ": 3105,
      "▁up": 3106,
      "pect": 3107,
      "](https://doi.org/10.": 3108,
      "▁[[": 3109,
      "▁[సి": 3110,
      "▁[हिन्द": 3111,
      "eds.": 3112,
      "](https://te.wikipedia.org/wiki/చ": 3113,
      "▁मा": 3114,
      "riod": 3115,
      "స్సా": 3116,
      "▁పరి": 3117,
      "▁పార్టీ": 3118,
      "adi": 3119,
      "▁two": 3120,
      "న్‌": 3121,
      "▁13": 3122,
      "change": 3123,
      "▁me": 3124,
      "▁dec": 3125,
      "▁अधिक": 3126,
      "▁Talbot": 3127,
      "olk": 3128,
      "▁Reg": 3129,
      "▁కు": 3130,
      "▁వచ్చ": 3131,
      "नाग": 3132,
      "ముద్ర": 3133,
      "abad": 3134,
      "▁2009": 3135,
      "eport": 3136,
      "म्प": 3137,
      "▁It": 3138,
      "గాంధీ": 3139,
      "▁लि": 3140,
      "क्ति": 3141,
      "నేపాల": 3142,
      "▁[↑](https://hi.wikipedia.org/wiki/भारत#cite_ref-FOOTNOTE": 3143,
      "olitics": 3144,
      "▁प्रदेश\")": 3145,
      "▁देशों": 3146,
      "▁పేరు": 3147,
      "హిందీ": 3148,
      "mbol": 3149,
      "▁చెయ్య": 3150,
      "▁కూడా": 3151,
      "▁tradition": 3152,
      "ంగీతం": 3153,
      "files/": 3154,
      "▁became": 3155,
      "ముంబై": 3156,
      "శ్చిమ": 3157,
      "Informatics_Centre": 3158,
      "▁మార్గ": 3159,
      "▁చెయ్యబడ": 3160,
      ")\n": 3161,
      ".n": 3162,
      "73": 3163,
      "89": 3164,
      "IM": 3165,
      "_3": 3166,
      "_ए": 3167,
      "ae": 3168,
      "bi": 3169,
      "cord": 3170,
      "ehr": 3171,
      "f/": 3172,
      "has": 3173,
      "if": 3174,
      "ंक": 3175,
      "टे": 3176,
      "दिल्ल": 3177,
      "रण": 3178,
      "▁'": 3179,
      "▁we": 3180,
      "▁ro": 3181,
      "▁30": 3182,
      "▁Union": 3183,
      "▁time": 3184,
      "▁[O": 3185,
      "▁[ज": 3186,
      "teen": 3187,
      "\")\n": 3188,
      "](https://en.wikipedia.org/wiki/The": 3189,
      "read": 3190,
      "city": 3191,
      "omin": 3192,
      "ouse": 3193,
      "▁India.": 3194,
      "▁includ": 3195,
      "rah": 3196,
      "rade": 3197,
      "▁summit\")": 3198,
      "▁caste": 3199,
      "ussia": 3200,
      "atus": 3201,
      "▁Ch": 3202,
      "istan": 3203,
      "▁Plate": 3204,
      "illion": 3205,
      "▁war": 3206,
      "▁2012": 3207,
      "▁Times": 3208,
      "olper": 3209,
      "▁*The": 3210,
      "1997": 3211,
      "ंगाल": 3212,
      "_in_S": 3213,
      "▁2025": 3214,
      "▁2022": 3215,
      "▁general": 3216,
      "▁तट": 3217,
      "ड़ी": 3218,
      "▁एवं": 3219,
      ".gov.in/": 3220,
      "▁\"Economy": 3221,
      "](https://en.wikipedia.org/wiki/Economy": 3222,
      "articles": 3223,
      "ivil": 3224,
      "▁स्थ": 3225,
      "ports": 3226,
      "▁वर्ष": 3227,
      "Wikipedia": 3228,
      "AsherTalbot2008": 3229,
      "nown": 3230,
      "श्मीर": 3231,
      "महाद्वीप": 3232,
      "्वतंत्र": 3233,
      "ujarat": 3234,
      ".indiatimes.com/": 3235,
      "olpert": 3236,
      "&s": 3237,
      "*,": 3238,
      "-B": 3239,
      "-23": 3240,
      "/S": 3241,
      "/auth": 3242,
      "2).": 3243,
      "6).": 3244,
      "75": 3245,
      "8-0)": 3246,
      "99": 3247,
      "JP": 3248,
      "UN": 3249,
      "_వ": 3250,
      "_19": 3251,
      "c=": 3252,
      "ebr": 3253,
      "lag": 3254,
      "nam": 3255,
      "rof": 3256,
      "rganisation": 3257,
      "vol": 3258,
      "डी": 3259,
      "णि": 3260,
      "तु": 3261,
      "निक": 3262,
      "ीस": 3263,
      "ैक": 3264,
      "గర": 3265,
      "టక": 3266,
      "టా": 3267,
      "దార": 3268,
      "నీ": 3269,
      "రో": 3270,
      "సభ": 3271,
      "ెద్ద": 3272,
      "▁j": 3273,
      "▁[India": 3274,
      "▁[doi": 3275,
      "enn": 3276,
      "tel": 3277,
      "▁\"సి": 3278,
      "](https://en.wikipedia.org/wiki/O": 3279,
      "ered": 3280,
      "eral_": 3281,
      "arn": 3282,
      "▁|\n\n": 3283,
      "tionary": 3284,
      "thematics": 3285,
      "▁केंद्र": 3286,
      "](https://te.wikipedia.org/wiki/భారత_": 3287,
      "▁incre": 3288,
      "ooperation": 3289,
      "atar": 3290,
      "▁పు": 3291,
      "loy": 3292,
      "▁Pe": 3293,
      "chool": 3294,
      "రాజ్య": 3295,
      "00)": 3296,
      "▁2017": 3297,
      "▁కేంద్రపాలిత": 3298,
      "▁BRICS": 3299,
      "भाग": 3300,
      "_(India)": 3301,
      "▁మా": 3302,
      "](https://mai.wikipedia.org/wiki/म": 3303,
      "-40": 3304,
      "▁చే": 3305,
      "ము\")": 3306,
      "rits": 3307,
      "త్స": 3308,
      "aksh": 3309,
      "▁वा": 3310,
      "▁రాజ్య": 3311,
      "▁group": 3312,
      "వాతంత్ర": 3313,
      "संख्या": 3314,
      "▁దేశాల": 3315,
      "▁\"Doi": 3316,
      "](https://en.wikipedia.org/wiki/Doi": 3317,
      "లాదేశ్": 3318,
      "స్తు": 3319,
      "▁సామ్రాజ్యం](https://te.wikipedia.org/wiki/": 3320,
      "ంగ్లాదేశ్": 3321,
      "▁భాషలు": 3322,
      "_ప్రా": 3323,
      "్రిటి": 3324,
      "▁అధికార": 3325,
      "गुजरात": 3326,
      "ూర్పు": 3327,
      "▁(identifier)\"):[10.": 3328,
      "how/": 3329,
      "కైవు": 3330,
      "ebruary": 3331,
      "▁[doi](https://en.wikipedia.org/wiki/Doi": 3332,
      "▁[doi](https://en.wikipedia.org/wiki/Doi_(identifier)": 3333,
      "-28": 3334,
      "C).": 3335,
      "Craven": 3336,
      "En": 3337,
      "IA": 3338,
      "TR": 3339,
      "_आ": 3340,
      "cat": 3341,
      "cms": 3342,
      "get": 3343,
      "min": 3344,
      "rar": 3345,
      "s-": 3346,
      "war": 3347,
      "way": 3348,
      "yayan": 3349,
      "एँ": 3350,
      "गो": 3351,
      "गोल": 3352,
      "फल": 3353,
      "ोड़": 3354,
      "▁$": 3355,
      "▁छ": 3356,
      "▁ref": 3357,
      "▁und": 3358,
      "▁0.": 3359,
      "▁rate": 3360,
      "▁\"आ": 3361,
      "](https://en.wikipedia.org/wiki/I": 3362,
      "2016": 3363,
      "ict": 3364,
      "▁sup": 3365,
      "▁मार": 3366,
      "▁मूल": 3367,
      "etail": 3368,
      "\\_देश": 3369,
      "▁Sanskrit": 3370,
      "logo": 3371,
      "urn": 3372,
      "istrar": 3373,
      "▁modern": 3374,
      "ung": 3375,
      "▁अरब": 3376,
      "ाला": 3377,
      "▁जो": 3378,
      "al_P": 3379,
      "▁बहु": 3380,
      "▁सेना": 3381,
      "▁one": 3382,
      "▁than": 3383,
      "imalay": 3384,
      "▁War": 3385,
      "▁रह": 3386,
      ".png": 3387,
      "ublishing": 3388,
      "induism": 3389,
      "▁भू": 3390,
      "विश्व": 3391,
      "onstituent": 3392,
      "%2C_": 3393,
      "▁Press](https://en.wikipedia.org/wiki/": 3394,
      "-0-19-9": 3395,
      "ultan": 3396,
      "▁period": 3397,
      "म्बर": 3398,
      "atsyayan": 3399,
      "▁Commissioner": 3400,
      "National_Informatics_Centre": 3401,
      "ainting": 3402,
      "tecture": 3403,
      "_Island": 3404,
      "्यटन": 3405,
      "Harle1994": 3406,
      "slam": 3407,
      "ricket": 3408,
      "lobal": 3409,
      "Craven1997": 3410,
      "National_Informatics_Centre2005": 3411,
      ".b": 3412,
      "124": 3413,
      "2]](https://en.wikipedia.org/wiki/India#cite_note-FOOTNOTE": 3414,
      "32": 3415,
      "5–": 3416,
      "6/": 3417,
      "6-0)": 3418,
      "7/": 3419,
      "86": 3420,
      "BC": 3421,
      "EO": 3422,
      "II": 3423,
      "Main": 3424,
      "WEO": 3425,
      "_f": 3426,
      "ahar": 3427,
      "jan": 3428,
      "minist": 3429,
      "oy": 3430,
      "tb": 3431,
      "tro": 3432,
      "vatsyayan": 3433,
      "yan": 3434,
      "ंस": 3435,
      "इल": 3436,
      "भू": 3437,
      "ल्": 3438,
      "िज": 3439,
      "ीत": 3440,
      "ంజా": 3441,
      "గి": 3442,
      "టీ": 3443,
      "టాన్": 3444,
      "ది.": 3445,
      "మంత్రి": 3446,
      "లను": 3447,
      "వె": 3448,
      "వరణ": 3449,
      "హదార": 3450,
      "ూచ": 3451,
      "▁హ": 3452,
      "▁am": 3453,
      "▁భారతదేశ": 3454,
      "▁emp": 3455,
      "▁end": 3456,
      "tes": 3457,
      "▁\"न": 3458,
      "\");": 3459,
      "errit": 3460,
      "arge": 3461,
      "religion": 3462,
      "omas": 3463,
      "్రమ": 3464,
      "▁(eds.": 3465,
      "astern": 3466,
      "▁सभ": 3467,
      "ical_": 3468,
      "▁such": 3469,
      "inguis": 3470,
      "ammu": 3471,
      "▁Ar": 3472,
      "▁Chin": 3473,
      "\n\nMain": 3474,
      "र्ष": 3475,
      "ilg": 3476,
      "▁अग": 3477,
      "భారతదేశ_": 3478,
      "▁కొ": 3479,
      "ments": 3480,
      "▁వ్యా": 3481,
      "नाथ": 3482,
      "▁later": 3483,
      "▁మత": 3484,
      "▁మతము": 3485,
      "1990": 3486,
      "▁Nations": 3487,
      "](https://mai.wikipedia.org/wiki/ब": 3488,
      "తావరణ": 3489,
      "నాడు": 3490,
      "▁there": 3491,
      "▁northern": 3492,
      "▁February": 3493,
      "imf": 3494,
      "▁art": 3495,
      "osed": 3496,
      "](https://en.wikipedia.org/wiki/South_Asia": 3497,
      "▁उत्तर": 3498,
      "▁[*The": 3499,
      "doc": 3500,
      "▁ఇతర": 3501,
      "ాయి": 3502,
      "_BRICS": 3503,
      "econd": 3504,
      "▁अन्य": 3505,
      "ణాసియా": 3506,
      "athak": 3507,
      "ovember": 3508,
      "duction": 3509,
      "▁million": 3510,
      "र्थिक": 3511,
      "ज्ञा": 3512,
      "టెడ్": 3513,
      "▁ఆర్కైవు": 3514,
      "inistry_of_": 3515,
      "-lord": 3516,
      "▁రైలు": 3517,
      "భూటాన్": 3518,
      "▁classical": 3519,
      "_సామ్రాజ్యం": 3520,
      "langoff": 3521,
      "IMF": 3522,
      "ehru": 3523,
      "వాతంత్ర్య": 3524,
      "vatsyayan-lord": 3525,
      "2–": 3526,
      "4/": 3527,
      "7-0)": 3528,
      "8–": 3529,
      "9-0)": 3530,
      "_for": 3531,
      "cul": 3532,
      "ele": 3533,
      "ealth": 3534,
      "jec": 3535,
      "ning": 3536,
      "oa": 3537,
      "ras": 3538,
      "site": 3539,
      "utt": 3540,
      "var": 3541,
      "wal": 3542,
      "y,": 3543,
      "क्र": 3544,
      "टक": 3545,
      "द्वीप": 3546,
      "धि": 3547,
      "रो": 3548,
      "िस्तान": 3549,
      "ौद्ध": 3550,
      "▁29": 3551,
      "▁[आ": 3552,
      "▁[19": 3553,
      "▁[United": 3554,
      "tex": 3555,
      "than": 3556,
      "ar,": 3557,
      "arly": 3558,
      "alore": 3559,
      "ould": 3560,
      "▁सद": 3561,
      "rac": 3562,
      "▁south": 3563,
      "-00": 3564,
      "right": 3565,
      "uslim": 3566,
      "atak": 3567,
      "-14": 3568,
      "angalore": 3569,
      "urt": 3570,
      "▁Per": 3571,
      "▁1,": 3572,
      "▁14": 3573,
      "_of_S": 3574,
      "rol": 3575,
      "cean": 3576,
      "▁2019.": 3577,
      "▁2018](https://en.wikipedia.org/wiki/India#CITEREF": 3578,
      "olle": 3579,
      "ticle": 3580,
      "26)": 3581,
      "24)": 3582,
      ".com/news/": 3583,
      "▁GDP": 3584,
      "118": 3585,
      "akh": 3586,
      "▁1947": 3587,
      "पुरी": 3588,
      ".jpg)](https://hi.wikipedia.org/wiki/चित्र:": 3589,
      "▁[*India": 3590,
      "म्म": 3591,
      "▁है।\n\n": 3592,
      "owland": 3593,
      ".ph": 3594,
      "ankar": 3595,
      "हाय": 3596,
      "▁2011.\n-": 3597,
      "वंश": 3598,
      "▁union": 3599,
      "rowth": 3600,
      "▁who": 3601,
      "▁जाता": 3602,
      "-in-": 3603,
      "limate": 3604,
      "▁थी": 3605,
      "वेब": 3606,
      "Articles": 3607,
      "द्योगिक": 3608,
      "्वतंत्रता": 3609,
      "erritory": 3610,
      "129": 3611,
      "2,": 3612,
      "3_": 3613,
      "3]](https://en.wikipedia.org/wiki/India#cite_note-FOOTNOTE": 3614,
      "64": 3615,
      "7,": 3616,
      "71": 3617,
      "7_": 3618,
      "Dikshit": 3619,
      "Empire": 3620,
      "European": 3621,
      "LA": 3622,
      "Qu": 3623,
      "Schwartzberg": 3624,
      "_V": 3625,
      "_n": 3626,
      "_प": 3627,
      "_ब": 3628,
      "a-": 3629,
      "aus": 3630,
      "can": 3631,
      "dones": 3632,
      "gram": 3633,
      "lor": 3634,
      "ner": 3635,
      "nal": 3636,
      "ria": 3637,
      "ymbol": 3638,
      "तिक": 3639,
      "पे": 3640,
      "भु": 3641,
      "रवरी": 3642,
      "वार": 3643,
      "ाट": 3644,
      "ोस": 3645,
      "ం.": 3646,
      "ంశ": 3647,
      "ఆర్": 3648,
      "ఉత్తర": 3649,
      "ఒడి": 3650,
      "కీయ": 3651,
      "గలు": 3652,
      "చు": 3653,
      "జరా": 3654,
      "తూర్పు": 3655,
      "భు": 3656,
      "మన్": 3657,
      "యి": 3658,
      "లస": 3659,
      "ీన": 3660,
      "ేక": 3661,
      "▁ई": 3662,
      "▁ऊ": 3663,
      "▁ड": 3664,
      "▁फ": 3665,
      "▁డ": 3666,
      "▁ra": 3667,
      "▁राष्ट्र": 3668,
      "▁జాబితా": 3669,
      "▁high": 3670,
      "▁[m": 3671,
      "▁[భారతదేశ": 3672,
      "▁\"V": 3673,
      "tig": 3674,
      "](https://en.wikipedia.org/wiki/V": 3675,
      "arliament": 3676,
      "esearch": 3677,
      "▁industry": 3678,
      "rative": 3679,
      "ingdom": 3680,
      "राठ": 3681,
      "▁पार्ट": 3682,
      "▁Ac": 3683,
      "▁States": 3684,
      "▁పట్ట": 3685,
      "ర్\")": 3686,
      "▁Pakistan": 3687,
      "▁many": 3688,
      "▁2013": 3689,
      "▁**జాతీయ": 3690,
      "▁British": 3691,
      "विज्ञान": 3692,
      "23)": 3693,
      "నిక": 3694,
      "▁long": 3695,
      "▁large": 3696,
      "ంగ్రె": 3697,
      "▁Economic": 3698,
      "ources": 3699,
      "▁సభ": 3700,
      "1996": 3701,
      "_सा": 3702,
      "_Sh": 3703,
      "తాబ్": 3704,
      "▁2003": 3705,
      "ast_Asia": 3706,
      "▁[\"C": 3707,
      "▁[\"India": 3708,
      "▁ప్రపంచ": 3709,
      "▁ప్రభు": 3710,
      "ड़े": 3711,
      "▁K.": 3712,
      "utra": 3713,
      "▁संविधान": 3714,
      "▁ఆసియా": 3715,
      "]](https://hi.wikipedia.org/wiki/भारत#cite_note-1": 3716,
      "▁original](https://": 3717,
      "▁original](https://www.": 3718,
      "leshow/": 3719,
      "మ్రాజ్య": 3720,
      "ी](https://hi.wikipedia.org/wiki/अ": 3721,
      "▁*[The": 3722,
      "▁ext": 3723,
      "▁rule": 3724,
      "గుజరా": 3725,
      "ikh": 3726,
      "▁సామ్రాజ్యం\")": 3727,
      "...": 3728,
      "▁people": 3729,
      "MetcalfMetcalf2006),": 3730,
      "do-A": 3731,
      "త్యేక": 3732,
      "రాష్ట్రపతి": 3733,
      "ప్ప": 3734,
      "▁కాశ్మీ": 3735,
      "▁రాజవంశం": 3736,
      "▁2021.": 3737,
      "▁చెంద": 3738,
      "▁ఆర్ధిక": 3739,
      "/article": 3740,
      "/articleshow/": 3741,
      "%20%20%20%20": 3742,
      "%E0%A4%B": 3743,
      "▁స్థాన": 3744,
      "ector": 3745,
      "यालय": 3746,
      "▁Environment": 3747,
      "తమిళనాడు": 3748,
      "ప్రధానమంత్రి": 3749,
      "గణతంత్ర": 3750,
      "▁క్రీడ": 3751,
      "_Development": 3752,
      "▁विकास": 3753,
      "▁[↑](https://hi.wikipedia.org/wiki/भारत#cite_ref-1": 3754,
      ".aspx": 3755,
      "censusindia.gov.in/2011census": 3756,
      "ఆఫ్ఘ": 3757,
      "శ్రీలంక": 3758,
      "షియా": 3759,
      "న్‌ఫ": 3760,
      "నేపాల్": 3761,
      "▁చెయ్యబడింది.": 3762,
      "](https://en.wikipedia.org/wiki/Economy_of_": 3763,
      "▁under": 3764,
      "▁among": 3765,
      "▁(eds.).": 3766,
      "inguistic": 3767,
      "DikshitSchwartzberg": 3768,
      "gramme": 3769,
      "తాబ్ద": 3770,
      "DikshitSchwartzberg2023": 3771,
      "\"](https://books.google.com/books?id=": 3772,
      "-25": 3773,
      ".htm": 3774,
      "110": 3775,
      "3/": 3776,
      "55": 3777,
      "545": 3778,
      "6]](https://en.wikipedia.org/wiki/India#cite_note-": 3779,
      "Ludden": 3780,
      "NGDP": 3781,
      "Spear": 3782,
      "_देश": 3783,
      "ck": 3784,
      "d/": 3785,
      "eb": 3786,
      "election": 3787,
      "hind": 3788,
      "languages": 3789,
      "rg": 3790,
      "ura": 3791,
      "west": 3792,
      "गा": 3793,
      "चे": 3794,
      "जान": 3795,
      "डु": 3796,
      "मंत्र": 3797,
      "योग": 3798,
      "ील": 3799,
      "▁/": 3800,
      "▁ट": 3801,
      "▁em": 3802,
      "▁out": 3803,
      "pee": 3804,
      "▁\"India": 3805,
      "▁\"United": 3806,
      "ines": 3807,
      "India_": 3808,
      "arna": 3809,
      "tions": 3810,
      "ed/": 3811,
      "▁(1,": 3812,
      "2017": 3813,
      "▁some": 3814,
      "etary": 3815,
      "▁All": 3816,
      "▁Arab": 3817,
      "▁Afric": 3818,
      "▁CE": 3819,
      "chin": 3820,
      "ild": 3821,
      "▁2011.": 3822,
      "▁Modern": 3823,
      "▁Bank": 3824,
      "नाव": 3825,
      "▁द्वार": 3826,
      "▁land": 3827,
      "▁India\").": 3828,
      "▁General": 3829,
      "_Summit": 3830,
      "ake": 3831,
      "osi": 3832,
      "माज": 3833,
      ".gov/": 3834,
      "▁इतिहास": 3835,
      "ineering": 3836,
      "key": 3837,
      "▁area": 3838,
      "erala": 3839,
      "CS1": 3840,
      "▁क्षेत्र\")": 3841,
      "_New": 3842,
      "सेना": 3843,
      "arket": 3844,
      "▁चु": 3845,
      "्रीका": 3846,
      "hrist": 3847,
      "ुख्य": 3848,
      "ances": 3849,
      "ervation": 3850,
      "▁हुई": 3851,
      "गणना": 3852,
      "ynast": 3853,
      "▁economic": 3854,
      "▁Assembly": 3855,
      "ृष्ठ": 3856,
      "त्पाद": 3857,
      "teenth": 3858,
      "_in_South_Asia": 3859,
      "ast_Asia_Summit": 3860,
      "-of": 3861,
      "-78": 3862,
      ".IN": 3863,
      ".fr": 3864,
      "0)": 3865,
      "6–": 3866,
      "Pro": 3867,
      "Pages": 3868,
      "South": 3869,
      "_J": 3870,
      "_In": 3871,
      "_ప్రదేశ్": 3872,
      "e/": 3873,
      "fgh": 3874,
      "ho": 3875,
      "hal": 3876,
      "ii": 3877,
      "ix": 3878,
      "iri": 3879,
      "k:": 3880,
      "m.nic.in/": 3881,
      "ncl": 3882,
      "olog": 3883,
      "pic": 3884,
      "rdu": 3885,
      "ua": 3886,
      "work": 3887,
      "zation": 3888,
      "खाना": 3889,
      "नगर": 3890,
      "पद": 3891,
      "सभा": 3892,
      "ीब": 3893,
      "०१": 3894,
      "ం,": 3895,
      "ఉప": 3896,
      "కొ": 3897,
      "కేంద్రపాలిత": 3898,
      "జె": 3899,
      "ఢ్": 3900,
      "నాల": 3901,
      "లే": 3902,
      "ళు": 3903,
      "ౌద్ధ": 3904,
      "▁ओ": 3905,
      "▁he": 3906,
      "▁భా": 3907,
      "▁imp": 3908,
      "dian": 3909,
      "▁[V": 3910,
      "▁[पु": 3911,
      "▁[వి": 3912,
      "▁\"ज": 3913,
      "▁\"Oxford": 3914,
      "inance": 3915,
      "tition": 3916,
      "ally": 3917,
      "](https://hi.wikipedia.org/wiki/इ": 3918,
      "itary": 3919,
      "▁(*": 3920,
      "▁सु": 3921,
      "ictionary": 3922,
      "▁social": 3923,
      "्यान": 3924,
      "▁महासागर": 3925,
      "ాలీ": 3926,
      "\\_अ": 3927,
      "\\_प": 3928,
      "▁Al": 3929,
      "-111": 3930,
      "्ता:": 3931,
      "ర్చ": 3932,
      "▁minister": 3933,
      "ility": 3934,
      "state": 3935,
      "003": 3936,
      "▁2015": 3937,
      "▁Min": 3938,
      "▁total": 3939,
      "िया](https://mai.wikipedia.org/wiki/": 3940,
      "resident": 3941,
      "ాలు?action=edit&redlink=1": 3942,
      "▁दृ": 3943,
      "▁दिया": 3944,
      "pecial:EditPage/": 3945,
      "▁प्रमुख": 3946,
      "▁her": 3947,
      "▁बढ़": 3948,
      "▁Nadu": 3949,
      "-317": 3950,
      "▁2004": 3951,
      "–సా.శ.18": 3952,
      "▁అత్య": 3953,
      "ains": 3954,
      "ainism": 3955,
      "▁article": 3956,
      "▁[Asher": 3957,
      "▁Language": 3958,
      "▁Kashmir": 3959,
      "▁एशिया": 3960,
      "▁ఆధ": 3961,
      "ffer": 3962,
      "ffice": 3963,
      "మాఖ్య": 3964,
      "వాణా": 3965,
      "overe": 3966,
      "ligence": 3967,
      "ంటి": 3968,
      "▁depend": 3969,
      "ंग्रेजी": 3970,
      "▁\"National": 3971,
      "డ్డ": 3972,
      "▁జనాభా": 3973,
      "_pro": 3974,
      "దక్షిణాసియా": 3975,
      "▁maj": 3976,
      "▁గల": 3977,
      "▁3,": 3978,
      "▁భారతదేశంలో": 3979,
      "ంగ్లీ": 3980,
      "स्कृति": 3981,
      "యునై": 3982,
      "ష్ణ": 3983,
      "meric": 3984,
      "pura": 3985,
      "▁2021.\n": 3986,
      "_చరిత్ర?action=edit&redlink=1": 3987,
      "▁हुआ": 3988,
      "फ़रवरी": 3989,
      "▁territory": 3990,
      "▁రాష్ట్రాలు,": 3991,
      "ंबई": 3992,
      "▁उपमहाद्वीप": 3993,
      "_మతము": 3994,
      "▁प्राप्त": 3995,
      "▁खाना\")": 3996,
      "-language\\_": 3997,
      "▁మొద": 3998,
      "देव": 3999,
      "union_territ": 4000,
      "-to-": 4001,
      "र्दू": 4002,
      "▁लिए": 4003,
      "telligence": 4004,
      "arnatak": 4005,
      "WEO.IN": 4006,
      "▁अगस्त": 4007,
      "IMFWEO.IN": 4008,
      "urton": 4009,
      "Spear1990": 4010,
      "fghan": 4011,
      "nclm.nic.in/": 4012,
      "pecial:EditPage/Template:": 4013,
      "యునైటెడ్": 4014,
      "127": 4015,
      "300": 4016,
      "94": 4017,
      "98": 4018,
      "Ag": 4019,
      "Ch": 4020,
      "UCN": 4021,
      "_2": 4022,
      "_4": 4023,
      "a.": 4024,
      "az": 4025,
      "len": 4026,
      "les/": 4027,
      "owe": 4028,
      "press": 4029,
      "yle": 4030,
      "ंति": 4031,
      "काल": 4032,
      "गान": 4033,
      "त्व": 4034,
      "न](https://hi.wikipedia.org/wiki/": 4035,
      "रेल": 4036,
      "लयाल": 4037,
      "स\")": 4038,
      "ाम": 4039,
      "िख": 4040,
      "िज़": 4041,
      "ूर्": 4042,
      "▁ci": 4043,
      "▁2.": 4044,
      "▁oc": 4045,
      "▁history": 4046,
      "▁term": 4047,
      "orest": 4048,
      "▁[ओ": 4049,
      "▁[Oxford": 4050,
      "▁\"[": 4051,
      "▁\"ओ": 4052,
      "tice": 4053,
      "ominal": 4054,
      "▁they": 4055,
      "▁(2018": 4056,
      "1970": 4057,
      "▁since": 4058,
      "ety": 4059,
      "etra": 4060,
      "\\_articles": 4061,
      "▁Cons": 4062,
      "-16": 4063,
      "▁Se": 4064,
      "▁SAARC": 4065,
      "▁found": 4066,
      "ada": 4067,
      "▁both": 4068,
      "▁trans": 4069,
      "url": 4070,
      "urban": 4071,
      "ulti": 4072,
      "ournal": 4073,
      "tical_": 4074,
      "▁R.": 4075,
      "▁Raj": 4076,
      "ight": 4077,
      "25)": 4078,
      "▁जून": 4079,
      "▁दिस": 4080,
      "109": 4081,
      "▁largest": 4082,
      "▁India\")\n\n": 4083,
      "industry": 4084,
      "राजस्थान": 4085,
      "ayback": 4086,
      "india-g": 4087,
      "ताज": 4088,
      "ताब्": 4089,
      "▁बा": 4090,
      "upta": 4091,
      "28)": 4092,
      "-30": 4093,
      "verse": 4094,
      "▁2026": 4095,
      "▁2005": 4096,
      "▁Fr": 4097,
      "▁...": 4098,
      "epart": 4099,
      "](https://en.wikipedia.org/wiki/South": 4100,
      "▁संसद": 4101,
      "own": 4102,
      "त्तरा": 4103,
      "riculture": 4104,
      "जाति": 4105,
      "-108": 4106,
      "धानमंत्र": 4107,
      "-0-19-5": 4108,
      "endra": 4109,
      "-pro": 4110,
      "reek": 4111,
      "▁\"History": 4112,
      "\"](https://web.archive.org/web/20160": 4113,
      "qual": 4114,
      "](https://en.wikipedia.org/wiki/History": 4115,
      "ohn": 4116,
      "rown": 4117,
      "ography": 4118,
      "▁left": 4119,
      ".svg/": 4120,
      "-0-521-80": 4121,
      "ैदान": 4122,
      "▁Islands": 4123,
      "▁play": 4124,
      "▁used": 4125,
      "ोर्ड": 4126,
      "▁world's": 4127,
      "माणु": 4128,
      ".svg.png": 4129,
      "KulkeRothermund2004": 4130,
      "▁estim": 4131,
      "apita": 4132,
      "-0-19-88": 4133,
      "ustralia": 4134,
      "श्रील": 4135,
      "▁2006](https://en.wikipedia.org/wiki/India#CITEREFMetcalfMetcalf2006),": 4136,
      "904-7": 4137,
      "म्मू": 4138,
      "▁article:": 4139,
      "▁occ": 4140,
      "▁दिसम्बर": 4141,
      "epartment": 4142,
      "-0-521-80904-7": 4143,
      "119": 4144,
      "5/": 4145,
      "68": 4146,
      "6]](https://en.wikipedia.org/wiki/India#cite_note-FOOTNOTE": 4147,
      "9).": 4148,
      ":EditPage/": 4149,
      "Library": 4150,
      "Robb": 4151,
      "Sharma": 4152,
      "Un": 4153,
      "Wolpert": 4154,
      "_న": 4155,
      "_13": 4156,
      "ao": 4157,
      "bank": 4158,
      "cess": 4159,
      "detail": 4160,
      "each": 4161,
      "itt": 4162,
      "ili": 4163,
      "ihar": 4164,
      "jpg": 4165,
      "kar": 4166,
      "lack": 4167,
      "ris": 4168,
      "ser": 4169,
      "stitu": 4170,
      "इन": 4171,
      "कल": 4172,
      "को": 4173,
      "क_स": 4174,
      "टान": 4175,
      "तन्त्र": 4176,
      "ी.": 4177,
      "ेस": 4178,
      "ैल": 4179,
      "ैंड": 4180,
      "ఖండ": 4181,
      "టిక": 4182,
      "డే": 4183,
      "ద్య": 4184,
      "మార్": 4185,
      "మాలయ": 4186,
      "లలో": 4187,
      "లకు": 4188,
      "ళ్": 4189,
      "వ](https://te.wikipedia.org/wiki/": 4190,
      "ానికి": 4191,
      "ాళు": 4192,
      "ీర్": 4193,
      "▁భ": 4194,
      "▁50": 4195,
      "▁యు": 4196,
      "▁फ़रवरी": 4197,
      "](Category:": 4198,
      "▁\"వి": 4199,
      "\")[[": 4200,
      "ins": 4201,
      "ancy": 4202,
      "20)": 4203,
      "them": 4204,
      "▁क्र": 4205,
      "](https://hi.wikipedia.org/wiki/सं": 4206,
      "its": 4207,
      "▁(India": 4208,
      "▁India*](https://books.google.com/books?id=": 4209,
      "lem": 4210,
      "rature": 4211,
      "▁sp": 4212,
      "ాలో": 4213,
      "▁power": 4214,
      "ing_": 4215,
      "inger": 4216,
      "▁पह": 4217,
      "▁Company": 4218,
      "స్వ": 4219,
      "స్లా": 4220,
      "▁Summit\")": 4221,
      "▁పాల": 4222,
      "vel": 4223,
      "र्ज": 4224,
      "र्स": 4225,
      "र्जा": 4226,
      "న్\")": 4227,
      "](https://hi.wikipedia.org/wiki/भारतीय": 4228,
      "ISO": 4229,
      "road": 4230,
      "▁member": 4231,
      "states": 4232,
      "217": 4233,
      "▁Mon": 4234,
      "▁కార": 4235,
      "▁కలి": 4236,
      "ాలు\n\n": 4237,
      "▁Bengal": 4238,
      "రిహ": 4239,
      "రికత": 4240,
      "emale": 4241,
      "క్నాల": 4242,
      "నిమా": 4243,
      "254": 4244,
      "▁Delhi": 4245,
      "▁సంగీతం": 4246,
      "▁बना": 4247,
      "▁Gandhi": 4248,
      "ryan": 4249,
      "▁చి": 4250,
      "▁north": 4251,
      "ులు\"),": 4252,
      "–సా.శ.13": 4253,
      "▁అయ": 4254,
      "epal": 4255,
      "▁ప్రధాన": 4256,
      "▁\"Category:": 4257,
      "harm": 4258,
      "ప్రదాయ": 4259,
      "ప్రత్యేక": 4260,
      "ద్వీ": 4261,
      "▁ఉప": 4262,
      "def": 4263,
      "▁రె": 4264,
      "▁began": 4265,
      "న్నడ": 4266,
      "र्वत": 4267,
      "ంటు": 4268,
      "ock": 4269,
      "पात": 4270,
      "ंडिया": 4271,
      "▁దేశంలో": 4272,
      "ాయి.": 4273,
      "ीपी": 4274,
      "viol": 4275,
      "uddhism": 4276,
      "engali": 4277,
      "ibet": 4278,
      "కాశ్మీ": 4279,
      "ultural": 4280,
      "ంధు": 4281,
      "ingham": 4282,
      "వర్గం:Harv": 4283,
      "ద్ధం": 4284,
      "ద్ధి": 4285,
      "ాల్దీవ": 4286,
      "చ్చే": 4287,
      "ducation": 4288,
      "దక్షిణ_": 4289,
      "Oxford_University_Press": 4290,
      "▁కాంగ్రె": 4291,
      "Stein2010),": 4292,
      "-india-": 4293,
      "టెక్నాల": 4294,
      "హిమాలయ": 4295,
      "एसिया": 4296,
      "actbook": 4297,
      "▁Empire\")": 4298,
      "orities": 4299,
      "धिकारिक": 4300,
      "▁లే": 4301,
      "త్తరా": 4302,
      "నాగరికత": 4303,
      "_at_the": 4304,
      "క్కువ": 4305,
      "esert": 4306,
      "▁गणराज्य": 4307,
      "▁शासन": 4308,
      "క్‌సభ": 4309,
      "▁శాస్త్ర": 4310,
      "▁Act,": 4311,
      "▁हिन्दी": 4312,
      "हीं": 4313,
      "formation": 4314,
      "र्भर": 4315,
      "ెలుగు": 4316,
      "▁2010](https://en.wikipedia.org/wiki/India#CITEREFStein2010),": 4317,
      "▁వచ్చింది.": 4318,
      "_ప్రాంత": 4319,
      "▁मार्च": 4320,
      "▁Press](https://en.wikipedia.org/wiki/Oxford_University_Press": 4321,
      "ultanate": 4322,
      "ministrative": 4323,
      "yanmar": 4324,
      "वेबैक": 4325,
      "rgani": 4326,
      "▁द्वारा": 4327,
      "ृष्ठसभ": 4328,
      "Pages\\_": 4329,
      "\\_पृष्ठसभ": 4330,
      "ర్చ:": 4331,
      "Spear199024": 4332,
      ":EditPage/మూస:": 4333,
      "ాళుక్య": 4334,
      "ప్రత్యేక:EditPage/మూస:": 4335,
      "టెక్నాలజీ": 4336,
      "\"[[": 4337,
      "-प": 4338,
      "1-1": 4339,
      "219": 4340,
      "318": 4341,
      "3TR": 4342,
      "Congress": 4343,
      "IB": 4344,
      "_न": 4345,
      "_en": 4346,
      "dr": 4347,
      "eval": 4348,
      "i,": 4349,
      "ie": 4350,
      "ities": 4351,
      "jo": 4352,
      "lance": 4353,
      "nominal": 4354,
      "pres": 4355,
      "rd": 4356,
      "t-": 4357,
      "uth": 4358,
      "vid": 4359,
      "ving": 4360,
      "ंट": 4361,
      "उप": 4362,
      "खंड": 4363,
      "खण्ड": 4364,
      "दि": 4365,
      "मिक": 4366,
      "रू": 4367,
      "व्यवस्था": 4368,
      "हरा": 4369,
      "िला": 4370,
      "ुरु": 4371,
      "ुंबई": 4372,
      "ोम": 4373,
      "ौर": 4374,
      "ौद्योगिक": 4375,
      "▁या": 4376,
      "orical": 4377,
      "▁[c": 4378,
      "anor": 4379,
      "thnic": 4380,
      "eries": 4381,
      "arl": 4382,
      "aro": 4383,
      "aran": 4384,
      "aldi": 4385,
      "estic": 4386,
      "hief": 4387,
      "reme": 4388,
      "cip": 4389,
      "▁(20": 4390,
      "as,": 4391,
      "asing": 4392,
      "▁सभा": 4393,
      "▁संग": 4394,
      "lect": 4395,
      "rain": 4396,
      "entr": 4397,
      "▁co": 4398,
      "▁country": 4399,
      "ams": 4400,
      "ament": 4401,
      "ata_": 4402,
      "\\_स": 4403,
      "▁Affairs": 4404,
      "▁C.": 4405,
      "▁Science": 4406,
      "los": 4407,
      "lowing": 4408,
      "र्ग": 4409,
      "urch": 4410,
      "▁Pl": 4411,
      "▁mi": 4412,
      "▁made": 4413,
      "िक्क": 4414,
      "onsoon": 4415,
      "21)": 4416,
      "▁app": 4417,
      "emon": 4418,
      "▁जल": 4419,
      "▁D.": 4420,
      "▁Di": 4421,
      "नाडु": 4422,
      "▁दर": 4423,
      "▁द्वीप": 4424,
      "त्रि": 4425,
      "ly,": 4426,
      "▁प्रति": 4427,
      "स्त्र": 4428,
      "▁relations": 4429,
      "ubcontinent": 4430,
      "akhand": 4431,
      "22)": 4432,
      "▁Fund": 4433,
      "avy": 4434,
      "otals": 4435,
      "](https://hi.wikipedia.org/wiki/भारत#cite_ref-FOOTNOTE": 4436,
      "_Delhi": 4437,
      "त्तरी": 4438,
      "ommonwealth": 4439,
      "order": 4440,
      "▁हैं,": 4441,
      "▁Valley": 4442,
      "पर्यटन": 4443,
      "olitical_": 4444,
      "▁[National": 4445,
      "rough": 4446,
      "ivis": 4447,
      "](https://en.wikipedia.org/wiki/List_of_countries_by": 4448,
      "दीव": 4449,
      "_East_Asia_Summit": 4450,
      "पालिका": 4451,
      "/cb": 4452,
      "AARC_summit": 4453,
      "▁lead": 4454,
      "▁इसके": 4455,
      "-largest": 4456,
      "edieval": 4457,
      "duct": 4458,
      "▁निर्": 4459,
      "maputra": 4460,
      "flu": 4461,
      "▁York": 4462,
      "▁कार्य": 4463,
      "▁सिनेमा": 4464,
      "rishn": 4465,
      "▁prime": 4466,
      "िक्षा": 4467,
      "emocracy": 4468,
      "rahmaputra": 4469,
      "do-Aryan": 4470,
      "india-glance": 4471,
      "quality": 4472,
      "▁(India)\")": 4473,
      "rganization": 4474,
      "3TRt": 4475,
      "nominal)": 4476,
      "aldives": 4477,
      "िक्किम": 4478,
      ",NGDP": 4479,
      ".పూ.": 4480,
      ".world": 4481,
      "/P": 4482,
      "2%": 4483,
      "3),": 4484,
      "5%": 4485,
      "54": 4486,
      "63": 4487,
      "7]](https://en.wikipedia.org/wiki/India#cite_note-FOOTNOTE": 4488,
      "9,": 4489,
      "91": 4490,
      "DD": 4491,
      "RL": 4492,
      "Report": 4493,
      "Rowland": 4494,
      "Taj": 4495,
      "_इ": 4496,
      "_11": 4497,
      "af": 4498,
      "aury": 4499,
      "be": 4500,
      "britannica": 4501,
      "garh": 4502,
      "hat": 4503,
      "iz": 4504,
      "ject": 4505,
      "known": 4506,
      "ling": 4507,
      "mal": 4508,
      "nf": 4509,
      "sur": 4510,
      "ward": 4511,
      "ym": 4512,
      "इप्र": 4513,
      "छि": 4514,
      "थिल": 4515,
      "दार": 4516,
      "नु": 4517,
      "बा": 4518,
      "वास": 4519,
      "शक": 4520,
      "ैथिल": 4521,
      "ంతం": 4522,
      "ఆగ": 4523,
      "కళ": 4524,
      "ఖండ్": 4525,
      "గం": 4526,
      "గ్": 4527,
      "గిన": 4528,
      "గఢ్": 4529,
      "జో": 4530,
      "ట్ర": 4531,
      "తెలుగు": 4532,
      "ద్రా": 4533,
      "పద": 4534,
      "భి": 4535,
      "యో": 4536,
      "లక్ష": 4537,
      "వర": 4538,
      "శో": 4539,
      "షా": 4540,
      "హు": 4541,
      "హార్": 4542,
      "హాయ": 4543,
      "ాష్ట్ర": 4544,
      "ీక": 4545,
      "ీహార్": 4546,
      "ుల": 4547,
      "ుల్": 4548,
      "ోల్": 4549,
      "ోత్స": 4550,
      "ౌర్య": 4551,
      "▁his": 4552,
      "▁ed.).": 4553,
      "oral": 4554,
      "▁[p": 4555,
      "▁[హ": 4556,
      "▁[सा": 4557,
      "▁[दक्षिण": 4558,
      "▁\"ल": 4559,
      "▁\"ह": 4560,
      "▁\"హ": 4561,
      "▁\"दक्षिण": 4562,
      "▁\"ఢిల్లీ": 4563,
      "on,": 4564,
      "aries": 4565,
      "208": 4566,
      "ess/": 4567,
      "ret": 4568,
      "isc": 4569,
      "▁कुल": 4570,
      "్రూ": 4571,
      "itz": 4572,
      "](https://te.wikipedia.org/wiki/సి": 4573,
      "2015": 4574,
      "icon": 4575,
      "leg": 4576,
      "radition": 4577,
      "▁sh": 4578,
      "▁मुख्य": 4579,
      "ాలా": 4580,
      "ాలలో": 4581,
      "-0-4": 4582,
      "rig": 4583,
      "rim": 4584,
      "్యం": 4585,
      "▁पश्चिम": 4586,
      "▁Con": 4587,
      "▁Centre": 4588,
      "▁Sec": 4589,
      "ర్ణా": 4590,
      "ర్మే": 4591,
      "ists": 4592,
      "▁Publishing": 4593,
      "▁11": 4594,
      "▁mar": 4595,
      "▁movement": 4596,
      "లు\")": 4597,
      "▁अछि": 4598,
      "▁Tamil": 4599,
      "olon": 4600,
      "▁River": 4601,
      "▁Republic": 4602,
      "లోక్‌సభ": 4603,
      "identifiers": 4604,
      "ంది": 4605,
      "▁వంశ": 4606,
      "▁Data": 4607,
      "▁David": 4608,
      "▁दो": 4609,
      "sian": 4610,
      "aylor": 4611,
      "▁Ex": 4612,
      "al_in": 4613,
      "ounci": 4614,
      "▁Ge": 4615,
      "▁Himalay": 4616,
      "ండర్": 4617,
      "force": 4618,
      "-3)": 4619,
      "abha": 4620,
      "asting": 4621,
      "త్మా": 4622,
      "▁वार": 4623,
      "▁non-": 4624,
      ".[[3": 4625,
      "2905": 4626,
      "▁అతి": 4627,
      "udi": 4628,
      "ికి": 4629,
      "imach": 4630,
      "▁gre": 4631,
      "▁गा": 4632,
      "▁Official": 4633,
      "▁Wiki": 4634,
      "ద్దు": 4635,
      "प्रा": 4636,
      "▁రహదార": 4637,
      "మాచల్": 4638,
      "▁సామ్రాజ్య": 4639,
      "▁शा": 4640,
      "▁शताब्": 4641,
      "overty": 4642,
      "రువా": 4643,
      "రుణా": 4644,
      "िये": 4645,
      "న్నో": 4646,
      "▁status": 4647,
      "మిజో": 4648,
      "▁ఇది": 4649,
      "achine": 4650,
      "_and_depend": 4651,
      "ंग्रेस": 4652,
      "ृत्य": 4653,
      "▁జరి": 4654,
      "▁విస్త": 4655,
      "operation": 4656,
      "▁శతాబ్ద": 4657,
      "ట్టు": 4658,
      "do-P": 4659,
      "timesofindia": 4660,
      "రాష్ట్రాలు": 4661,
      "▁tex": 4662,
      "ूनिव": 4663,
      "వేద": 4664,
      "▁రాజకీయ": 4665,
      "62-2": 4666,
      "olden": 4667,
      "▁ప్రాంతాలు": 4668,
      "visions": 4669,
      "usiness/": 4670,
      "ूरो": 4671,
      "హిమాచల్": 4672,
      "ship": 4673,
      "హాత్మా": 4674,
      "वीं": 4675,
      "int:": 4676,
      "▁ప్రదేశ్\")": 4677,
      "](https://hi.wikipedia.org/wiki/भारत_की_": 4678,
      "హారాష్ట్ర": 4679,
      "శాస్త్ర": 4680,
      "రాజస్థాన్": 4681,
      "▁వాతావరణ": 4682,
      "_संघ": 4683,
      "దినోత్స": 4684,
      "బెంగాలీ": 4685,
      "-107-111": 4686,
      "तेलु": 4687,
      "యన్మార్": 4688,
      "▁ముఖ్య": 4689,
      "fication": 4690,
      "industan": 4691,
      "▁युद्ध": 4692,
      "▁न्यायालय": 4693,
      "ociety": 4694,
      "▁\"हिन्दी\")": 4695,
      "JPG": 4696,
      "ంజాబ్": 4697,
      "▁వ్యాస": 4698,
      "हायता": 4699,
      "donesia": 4700,
      "గుజరాత్": 4701,
      "ఆఫ్ఘనిస్తాన్": 4702,
      "న్‌ఫర్మే": 4703,
      "▁[पुरालेखित": 4704,
      "धानमंत्री": 4705,
      "-0-19-882905": 4706,
      "Wolpert2003": 4707,
      "వ](https://te.wikipedia.org/wiki/List_of_": 4708,
      "రిహద్దు": 4709,
      "చ్చేరి": 4710,
      "Pages\\_us": 4711,
      "Rowland1970": 4712,
      "britannica.com/": 4713,
      "ర్ణాటక": 4714,
      "రుణాచల్": 4715,
      "timesofindia.indiatimes.com/": 4716,
      "-107-11162-2": 4717,
      "న్‌ఫర్మేషన్": 4718,
      "-0-19-882905-8": 4719,
      "-C": 4720,
      "-n": 4721,
      "-and": 4722,
      "-50": 4723,
      "-on-": 4724,
      ".ni": 4725,
      "/files/": 4726,
      "1-0": 4727,
      "130": 4728,
      "2]](https://en.wikipedia.org/wiki/India#cite_note-": 4729,
      "5).": 4730,
      "5]](https://en.wikipedia.org/wiki/India#cite_note-FOOTNOTE": 4731,
      "Ethnologue": 4732,
      "S.": 4733,
      "_0": 4734,
      "_with": 4735,
      "ate_": 4736,
      "ey": 4737,
      "ez": 4738,
      "eligion": 4739,
      "fob": 4740,
      "ime": 4741,
      "ks": 4742,
      "lurton": 4743,
      "ox": 4744,
      "ots": 4745,
      "public": 4746,
      "que": 4747,
      "rid": 4748,
      "rial": 4749,
      "rust": 4750,
      "s18": 4751,
      "s_of_India": 4752,
      "ंका": 4753,
      "एशिया": 4754,
      "गंगा": 4755,
      "धन": 4756,
      "नान": 4757,
      "नुसार": 4758,
      "पान": 4759,
      "फ्रीका": 4760,
      "भो": 4761,
      "शा": 4762,
      "ीमा": 4763,
      "ूह": 4764,
      "ोष": 4765,
      "१९": 4766,
      "▁—": 4767,
      "▁lo": 4768,
      "▁ले": 4769,
      "▁urban": 4770,
      "ortheast": 4771,
      ".org": 4772,
      "▁[4": 4773,
      "▁[ह": 4774,
      "ency": 4775,
      "▁\"19": 4776,
      "onom": 4777,
      "](https://en.wikipedia.org/wiki/United": 4778,
      "erry": 4779,
      "ara": 4780,
      "aria": 4781,
      "arath": 4782,
      "](https://hi.wikipedia.org/wiki/आ": 4783,
      "](https://hi.wikipedia.org/wiki/ल": 4784,
      "educ": 4785,
      "▁them": 4786,
      "icha": 4787,
      "icob": 4788,
      "▁India](https://en.wikipedia.org/wiki/G": 4789,
      "▁influ": 4790,
      "rat": 4791,
      "ravi": 4792,
      "▁summit": 4793,
      "▁pre": 4794,
      "▁painting": 4795,
      "-06": 4796,
      "राबाद": 4797,
      "ature": 4798,
      "▁S.": 4799,
      "\n\n|": 4800,
      "▁billion": 4801,
      "lief": 4802,
      "र्ना": 4803,
      "▁P.": 4804,
      "▁12": 4805,
      "▁western": 4806,
      "▁dire": 4807,
      "▁अव": 4808,
      "▁अप्र": 4809,
      "▁अधिकार": 4810,
      "▁Territory": 4811,
      "▁Be": 4812,
      "nium": 4813,
      "_का": 4814,
      "▁eastern": 4815,
      "▁नी": 4816,
      "elang": 4817,
      "▁आधिकारिक": 4818,
      "▁new": 4819,
      "▁J.": 4820,
      "▁Incre": 4821,
      "uduch": 4822,
      "स्थ": 4823,
      "160": 4824,
      "▁Lank": 4825,
      "-90": 4826,
      "▁Kingdom": 4827,
      "apan": 4828,
      "avi": 4829,
      "हिमा": 4830,
      "▁संबंध": 4831,
      "▁संस्कृति": 4832,
      "▁[↑](https://en.wikipedia.org/wiki/India#cite_ref-FOOTNOTEMetcalfMetcalf2006": 4833,
      "ummer": 4834,
      "ternal": 4835,
      "ternational_": 4836,
      "▁भाषाओं": 4837,
      "त्तीस": 4838,
      "र्वो": 4839,
      "_Temple": 4840,
      "िस्ट": 4841,
      "34)": 4842,
      "िरपे": 4843,
      "▁अन्त": 4844,
      "वायु": 4845,
      "ikkim": 4846,
      "▁करने": 4847,
      "▁life": 4848,
      "general_": 4849,
      "▁जनगणना": 4850,
      "मेर": 4851,
      "▁स्था": 4852,
      "▁contrib": 4853,
      "▁मेला\")": 4854,
      "▁हुए": 4855,
      "करण": 4856,
      "ैदराबाद": 4857,
      "_Indian_general_": 4858,
      "▁Islands\")": 4859,
      "pringer": 4860,
      "](https://hi.wikipedia.org/wiki/भारत_का_": 4861,
      "▁dispu": 4862,
      "cript": 4863,
      ".html)": 4864,
      "%7C": 4865,
      "%7c": 4866,
      "भीम": 4867,
      "pectancy": 4868,
      "▁[हिन्दी](https://hi.wikipedia.org/wiki/": 4869,
      "cording": 4870,
      "Wikipedia\\_articles": 4871,
      "rofile": 4872,
      "volution": 4873,
      "▁employ": 4874,
      "document": 4875,
      "धिराज्य": 4876,
      "ymbols": 4877,
      ".aspx?": 4878,
      "ildlife": 4879,
      "fferent": 4880,
      ".svg.png)": 4881,
      "3TRtDwAAQBAJ&pg=PA": 4882,
      "education": 4883,
      "ichael": 4884,
      "र्नाटक": 4885,
      "uducherry": 4886,
      "िरपेक्ष": 4887,
      "_Indian_general_election": 4888,
      "-29": 4889,
      "-with": 4890,
      "/D": 4891,
      "/ark": 4892,
      "1200": 4893,
      "122": 4894,
      "2-4": 4895,
      "3,": 4896,
      "3-8": 4897,
      "52": 4898,
      "53": 4899,
      "577": 4900,
      ":**": 4901,
      "B0%": 4902,
      "CL": 4903,
      "C-0": 4904,
      "IJ": 4905,
      "New": 4906,
      "QAAQBAJ&pg=PA": 4907,
      "SAARC_summit": 4908,
      "_9": 4909,
      "_व": 4910,
      "_on": 4911,
      "_languages": 4912,
      "aut": 4913,
      "bc": 4914,
      "gra": 4915,
      "glia": 4916,
      "hra": 4917,
      "lood": 4918,
      "m2": 4919,
      "oard": 4920,
      "tl": 4921,
      "yy": 4922,
      "yam": 4923,
      "ंह": 4924,
      "क\\_पृष्ठसभ": 4925,
      "गल": 4926,
      "गू": 4927,
      "झार": 4928,
      "तट": 4929,
      "फा": 4930,
      "हन": 4931,
      "हरी": 4932,
      "ाटी": 4933,
      "िहार": 4934,
      "ौक्स": 4935,
      "८५": 4936,
      "ంతి": 4937,
      "కాల": 4938,
      "కారం": 4939,
      "ఖ్": 4940,
      "గంగా": 4941,
      "టో": 4942,
      "డిన": 4943,
      "తీ": 4944,
      "ధి": 4945,
      "ధించ": 4946,
      "నల్": 4947,
      "మన": 4948,
      "మర": 4949,
      "ర్యా": 4950,
      "లం": 4951,
      "లతో": 4952,
      "లమె": 4953,
      "ీస్": 4954,
      "ూప": 4955,
      "ూరు": 4956,
      "ెనీ": 4957,
      "ౌక": 4958,
      "▁ऑ": 4959,
      "▁ద": 4960,
      "▁ఫ": 4961,
      "▁im": 4962,
      "▁लेख": 4963,
      "▁దక్షిణ": 4964,
      "▁హిందూ": 4965,
      "▁గాంధీ": 4966,
      "iam": 4967,
      "ors": 4968,
      "orce": 4969,
      ":/121": 4970,
      "▁[U": 4971,
      "▁[च": 4972,
      "▁[భారతదేశం": 4973,
      "▁[ఢిల్లీ": 4974,
      "▁[पाकिस्तान": 4975,
      "▁\"पाकिस्तान": 4976,
      "erg": 4977,
      "arli": 4978,
      "ared/": 4979,
      "arendra": 4980,
      "esti": 4981,
      "reed": 4982,
      "ार्क": 4983,
      "](https://hi.wikipedia.org/wiki/ओ": 4984,
      "▁(2006": 4985,
      "ారస": 4986,
      "ootb": 4987,
      "raz": 4988,
      "▁second": 4989,
      "▁मो": 4990,
      "ాలను": 4991,
      "-07": 4992,
      "▁culture": 4993,
      "रान": 4994,
      "\\_मा": 4995,
      "\\_cont": 4996,
      "\\_identifiers": 4997,
      "ages/": 4998,
      "agari": 4999,
      "-135": 5000,
      "స్](https://te.wikipedia.org/wiki/": 5001,
      "▁far": 5002,
      "▁పెద్ద": 5003,
      "adwe": 5004,
      "lopedia": 5005,
      "र्क": 5006,
      "ర్లు": 5007,
      "▁Public": 5008,
      "▁केन्द्र": 5009,
      "ver,": 5010,
      "▁ही": 5011,
      "▁होत": 5012,
      "ular": 5013,
      "uled": 5014,
      "linkim": 5015,
      "hell": 5016,
      "FOOTNOTENational_Informatics_Centre2005": 5017,
      "▁women": 5018,
      "00–సా.శ.పూ.": 5019,
      "ource": 5020,
      "▁अर्थ": 5021,
      ".\n13": 5022,
      "ियां": 5023,
      "न्स": 5024,
      "ाले": 5025,
      "▁వే": 5026,
      "253": 5027,
      "ecu": 5028,
      "▁Gu": 5029,
      "▁Government": 5030,
      "▁November": 5031,
      "▁Nehru": 5032,
      "▁नद": 5033,
      "▁नहीं": 5034,
      "](https://mai.wikipedia.org/wiki/क": 5035,
      "](https://mai.wikipedia.org/wiki/स": 5036,
      "shared/": 5037,
      "▁से](http://www.": 5038,
      "_Ass": 5039,
      "_Affairs": 5040,
      "न्दोल": 5041,
      "architecture": 5042,
      "▁\"भारतक": 5043,
      "త్తం": 5044,
      "▁(సా.శ.15": 5045,
      "▁(సా.శ.13": 5046,
      "▁1960": 5047,
      "▁From": 5048,
      "▁అనే": 5049,
      "▁Indus": 5050,
      "▁forest": 5051,
      "▁[\"A": 5052,
      "▁[\"The": 5053,
      "▁ప్రజ": 5054,
      "407": 5055,
      "पुरा": 5056,
      "स्ला": 5057,
      "తం\")": 5058,
      "](https://web.archive.org/web/200": 5059,
      "hap": 5060,
      "ంచి": 5061,
      "_Pro": 5062,
      "▁उद्य": 5063,
      "aves": 5064,
      ".gov.in": 5065,
      "▁ఆఫ్": 5066,
      "dex": 5067,
      "▁సాం": 5068,
      "▁[Ministry": 5069,
      "▁है।[[": 5070,
      "ార్లమె": 5071,
      "▁\"British": 5072,
      "▁रहा": 5073,
      "undament": 5074,
      "arty": 5075,
      "ogue": 5076,
      "కిస్థాన్": 5077,
      "ssam": 5078,
      "oreign": 5079,
      "iley": 5080,
      "▁నే": 5081,
      "▁నగర": 5082,
      "anipur": 5083,
      "कारीब": 5084,
      "48/cb": 5085,
      "▁దేశం": 5086,
      "టిబె": 5087,
      "▁[Government": 5088,
      "_GDP": 5089,
      "్రీ.పూ.": 5090,
      "_Nadu": 5091,
      "ext": 5092,
      "▁[![A": 5093,
      "hmed": 5094,
      "](https://en.wikipedia.org/wiki/National_": 5095,
      "ండియా": 5096,
      "athura": 5097,
      "](https://en.wikipedia.org/wiki/List_of_SAARC_summit": 5098,
      "▁produc": 5099,
      "▁ఎక్కువ": 5100,
      "▁ఎన్నో": 5101,
      "विशेष:EditPage/": 5102,
      "ूर्वी": 5103,
      "hya": 5104,
      "amil_Nadu": 5105,
      "economic": 5106,
      "▁./వర్గం:Wikipedia\\_articles": 5107,
      "▁technology": 5108,
      "▁regions": 5109,
      "_సం": 5110,
      "ashmiri": 5111,
      "ancis": 5112,
      "▁Hinduism": 5113,
      "▁मेला](https://hi.wikipedia.org/wiki/": 5114,
      "गणराज्य": 5115,
      "▁वर्ग": 5116,
      "టుంబ": 5117,
      "▁./श्रेणी:जान": 5118,
      "awahar": 5119,
      "india.gov.in/india-glance": 5120,
      "▁right": 5121,
      "▁భారత్": 5122,
      "kingdom": 5123,
      "మెరి": 5124,
      "▁economy": 5125,
      "▁మొత్తం": 5126,
      "బాద్": 5127,
      "urrent": 5128,
      "eserve": 5129,
      "ంపెనీ": 5130,
      "vanagari": 5131,
      "View": 5132,
      "▁स्रोत/978-1": 5133,
      "industani": 5134,
      "](https://hi.wikipedia.org/wiki/विशेष:पुस्तक_स्रोत/978-1": 5135,
      "హ్మ": 5136,
      "cyclop": 5137,
      "cyclopedia": 5138,
      "-lead": 5139,
      "हितक\\_पृष्ठसभ": 5140,
      "Uttarakhand": 5141,
      "▁ఏర్": 5142,
      "hasha": 5143,
      "akshadwe": 5144,
      "▁groups": 5145,
      "్రిటిషు": 5146,
      "\\_देशमे": 5147,
      "▁भूम": 5148,
      "_Islands": 5149,
      ".bnf": 5150,
      "omason": 5151,
      "_BRICS_summit": 5152,
      "▁Persian": 5153,
      "▁चुनाव": 5154,
      "hristian": 5155,
      ".fr/ark": 5156,
      "Provision": 5157,
      "पदण्ड": 5158,
      "▁అత్యధిక": 5159,
      "overeign": 5160,
      "fghanistan": 5161,
      "nclm.nic.in/shared/": 5162,
      "रेलू": 5163,
      "लयालम": 5164,
      "etraglia": 5165,
      "ీర్ణ": 5166,
      "దక్షిణ_ఆసియా": 5167,
      "\\_सहितक\\_पृष्ठसभ": 5168,
      "▁शताब्दी": 5169,
      "▁[पुरालेखित](https://web.archive.org/web/201": 5170,
      "Pages\\_using\\_": 5171,
      "icobar": 5172,
      "▁summits\")": 5173,
      "र्वोच्च": 5174,
      ":/12148/cb": 5175,
      "ootball": 5176,
      "\\_मापदण्ड": 5177,
      "\\_contain": 5178,
      "linkimages/": 5179,
      "कारीबौक्स": 5180,
      "_GDP_(": 5181,
      "](https://en.wikipedia.org/wiki/List_of_SAARC_summits": 5182,
      "विशेष:EditPage/साँचा:": 5183,
      "▁./श्रेणी:जानकारीबौक्स": 5184,
      "awaharl": 5185,
      "akshadweep": 5186,
      ".bnf.fr/ark": 5187,
      "nclm.nic.in/shared/linkimages/": 5188,
      "\\_सहितक\\_पृष्ठसभ#": 5189,
      ".bnf.fr/ark:/12148/cb": 5190,
      "-D": 5191,
      "-विज्ञान": 5192,
      ".](https://upload.wikimedia.org/wikipedia/commons/thumb/": 5193,
      ".\")\n\n": 5194,
      "/india": 5195,
      "123": 5196,
      "125": 5197,
      "3–": 5198,
      "320": 5199,
      "350": 5200,
      "4]](https://en.wikipedia.org/wiki/India#cite_note-FOOTNOTE": 5201,
      "4-108": 5202,
      "66": 5203,
      "7).": 5204,
      "9–": 5205,
      "AS": 5206,
      "All": 5207,
      "Census": 5208,
      "Fr": 5209,
      "Gua": 5210,
      "JIJ": 5211,
      "Kashmir": 5212,
      "MC": 5213,
      "MID": 5214,
      "Ministry_of_": 5215,
      "NA": 5216,
      "National": 5217,
      "St": 5218,
      "Vu": 5219,
      "Zva": 5220,
      "ZVu": 5221,
      "_g": 5222,
      "_h": 5223,
      "_24": 5224,
      "_17": 5225,
      "aul": 5226,
      "bbc": 5227,
      "ced": 5228,
      "c/c": 5229,
      "code": 5230,
      "casting": 5231,
      "ds": 5232,
      "dish": 5233,
      "ek": 5234,
      "ece": 5235,
      "hu": 5236,
      "ham": 5237,
      "hang": 5238,
      "had": 5239,
      "hindi": 5240,
      "ij": 5241,
      "ker": 5242,
      "kZVu": 5243,
      "most": 5244,
      "mrits": 5245,
      "nc": 5246,
      "ned": 5247,
      "ncient": 5248,
      "ott": 5249,
      "ple": 5250,
      "pture": 5251,
      "ues": 5252,
      "yer": 5253,
      "ंच": 5254,
      "ंत": 5255,
      "कणी": 5256,
      "छत्तीस": 5257,
      "डो": 5258,
      "तृत": 5259,
      "दिव": 5260,
      "मक": 5261,
      "मो": 5262,
      "रस": 5263,
      "लग": 5264,
      "श्य": 5265,
      "सून": 5266,
      "िंध": 5267,
      "ीच": 5268,
      "ुम्ब": 5269,
      "।\n\n": 5270,
      "▁z": 5271,
      "▁6.": 5272,
      "▁United": 5273,
      "▁low": 5274,
      "▁Qu": 5275,
      "▁[f": 5276,
      "▁[ल": 5277,
      "▁[World": 5278,
      "en,": 5279,
      "tered": 5280,
      "▁\"च": 5281,
      "▁\"तमिल": 5282,
      "ants": 5283,
      "tis": 5284,
      "th_BRICS_summit": 5285,
      "arlo": 5286,
      "araj": 5287,
      "2025": 5288,
      "ala": 5289,
      "aland": 5290,
      "alli": 5291,
      "es,": 5292,
      "hib": 5293,
      "thema": 5294,
      "▁कई": 5295,
      "▁कश्मीर": 5296,
      "outheast": 5297,
      "भारत)": 5298,
      "भारत\nCategory:": 5299,
      "▁सैन": 5300,
      "198": 5301,
      "▁sq": 5302,
      "▁sector": 5303,
      "▁मैदान": 5304,
      "rime": 5305,
      "▁caus": 5306,
      "uss": 5307,
      "▁पर्वत": 5308,
      "▁China": 5309,
      "▁Civil": 5310,
      "[[14": 5311,
      "▁tree": 5312,
      "loth": 5313,
      "urve": 5314,
      "urity": 5315,
      "▁Punjab": 5316,
      "याधी": 5317,
      "_of_2011": 5318,
      "▁man": 5319,
      "▁dom": 5320,
      "0000": 5321,
      "▁2018": 5322,
      "▁2014.": 5323,
      "▁This": 5324,
      "▁Research": 5325,
      "▁M.": 5326,
      "ाल्": 5327,
      "iger": 5328,
      "emic": 5329,
      "emographic": 5330,
      "वित": 5331,
      "ोंकणी": 5332,
      "▁दि": 5333,
      "10)": 5334,
      "1017": 5335,
      "भाज": 5336,
      "266": 5337,
      "indus": 5338,
      "_का_": 5339,
      "▁Europe": 5340,
      "▁hum": 5341,
      "▁human": 5342,
      "▁house": 5343,
      "▁बीच": 5344,
      "oples": 5345,
      "▁से](http://": 5346,
      "▁religious": 5347,
      "न्दिर": 5348,
      "▁these": 5349,
      "](https://en.wikipedia.org/wiki/India#CITEREFB": 5350,
      "22-9": 5351,
      "▁name": 5352,
      "क्षा": 5353,
      "▁1965": 5354,
      "▁गु": 5355,
      "27)": 5356,
      "▁Linguistic": 5357,
      "_Paper": 5358,
      "▁उत्पाद": 5359,
      "_मंदिर": 5360,
      "▁[↑](https://en.wikipedia.org/wiki/India#cite_ref-FOOTNOTEB": 5361,
      "लेट": 5362,
      "rief": 5363,
      "▁इन": 5364,
      "▁[British": 5365,
      "ligions": 5366,
      "emplate_": 5367,
      "_Totals": 5368,
      "opulation_Totals": 5369,
      "ociation": 5370,
      "ockey": 5371,
      "▁def": 5372,
      "▁development": 5373,
      "▁लोक": 5374,
      "▁language\"),": 5375,
      "▁राज्य\")": 5376,
      "▁\"Government": 5377,
      ")\n\nThe": 5378,
      "▁Press](https://en.wikipedia.org/wiki/C": 5379,
      "exist": 5380,
      "▁[अंग्रेज़": 5381,
      "▁अनु": 5382,
      "▁[Dyson": 5383,
      "ibcode": 5384,
      "ikhism": 5385,
      "▁करोड़": 5386,
      "MetcalfMetcalf2012": 5387,
      "_population": 5388,
      "▁mathema": 5389,
      "▁1994": 5390,
      "_1_of_2011": 5391,
      "onstitutional": 5392,
      "do-European": 5393,
      "▁राजनी": 5394,
      "html).": 5395,
      "674": 5396,
      "▁control": 5397,
      "▁when": 5398,
      "▁languages\")": 5399,
      "overnment_of_India": 5400,
      "न्तर": 5401,
      "▁addition": 5402,
      "▁\"पंजाब": 5403,
      "\")*,": 5404,
      "▁2,": 5405,
      "▁[पंजाब": 5406,
      "o-operation": 5407,
      "▁होता": 5408,
      "ighth": 5409,
      "gypt": 5410,
      "phere": 5411,
      "ब्ब": 5412,
      "official": 5413,
      "▁Programme": 5414,
      "▁composed": 5415,
      "▁km2": 5416,
      "श्मीरी": 5417,
      "uisine": 5418,
      "odiversity": 5419,
      "▁wide": 5420,
      "▁जिसमें": 5421,
      "dependence": 5422,
      "▁along": 5423,
      "▁कारण": 5424,
      "struc": 5425,
      "074-108": 5426,
      "_मेला?action=edit&redlink=1": 5427,
      "▁Registrar": 5428,
      "▁Plateau": 5429,
      "▁स्थित": 5430,
      "णिपुरी": 5431,
      "ennai": 5432,
      "-4020": 5433,
      "गोआ": 5434,
      "al_Population_Totals": 5435,
      "Articles\\_contain": 5436,
      "arnatic": 5437,
      "ynasty": 5438,
      "-78074-108": 5439,
      "ूर्ण": 5440,
      "श्रीलंका": 5441,
      "र्सिट": 5442,
      "roadcasting": 5443,
      "uthority": 5444,
      "entral_": 5445,
      "ूनिवर्सिट": 5446,
      "▁Increase": 5447,
      "▁स्थाप": 5448,
      "Provisional_Population_Totals": 5449,
      "GuaJIJ": 5450,
      "ZvaGuaJIJ": 5451,
      "ुम्बई": 5452,
      "याधीश": 5453,
      "_Paper_1_of_2011": 5454,
      "▁[अंग्रेज़ी](https://hi.wikipedia.org/wiki/अ": 5455,
      "-78074-108-6": 5456,
      "Provisional_Population_Totals_Paper_1_of_2011": 5457,
      "ZvaGuaJIJgo": 5458,
      "Provisional_Population_Totals_Paper_1_of_2011_India": 5459,
      "*)": 5460,
      "-R": 5461,
      "-S": 5462,
      "-k": 5463,
      "-r": 5464,
      "-an": 5465,
      "-India": 5466,
      "-शासित": 5467,
      "-logo": 5468,
      ".uk": 5469,
      "/g": 5470,
      "/India": 5471,
      "1-3": 5472,
      "1-4": 5473,
      "338": 5474,
      "4]](https://en.wikipedia.org/wiki/India#cite_note-": 5475,
      "7%": 5476,
      "9/": 5477,
      "9]](https://en.wikipedia.org/wiki/India#cite_note-": 5478,
      "AG": 5479,
      "Con": 5480,
      "ES": 5481,
      "Home": 5482,
      "IF": 5483,
      "IUCN": 5484,
      "_v": 5485,
      "_pe": 5486,
      "_26": 5487,
      "_राज्य": 5488,
      "_43": 5489,
      "_2004": 5490,
      "_జాబితా": 5491,
      "a)": 5492,
      "ax": 5493,
      "b/": 5494,
      "cog": 5495,
      "cise": 5496,
      "day": 5497,
      "dust": 5498,
      "eth": 5499,
      "epend": 5500,
      "equality": 5501,
      "hut": 5502,
      "here": 5503,
      "hindu": 5504,
      "i-": 5505,
      "lue": 5506,
      "ov": 5507,
      "oint": 5508,
      "ption": 5509,
      "तम": 5510,
      "त\\_मापदण्ड": 5511,
      "पक": 5512,
      "पार": 5513,
      "भिय": 5514,
      "मर": 5515,
      "रत": 5516,
      "वल": 5517,
      "वर्त": 5518,
      "शिया\")": 5519,
      "शीन": 5520,
      "ीगढ़": 5521,
      "ेक": 5522,
      "ॉक": 5523,
      "ఆంధ": 5524,
      "కీ": 5525,
      "కాలు": 5526,
      "క్రమ": 5527,
      "గర్": 5528,
      "డో": 5529,
      "థి": 5530,
      "నె": 5531,
      "నాలు": 5532,
      "పించ": 5533,
      "బడ్డ": 5534,
      "భర": 5535,
      "మహ": 5536,
      "మై": 5537,
      "యన": 5538,
      "రంగ": 5539,
      "లయా": 5540,
      "వార": 5541,
      "శీ": 5542,
      "షనల్": 5543,
      "స్య": 5544,
      "ృద్ధి": 5545,
      "ెంగ": 5546,
      "ేర": 5547,
      "–24": 5548,
      "▁hist": 5549,
      "▁old": 5550,
      "▁దా": 5551,
      "▁నాగరికత": 5552,
      "▁టెక్నాలజీ": 5553,
      "iary": 5554,
      "orn": 5555,
      "](Template:": 5556,
      "▁[ड": 5557,
      "▁[वि": 5558,
      "\")\"": 5559,
      "infob": 5560,
      "erman": 5561,
      "alt": 5562,
      "hild": 5563,
      "of\\_": 5564,
      "▁कु": 5565,
      "ed,": 5566,
      "anda": 5567,
      "్రై": 5568,
      "్రప్రదేశ్": 5569,
      "](https://te.wikipedia.org/wiki/ఢిల్లీ": 5570,
      "▁(c": 5571,
      "▁(199": 5572,
      "asi": 5573,
      "ashi": 5574,
      "▁सँ": 5575,
      "▁स्त": 5576,
      "▁सूचना": 5577,
      "▁India.[[": 5578,
      "▁India](https://en.wikipedia.org/wiki/C": 5579,
      "idy": 5580,
      "raj": 5581,
      "rahm": 5582,
      "entury": 5583,
      "▁मध्य": 5584,
      "▁prom": 5585,
      "ripura": 5586,
      "▁colle": 5587,
      "▁पै": 5588,
      "\\_country": 5589,
      "\\_of\\_": 5590,
      "▁Central": 5591,
      "▁Cooperation": 5592,
      "-15": 5593,
      "ानव": 5594,
      "దేశం": 5595,
      "దేశాల": 5596,
      "దేశాలు": 5597,
      "స్\")": 5598,
      "▁fam": 5599,
      "adras": 5600,
      "adhya": 5601,
      "\n\nభారతదేశం": 5602,
      "ర్‌": 5603,
      "main": 5604,
      "▁Park": 5605,
      "\"),[[": 5606,
      "comm": 5607,
      "_of_B": 5608,
      "లు?action=edit&redlink=1": 5609,
      "▁des": 5610,
      "రాఠ": 5611,
      "▁2012.": 5612,
      "]](https://en.wikipedia.org/wiki/India#cite_note-Combined": 5613,
      "links": 5614,
      "▁top": 5615,
      "▁కి": 5616,
      "▁కో": 5617,
      "▁att": 5618,
      "ालदीव": 5619,
      "ign_": 5620,
      "igarh": 5621,
      "క్టో": 5622,
      "ेशन": 5623,
      "ेशिया": 5624,
      "నియా": 5625,
      "▁వర్": 5626,
      "▁వారస": 5627,
      "▁जी": 5628,
      "▁दशक": 5629,
      "irth": 5630,
      "26.": 5631,
      "260": 5632,
      "267": 5633,
      "ల్వే": 5634,
      "pecially": 5635,
      "eccan": 5636,
      "▁సరిహద్దు": 5637,
      "▁మన": 5638,
      "▁మూ": 5639,
      "▁भारत\")": 5640,
      "28.": 5641,
      "▁Games": 5642,
      "▁H.": 5643,
      "ండమా": 5644,
      "षाण": 5645,
      "▁చిన్న": 5646,
      "తాన": 5647,
      "▁only": 5648,
      "_Act": 5649,
      "ముఖ": 5650,
      "aryana": 5651,
      "▁religion": 5652,
      "▁report": 5653,
      "▁through": 5654,
      "ability": 5655,
      "▁2001": 5656,
      "త్వం": 5657,
      "▁आर": 5658,
      "▁आर्थिक": 5659,
      "▁near": 5660,
      "क्षर": 5661,
      "▁(సా.శ.17": 5662,
      "▁(సా.శ.14": 5663,
      "ులు,": 5664,
      "–సా.శ.15": 5665,
      "–సా.శ.17": 5666,
      "▁ప్రతి": 5667,
      "▁ప్రస్తు": 5668,
      "▁ప్రకారం": 5669,
      "▁ప్రముఖ": 5670,
      "archive.org/detail": 5671,
      "▁growth": 5672,
      "AAJ": 5673,
      "hai": 5674,
      "166": 5675,
      "ంచిన": 5676,
      "కుడు": 5677,
      "▁Ocean": 5678,
      "నుమ": 5679,
      "▁कोर": 5680,
      "काश": 5681,
      "▁\"Mughal": 5682,
      "▁రో": 5683,
      "▁రంగ": 5684,
      "▁రవాణా": 5685,
      "▁సాధించ": 5686,
      "▁शिक्षा": 5687,
      "](https://en.wikipedia.org/wiki/Mugh": 5688,
      "ష్టు": 5689,
      "law": 5690,
      "ियर": 5691,
      "a_d": 5692,
      "a_Empire": 5693,
      "▁within": 5694,
      "](https://en.wikipedia.org/wiki/British": 5695,
      "ంతో": 5696,
      "▁\"Template:": 5697,
      "▁తరువా": 5698,
      "పాలన": 5699,
      "ंडीगढ़": 5700,
      "▁लोग": 5701,
      "▁exp": 5702,
      "ం](https://te.wikipedia.org/wiki/భారతీయ": 5703,
      "issing": 5704,
      "▁क्षेत्रीय": 5705,
      ")\n\n-": 5706,
      "▁Press,": 5707,
      "గుర్": 5708,
      "నేషనల్": 5709,
      "ender": 5710,
      "▁ప్రాంతం": 5711,
      ",_కేంద్రపాలిత": 5712,
      "content": 5713,
      "▁రాజ్యం](https://te.wikipedia.org/wiki/": 5714,
      "▁नेतृत": 5715,
      "వందే": 5716,
      "▁బా": 5717,
      "▁బహు": 5718,
      "▁బెంగ": 5719,
      "▁\"ब्रिटिश": 5720,
      "▁पुरा": 5721,
      "सभ\\_सहितक\\_पृष्ठसभ#": 5722,
      "जनसंख्या": 5723,
      "▁जनवरी": 5724,
      "▁जनसंख्या": 5725,
      "ాల్లో": 5726,
      "handigarh": 5727,
      "html)": 5728,
      "శ్వా": 5729,
      "ారిటీ": 5730,
      "PPP": 5731,
      "▁ప్రాంతాలు\")": 5732,
      "AsherTalbot20": 5733,
      "గోళ": 5734,
      "▁२०१": 5735,
      "1971": 5736,
      "బడిన": 5737,
      "8/8": 5738,
      "_Lank": 5739,
      "ediff": 5740,
      "▁ago": 5741,
      "తున్న": 5742,
      "న్నిక": 5743,
      "]](https://hi.wikipedia.org/wiki/भारत#cite_note-FOOTNOTEStein1998": 5744,
      "]](https://hi.wikipedia.org/wiki/भारत#cite_note-FOOTNOTESingh2009": 5745,
      "▁స్వాతంత్ర్య": 5746,
      "▁కాలంలో": 5747,
      "ote:": 5748,
      "▁use": 5749,
      "countries_and_depend": 5750,
      "mitt": 5751,
      "](https://mai.wikipedia.org/wiki/भारतक": 5752,
      "Dyson2018),": 5753,
      "िन्धु": 5754,
      "मुख्य": 5755,
      "ortal:": 5756,
      "ంపి": 5757,
      "encies_by": 5758,
      "బెంగాల్": 5759,
      "rishna": 5760,
      "▁especially": 5761,
      ".html).": 5762,
      "rmy": 5763,
      "ెలవు": 5764,
      "](https://te.wikipedia.org/wiki/భారతదేశంలో_": 5765,
      "▁Buddhist": 5766,
      "▁increased": 5767,
      "▁అధికారిక": 5768,
      "catal": 5769,
      "▁रहल": 5770,
      "▁सभ्यता": 5771,
      "](https://en.wikipedia.org/wiki/South_Asian_": 5772,
      "ज्ञात\\_मापदण्ड": 5773,
      "culpture": 5774,
      "text": 5775,
      "▁2018](https://en.wikipedia.org/wiki/India#CITEREFDyson2018),": 5776,
      ".php?": 5777,
      "ఆర్ధిక": 5778,
      "▁पार्टी": 5779,
      "▁పట్టణ": 5780,
      "▁కాశ్మీరు": 5781,
      "ological": 5782,
      "\\_अज्ञात\\_मापदण्ड": 5783,
      "▁Minorities": 5784,
      "▁dependencies": 5785,
      "ంగ్లీషు": 5786,
      "त्तराखण्ड": 5787,
      "▁estimate": 5788,
      "▁అయిన": 5789,
      "▁రెండు": 5790,
      "violence": 5791,
      "ాల్దీవులు": 5792,
      "एसियाक": 5793,
      "ట్రో": 5794,
      "ుల్తాన": 5795,
      "రాష్ట్రాలు,_కేంద్రపాలిత": 5796,
      "▁వ్యాసం:": 5797,
      "हायता:": 5798,
      "▁अप्रैल": 5799,
      "हिमाचल": 5800,
      "▁लेख:": 5801,
      "ార్లమెంట": 5802,
      "▁./వర్గం:Wikipedia\\_articles\\_with\\_": 5803,
      "▁ఏర్ప": 5804,
      "\\_देशमे\\_अज्ञात\\_मापदण्ड": 5805,
      "▁./श्रेणी:जानकारीबौक्स\\_देशमे\\_अज्ञात\\_मापदण्ड": 5806,
      "▁Quote:": 5807,
      "ZvaGuaJIJgoC&pg=PA": 5808,
      "ఆంధ్రప్రదేశ్": 5809,
      "లయాళ": 5810,
      "infobox": 5811,
      "archive.org/details/": 5812,
      "](https://en.wikipedia.org/wiki/Mughal_": 5813,
      "countries_and_dependencies_by": 5814,
      "రాష్ట్రాలు,_కేంద్రపాలిత_ప్రాంత": 5815,
      "▁./श्रेणी:जानकारीबौक्स\\_देशमे\\_अज्ञात\\_मापदण्डसभ\\_सहितक\\_पृष्ठसभ#": 5816,
      "-T": 5817,
      "-world": 5818,
      ".co": 5819,
      "/s": 5820,
      "3).": 5821,
      "313": 5822,
      "418": 5823,
      "5]](https://en.wikipedia.org/wiki/India#cite_note-": 5824,
      "677": 5825,
      "72": 5826,
      "74": 5827,
      "7C": 5828,
      "7-1": 5829,
      "82": 5830,
      "9]](https://en.wikipedia.org/wiki/India#cite_note-FOOTNOTE": 5831,
      ";[[": 5832,
      "Alig": 5833,
      "EX": 5834,
      "Ex": 5835,
      "Ze": 5836,
      "_&": 5837,
      "_उ": 5838,
      "_20": 5839,
      "_राज": 5840,
      "_36": 5841,
      "_38": 5842,
      "_dom": 5843,
      "_2024": 5844,
      "aha": 5845,
      "ather": 5846,
      "ative": 5847,
      "ault": 5848,
      "baki": 5849,
      "dic": 5850,
      "ethnologue": 5851,
      "hak": 5852,
      "ka": 5853,
      "kb": 5854,
      "khand": 5855,
      "lm": 5856,
      "mil": 5857,
      "oin": 5858,
      "p)": 5859,
      "page": 5860,
      "s:": 5861,
      "subcontinent": 5862,
      "tain": 5863,
      "tandard": 5864,
      "vent": 5865,
      "vil": 5866,
      "wana": 5867,
      "अरब": 5868,
      "एन": 5869,
      "एल": 5870,
      "गाल": 5871,
      "टि": 5872,
      "द्वार": 5873,
      "धा": 5874,
      "मु": 5875,
      "लिस": 5876,
      "षय": 5877,
      "िनेमा": 5878,
      "ृद्ध": 5879,
      "ॉल": 5880,
      "▁३": 5881,
      "▁ge": 5882,
      "▁36": 5883,
      "▁eng": 5884,
      "orship": 5885,
      "tter": 5886,
      "▁[n": 5887,
      "▁[य": 5888,
      "▁[नेपाल": 5889,
      "ences": 5890,
      "tection": 5891,
      "▁\"U": 5892,
      "▁\"य": 5893,
      "▁\"World": 5894,
      "▁\"नेपाल": 5895,
      "](https://en.wikipedia.org/wiki/World": 5896,
      "erved": 5897,
      "artition": 5898,
      "alit": 5899,
      "him": 5900,
      "ार्व": 5901,
      "ederal": 5902,
      "▁(S": 5903,
      "▁(अ": 5904,
      "▁(ed.).": 5905,
      "भारतीय": 5906,
      "ichell": 5907,
      "▁India*.": 5908,
      "्यों": 5909,
      "ately": 5910,
      "▁popul": 5911,
      "▁political": 5912,
      "ets": 5913,
      "▁coast": 5914,
      "राक": 5915,
      "ator": 5916,
      "atab": 5917,
      "atna": 5918,
      "\\_(": 5919,
      "▁As": 5920,
      "▁Comp": 5921,
      "▁Chand": 5922,
      "agen": 5923,
      "▁See": 5924,
      "ango": 5925,
      "angam": 5926,
      "\n\nमुख्य": 5927,
      "▁bu": 5928,
      "lima": 5929,
      "78.": 5930,
      "umar": 5931,
      "vert": 5932,
      "very": 5933,
      "ults": 5934,
      "▁14.": 5935,
      "iland": 5936,
      "stani": 5937,
      "▁work": 5938,
      "ourbaki": 5939,
      ".\n10": 5940,
      ".\n11": 5941,
      "oln": 5942,
      "▁Rothermund": 5943,
      "▁Man": 5944,
      "▁Muslim": 5945,
      "-0)\n": 5946,
      "rest": 5947,
      "▁Bi": 5948,
      "▁By": 5949,
      "238": 5950,
      "▁जय": 5951,
      "▁Dictionary": 5952,
      "▁दिल्ल": 5953,
      "105": 5954,
      "_(भारत)": 5955,
      ".jpe": 5956,
      "त्रु": 5957,
      "index": 5958,
      "▁[↑](https://en.wikipedia.org/wiki/India#cite_ref-4": 5959,
      "eck": 5960,
      "▁प्रस": 5961,
      "▁प्रेस": 5962,
      "▁प्रौद्योगिक": 5963,
      "-39": 5964,
      "-45": 5965,
      "115": 5966,
      "50th": 5967,
      "▁2008": 5968,
      "▁व्य": 5969,
      "▁व्या": 5970,
      "ghts": 5971,
      "▁International": 5972,
      "▁[\"P": 5973,
      "406]](https://en.wikipedia.org/wiki/India#cite_note-": 5974,
      "▁gen": 5975,
      "▁\"Cambridge": 5976,
      "oss": 5977,
      "hatt": 5978,
      "harkhand": 5979,
      "_Comm": 5980,
      "ड़िया": 5981,
      "▁Languages": 5982,
      "▁[Cambridge": 5983,
      "▁[978-0-521": 5984,
      "ndhra": 5985,
      "▁[↑](https://en.wikipedia.org/wiki/India#cite_ref-FOOTNOTEStein2010": 5986,
      "▁before": 5987,
      "▁शु": 5988,
      "lative": 5989,
      "ियार": 5990,
      "▁original](http://www.": 5991,
      "साई": 5992,
      "_Mah": 5993,
      "▁सागर": 5994,
      "inema": 5995,
      "aith": 5996,
      "48)": 5997,
      "arden": 5998,
      "▁लग": 5999,
      "ेली": 6000,
      "▁range": 6001,
      "issile": 6002,
      "ंग्रेज": 6003,
      "iance": 6004,
      "परमाणु": 6005,
      "akistani": 6006,
      "vention": 6007,
      "▁[New": 6008,
      "▁lite": 6009,
      "class": 6010,
      "type": 6011,
      "onstitution_of_India": 6012,
      "ज्ज": 6013,
      "▁vill": 6014,
      "▁राजधान": 6015,
      "▁राजवंश": 6016,
      "ambridge_University_Press": 6017,
      "▁स्थान": 6018,
      "▁(2014).": 6019,
      "▁जाती": 6020,
      "alayal": 6021,
      "erves": 6022,
      "on-Alig": 6023,
      "aceu": 6024,
      "%E0%A4%A": 6025,
      "▁2007](https://en.wikipedia.org/wiki/India#CITEREF": 6026,
      "▁News": 6027,
      "attle": 6028,
      "ureau": 6029,
      "1947)": 6030,
      "▁प्राचीन": 6031,
      "▁Pradesh\")": 6032,
      "आईएस": 6033,
      "ondon": 6034,
      "रेन्द्र": 6035,
      "▁धर्म\")": 6036,
      "hola": 6037,
      "ollingham": 6038,
      "▁था।": 6039,
      "▁2024.": 6040,
      "▁शासित": 6041,
      "▁different": 6042,
      "ांग्लादेश": 6043,
      "लोकसभा": 6044,
      "धुनिक": 6045,
      "cheduled": 6046,
      "▁साम्राज्य\")": 6047,
      "olkata": 6048,
      ".nlm": 6049,
      "bi.nlm": 6050,
      "दिल्ली": 6051,
      "▁including": 6052,
      "▁[India](https://en.wikipedia.org/wiki/India": 6053,
      "ritsch": 6054,
      "troduction": 6055,
      "ilgrim": 6056,
      "langoff-1": 6057,
      "vatsyayan-lord-4": 6058,
      "vatsyayan-lord_43": 6059,
      "4/4": 6060,
      "jection": 6061,
      "_of_South_Asia": 6062,
      "nergy": 6063,
      "_साम्राज्य": 6064,
      "arnataka": 6065,
      "owever,": 6066,
      "bank.org/": 6067,
      "▁पहले": 6068,
      "harmaceu": 6069,
      "Congress2004": 6070,
      "▁mi)": 6071,
      "olonial": 6072,
      "ouncil": 6073,
      "do-Pakistani": 6074,
      ".nih": 6075,
      "नुसार_देश": 6076,
      "▁[हिन्दी](https://hi.wikipedia.org/wiki/हिन्दी": 6077,
      "arliest": 6078,
      "hmedabad": 6079,
      "▁चुनावों": 6080,
      "Front": 6081,
      "kZVuDwAAQBAJ&pg=PA": 6082,
      "mritsar": 6083,
      "ncbi.nlm": 6084,
      "▁सैन्य": 6085,
      "urvey": 6086,
      "भाजपा": 6087,
      "▁Press](https://en.wikipedia.org/wiki/Cambridge_University_Press": 6088,
      "dustrial": 6089,
      "ethnologue.com/": 6090,
      "406]](https://en.wikipedia.org/wiki/India#cite_note-vatsyayan-lord-4": 6091,
      "on-Aligned": 6092,
      "ncbi.nlm.nih": 6093,
      "%3": 6094,
      ")\"),": 6095,
      "-F": 6096,
      "-the": 6097,
      "-24": 6098,
      "/).": 6099,
      "1]](https://en.wikipedia.org/wiki/India#cite_note-": 6100,
      "2-1": 6101,
      "221": 6102,
      "2)[[": 6103,
      "3-1": 6104,
      "32)": 6105,
      "4,": 6106,
      "400": 6107,
      "8+": 6108,
      "95": 6109,
      "CH": 6110,
      "Collingham": 6111,
      "F)": 6112,
      "M50th": 6113,
      "NCL": 6114,
      "OV": 6115,
      "Pakistan": 6116,
      "S$": 6117,
      "Sanskrit": 6118,
      "TO": 6119,
      "Template": 6120,
      "Tarlo": 6121,
      "_-": 6122,
      "_घ": 6123,
      "_వి": 6124,
      "_industry": 6125,
      "_కాశ్మీ": 6126,
      "athe": 6127,
      "aos": 6128,
      "athematics": 6129,
      "bhasha": 6130,
      "dis": 6131,
      "eat": 6132,
      "ead": 6133,
      "even": 6134,
      "eligious": 6135,
      "evanagari": 6136,
      "gu": 6137,
      "hdr": 6138,
      "lar": 6139,
      "mill": 6140,
      "ns": 6141,
      "odia": 6142,
      "ren": 6143,
      "round": 6144,
      "rune": 6145,
      "yd": 6146,
      "yth": 6147,
      "zer": 6148,
      "इव": 6149,
      "खन": 6150,
      "ग्व": 6151,
      "च्": 6152,
      "चित्र": 6153,
      "जं": 6154,
      "ञ्": 6155,
      "तनाम": 6156,
      "दर्": 6157,
      "नत्व": 6158,
      "पया": 6159,
      "पदी": 6160,
      "फोर्ड": 6161,
      "ब्ल": 6162,
      "बेट": 6163,
      "भग": 6164,
      "भ्स": 6165,
      "म\")": 6166,
      "यर": 6167,
      "लों": 6168,
      "िंग": 6169,
      "ीठ": 6170,
      "ुवै": 6171,
      "ैंक": 6172,
      "ॉंग्रेस": 6173,
      "ौसेना": 6174,
      "ौपदी": 6175,
      "२००": 6176,
      "ంస్కృ": 6177,
      "ఉత్తరా": 6178,
      "ఖో": 6179,
      "ఘాలయ": 6180,
      "చ్": 6181,
      "టై": 6182,
      "టర్": 6183,
      "డమ్": 6184,
      "డఖ్": 6185,
      "ణే": 6186,
      "ణంగా": 6187,
      "తే": 6188,
      "తెల": 6189,
      "దరంగ": 6190,
      "నో": 6191,
      "నంద": 6192,
      "బర్": 6193,
      "బార్": 6194,
      "యె": 6195,
      "రె": 6196,
      "లడఖ్": 6197,
      "ళా": 6198,
      "ళి": 6199,
      "శు": 6200,
      "హించ": 6201,
      "ుకు": 6202,
      "ెన్న": 6203,
      "ెట్రో": 6204,
      "ేతి": 6205,
      "ేఘాలయ": 6206,
      "ైనిక": 6207,
      "ొగలు": 6208,
      "ోళ": 6209,
      "‌కా": 6210,
      "‌మహ": 6211,
      "▁`": 6212,
      "▁°": 6213,
      "▁·": 6214,
      "▁५": 6215,
      "▁ఐ": 6216,
      "▁ఖ": 6217,
      "▁ला": 6218,
      "▁–సా.శ.": 6219,
      "▁భారతీయ": 6220,
      "▁46": 6221,
      "▁దినోత్స": 6222,
      "▁kingdom": 6223,
      "iated": 6224,
      "▁[Y": 6225,
      "▁[ई": 6226,
      "▁[ग": 6227,
      "▁[प्र": 6228,
      "▁[రాష్ట్ర": 6229,
      "▁[జన": 6230,
      "▁[గో": 6231,
      "▁[तमिल": 6232,
      "▁\"ड": 6233,
      "▁\"सा": 6234,
      "▁\"పా": 6235,
      "▁\"జన": 6236,
      "▁\"గో": 6237,
      "▁\"మూస:": 6238,
      "ino-": 6239,
      "an,": 6240,
      "anat": 6241,
      "anchi": 6242,
      "tile": 6243,
      "ties/": 6244,
      "thang": 6245,
      "India_G": 6246,
      "ars": 6247,
      "arth": 6248,
      "ester": 6249,
      "es.[[": 6250,
      "rel": 6251,
      "report": 6252,
      "ofker": 6253,
      "ारी": 6254,
      "thehindu": 6255,
      "▁कम": 6256,
      "](https://hi.wikipedia.org/wiki/पाकिस्तान": 6257,
      "omo": 6258,
      "itation": 6259,
      "](https://te.wikipedia.org/wiki/B": 6260,
      "](https://te.wikipedia.org/wiki/G": 6261,
      "](https://te.wikipedia.org/wiki/భారతదేశ": 6262,
      "](https://te.wikipedia.org/wiki/గో": 6263,
      "](https://te.wikipedia.org/wiki/మూస:": 6264,
      "▁(क": 6265,
      "ారస్వ": 6266,
      "▁सह": 6267,
      "▁साल": 6268,
      "▁स्व": 6269,
      "▁स्वतंत्रता": 6270,
      "id-": 6271,
      "ratic": 6272,
      "▁school": 6273,
      "▁मौ": 6274,
      "ాలె": 6275,
      "▁pres": 6276,
      "-0-3": 6277,
      "etry": 6278,
      "acmill": 6279,
      "ingap": 6280,
      "▁can": 6281,
      "▁capita": 6282,
      "राम": 6283,
      "ating": 6284,
      "\\_template": 6285,
      "▁Ad": 6286,
      "ager": 6287,
      "స్ట": 6288,
      "స్వాతంత్ర్య": 6289,
      "▁Sabha": 6290,
      "▁Society": 6291,
      "▁four": 6292,
      "▁fol": 6293,
      "▁fig": 6294,
      "▁పర": 6295,
      "▁పండు": 6296,
      "angered": 6297,
      "lite": 6298,
      "loped": 6299,
      "urk": 6300,
      "urry": 6301,
      "umeration": 6302,
      "▁हर": 6303,
      "](https://hi.wikipedia.org/wiki/भारत_के": 6304,
      "well": 6305,
      "లు](https://te.wikipedia.org/wiki/": 6306,
      "▁would": 6307,
      "రాన్": 6308,
      "రాస్య": 6309,
      "fir": 6310,
      "▁Temple": 6311,
      ".\n15": 6312,
      "▁Routledge": 6313,
      "▁Minister": 6314,
      "▁Machine": 6315,
      "▁కే": 6316,
      "▁కోర్": 6317,
      "త్రిక": 6318,
      "▁B.": 6319,
      "▁B.;": 6320,
      "igration": 6321,
      "క్స్": 6322,
      "క్కి": 6323,
      "s.com": 6324,
      "23.": 6325,
      "▁వె": 6326,
      "▁వంట": 6327,
      "▁led": 6328,
      "▁\"Sanskrit": 6329,
      "269,": 6330,
      "indhi": 6331,
      "_की_": 6332,
      "ంగో": 6333,
      "▁సముద్ర": 6334,
      "▁సూచ": 6335,
      "▁సౌక": 6336,
      "▁*India": 6337,
      "लाओ": 6338,
      "लादेश": 6339,
      "1991": 6340,
      "్రామ": 6341,
      "ंगाना": 6342,
      "upt": 6343,
      "bert": 6344,
      "287,": 6345,
      "tudi": 6346,
      "▁ele": 6347,
      "▁Greek": 6348,
      "▁Health": 6349,
      "▁N.": 6350,
      "▁Nicobar": 6351,
      "ండా": 6352,
      "ండీ": 6353,
      "ండ్య": 6354,
      "_in_New": 6355,
      "తాజ్": 6356,
      "_A7C": 6357,
      "నాథ": 6358,
      "▁third": 6359,
      "సింది.": 6360,
      "త్వా": 6361,
      "▁व्यवस्था": 6362,
      "▁[SAARC": 6363,
      "-85": 6364,
      "ody": 6365,
      "▁(సా.శ.16": 6366,
      "▁1962": 6367,
      "ులు?action=edit&redlink=1": 6368,
      "▁అభి": 6369,
      "ountain": 6370,
      "▁[\"G": 6371,
      "▁ప్రజా": 6372,
      "తం?action=edit&redlink=1": 6373,
      "▁\"Chin": 6374,
      "17.": 6375,
      "osphere": 6376,
      "hailand": 6377,
      "good": 6378,
      "▁Organization": 6379,
      "ड़ियाँ": 6380,
      "పూర్": 6381,
      "▁[Central": 6382,
      "aph": 6383,
      "_Pradesh": 6384,
      "ప్రిల్": 6385,
      "ngineering": 6386,
      "▁उन": 6387,
      "▁[978-81": 6388,
      "▁ఉంట": 6389,
      "▁ఉత్తర": 6390,
      "काता": 6391,
      "](https://books.google.com/books?id=3TRtDwAAQBAJ&pg=PA": 6392,
      "_महासागर": 6393,
      "▁సామా": 6394,
      "వాద": 6395,
      "▁शक्त": 6396,
      "విధ": 6397,
      "▁विस्त": 6398,
      "▁विदेश": 6399,
      "ార్ఖండ్": 6400,
      "క్షరాస్య": 6401,
      "▁इंडिया": 6402,
      "▁\"Special:BookSources/978-81": 6403,
      "](Special:BookSources/978-81": 6404,
      "otal": 6405,
      "%20A": 6406,
      "त्ति": 6407,
      "ogri": 6408,
      "_March": 6409,
      "709": 6410,
      "పుర": 6411,
      "▁నడి": 6412,
      "2011religion": 6413,
      "जापान": 6414,
      "▁ఇండియా": 6415,
      "▁now": 6416,
      "मन्त": 6417,
      "ंडोन": 6418,
      "हात्": 6419,
      "▁राज्यक्षेत्र": 6420,
      "▁areas": 6421,
      "_and_union_territ": 6422,
      "%2C5": 6423,
      "%2C_India": 6424,
      "ोलकाता": 6425,
      "▁क्षेत्रों": 6426,
      "గుప్": 6427,
      "డుకు": 6428,
      "నేషియా": 6429,
      "र्मू": 6430,
      "_River": 6431,
      "▁Ved": 6432,
      "्राष्ट्र": 6433,
      "▁[![The": 6434,
      "aking": 6435,
      "ంగాణ": 6436,
      "article": 6437,
      "▁జన": 6438,
      "లియా": 6439,
      "▁\"अंग्रेज़ी": 6440,
      "▁ప్రాచ": 6441,
      "▁విభ": 6442,
      "▁వివిధ": 6443,
      "▁సంఘ": 6444,
      "49-2": 6445,
      "ंध्र": 6446,
      "ameez": 6447,
      "ండిచ్చేరి": 6448,
      "▁like": 6449,
      "भिज्ञा": 6450,
      "feb": 6451,
      "ोगरी": 6452,
      "▁main": 6453,
      "सभक": 6454,
      "svg": 6455,
      "Asher2006": 6456,
      "AsherAsher2006": 6457,
      "▁1998": 6458,
      "▁[ब्रिटिश": 6459,
      "▁जनता": 6460,
      "_128": 6461,
      "egistrar": 6462,
      "▁देश\")": 6463,
      "िशा": 6464,
      "मेव": 6465,
      "▁[Kulke": 6466,
      "amese": 6467,
      "జీరియా": 6468,
      "पुरम": 6469,
      "do-G": 6470,
      "33-7": 6471,
      "orthographic": 6472,
      "ంకేతి": 6473,
      "हरिया": 6474,
      "వేలీ": 6475,
      "▁contin": 6476,
      "alaysia": 6477,
      "DwAAQBAJ": 6478,
      "ष्ण": 6479,
      "द्रौपदी": 6480,
      "▁मेला\"),": 6481,
      "_Fund": 6482,
      "_Force": 6483,
      "ंग्रेज़ी_भाषा": 6484,
      "rates": 6485,
      "ालीन": 6486,
      "బియా": 6487,
      "▁change": 6488,
      "ukesh": 6489,
      "न्नई": 6490,
      "श्चिमी": 6491,
      "▁river": 6492,
      "ynth": 6493,
      "जराय": 6494,
      "డామన్": 6495,
      "▁రాష్ట్రపతి": 6496,
      "national-language": 6497,
      "▁agriculture": 6498,
      "▁मानसून": 6499,
      "త్రిపుర": 6500,
      "_కాల": 6501,
      "समिया": 6502,
      "▁రైల్వే": 6503,
      "ographical": 6504,
      "య్యూ": 6505,
      "త్తీస్": 6506,
      "▁ప్రదేశ్](https://te.wikipedia.org/wiki/": 6507,
      "▁disc": 6508,
      "▁[Archived](https://web.archive.org/web/20210": 6509,
      "నాగాలా": 6510,
      "िपीठ": 6511,
      "▁पुरालेखित।,": 6512,
      "▁[संयुक्त": 6513,
      "▁\"జమ్మూ": 6514,
      "▁These": 6515,
      "्वतन्त्र": 6516,
      "बंधन": 6517,
      "–123": 6518,
      "ambodia": 6519,
      "▁పాకిస్తాన్": 6520,
      "▁subcontinent\")": 6521,
      "ually": 6522,
      "tected": 6523,
      "కోవ": 6524,
      "కోబార్": 6525,
      "](https://te.wikipedia.org/wiki/జమ్మూ": 6526,
      "lock": 6527,
      "local_": 6528,
      "ల్లవ": 6529,
      "तेलंगाना": 6530,
      "▁देख": 6531,
      "_और_संघ": 6532,
      "क्सफोर्ड": 6533,
      "▁commun": 6534,
      "▁Force": 6535,
      "▁2020.": 6536,
      "त्यमेव": 6537,
      "▁युग": 6538,
      "▁\"संस्कृत": 6539,
      "रक्षा": 6540,
      "हित्य": 6541,
      "▁species": 6542,
      "chedule": 6543,
      "emocratic": 6544,
      "_के_आधार_पर_भारत_के_राज्यों_की_सूची": 6545,
      "రేబియా": 6546,
      "_एशिया": 6547,
      "f/f": 6548,
      "▁rock": 6549,
      "ominion": 6550,
      "▁2025.": 6551,
      "టాక్": 6552,
      "▁|\n\nCategory:": 6553,
      "ataraj": 6554,
      "▁People": 6555,
      "▁మాత్ర": 6556,
      "్రిటిష్": 6557,
      "▁बहुत": 6558,
      "_from": 6559,
      "janta": 6560,
      "వెను": 6561,
      "ూచి": 6562,
      "▁Chinese": 6563,
      "భారతదేశ_రాష్ట్రాలు,_కేంద్రపాలిత_ప్రాంత": 6564,
      "sites/": 6565,
      "tiger": 6566,
      "...]": 6567,
      "ప్పటిక": 6568,
      ".htm)": 6569,
      "▁emerg": 6570,
      "▁(1,269,": 6571,
      "లేషియా": 6572,
      "▁ओर": 6573,
      "्यानमार": 6574,
      "_projection": 6575,
      "▁majority": 6576,
      "▁3,287,": 6577,
      "▁మొదల": 6578,
      "Chennai": 6579,
      "▁occup": 6580,
      "Library_of_": 6581,
      "Sharma2007": 6582,
      "ద్యు": 6583,
      "▁చిత్ర": 6584,
      "ద్వీప్": 6585,
      "▁ఉపఖండ": 6586,
      "ంటుంది.": 6587,
      "▁దేశంలోని": 6588,
      "▁కాంగ్రెసు": 6589,
      "दिभ्स": 6590,
      "▁appro": 6591,
      "त्रिपुरा": 6592,
      "▁निर्माण": 6593,
      "Report.pdf)": 6594,
      "Taj_Mah": 6595,
      "इप्रस": 6596,
      "ఆగష్టు": 6597,
      "లక్షద్వీప్": 6598,
      "హాయం:": 6599,
      "ీకరణ": 6600,
      "ోల్‌కా": 6601,
      "-0-415": 6602,
      "al_in_March": 6603,
      "प्राचीन": 6604,
      "మిజోరా": 6605,
      "तेलुगू": 6606,
      "lurton199": 6607,
      "ravidian": 6608,
      "elangana": 6609,
      "भीमबेट": 6610,
      "▁employed": 6611,
      "झारखंड": 6612,
      "ర్యానా": 6613,
      "▁[ఢిల్లీ](https://te.wikipedia.org/wiki/ఢిల్లీ": 6614,
      "▁\"पाकिस्तान\")": 6615,
      "reedom": 6616,
      "razil": 6617,
      "టిబెట్": 6618,
      "మెరికా": 6619,
      "nclm.nic.in/shared/linkimages/NCL": 6620,
      "Census2011religion": 6621,
      "छत्तीसगढ़": 6622,
      "िंधु": 6623,
      "lothing": 6624,
      "ाल्दिभ्स": 6625,
      "ब्बत": 6626,
      "▁widely": 6627,
      "▁[अंग्रेज़ी](https://hi.wikipedia.org/wiki/अंग्रेज़ी_भाषा": 6628,
      "Home_Affairs": 6629,
      "IFT": 6630,
      "బడ్డీ": 6631,
      "ేరళ": 6632,
      "▁कुछ": 6633,
      "్రైస్త": 6634,
      "ండమాన్": 6635,
      "▁नेतृत्व": 6636,
      "ెలవుదిన": 6637,
      "▁./श्रेणी:जानकारीबौक्स\\_देशमे\\_अज्ञात\\_मापदण्डसभ\\_सहितक\\_पृष्ठसभ#l": 6638,
      "olnar": 6639,
      "hattis": 6640,
      "_Commission": 6641,
      "alayalam": 6642,
      "M50thReport.pdf)": 6643,
      "Tarlo1996": 6644,
      "runei": 6645,
      "च्छ": 6646,
      "दर्श": 6647,
      "ुवैत": 6648,
      "తెలంగాణ": 6649,
      "ెన్నై": 6650,
      "‌మహల్": 6651,
      "India_Goa": 6652,
      "acmillan": 6653,
      "ingapore": 6654,
      "tudies": 6655,
      "_in_New_Delhi": 6656,
      "తాజ్‌మహల్": 6657,
      "క్షరాస్యత": 6658,
      "हात्मा": 6659,
      "_and_union_territories": 6660,
      "भिज्ञापक": 6661,
      "orthographic_projection": 6662,
      "నాగాలాండ్": 6663,
      "्वतन्त्रता": 6664,
      "](https://te.wikipedia.org/wiki/జమ్మూ_కాశ్మీ": 6665,
      "Taj_Mahal_in_March": 6666,
      "ోల్‌కాతా": 6667,
      "भीमबेटका": 6668,
      "nclm.nic.in/shared/linkimages/NCLM50thReport.pdf)": 6669,
      "Taj_Mahal_in_March_2004": 6670,
      "&ss": 6671,
      "*](https://": 6672,
      "-H": 6673,
      "-e": 6674,
      "-w": 6675,
      "-ex": 6676,
      "-II": 6677,
      ".ed": 6678,
      "/national": 6679,
      "0/0": 6680,
      "220": 6681,
      "2),": 6682,
      "226": 6683,
      "2nd": 6684,
      "3]](https://en.wikipedia.org/wiki/India#cite_note-": 6685,
      "5-3": 6686,
      "58)": 6687,
      "7]](https://en.wikipedia.org/wiki/India#cite_note-": 6688,
      "8]](https://en.wikipedia.org/wiki/India#cite_note-FOOTNOTE": 6689,
      "96": 6690,
      "A5%": 6691,
      "C)": 6692,
      "Countries": 6693,
      "Constituent": 6694,
      "EN": 6695,
      "Forest": 6696,
      "Hindustan": 6697,
      "Jha": 6698,
      "Language": 6699,
      "Mumbai": 6700,
      "Petraglia": 6701,
      "States": 6702,
      "Wright": 6703,
      "\\*": 6704,
      "_त": 6705,
      "_श": 6706,
      "_15": 6707,
      "_per": 6708,
      "_2011": 6709,
      "_Union": 6710,
      "_term": 6711,
      "_धर्म": 6712,
      "aci": 6713,
      "cu": 6714,
      "cod": 6715,
      "ctive": 6716,
      "dy": 6717,
      "eu": 6718,
      "gion": 6719,
      "hā": 6720,
      "mall": 6721,
      "rian": 6722,
      "rban": 6723,
      "sm": 6724,
      "s_in_India": 6725,
      "sources": 6726,
      "tou": 6727,
      "tate": 6728,
      "u,": 6729,
      "ui": 6730,
      "uries": 6731,
      "upee": 6732,
      "y=": 6733,
      "ँची": 6734,
      "टना": 6735,
      "बल": 6736,
      "मरी": 6737,
      "स्व": 6738,
      "हम": 6739,
      "ेड": 6740,
      "ोला": 6741,
      "्थ": 6742,
      "४७": 6743,
      "५०": 6744,
      "▁:": 6745,
      "▁औ": 6746,
      "▁40": 6747,
      "▁7.": 6748,
      "▁9.": 6749,
      "▁ob": 6750,
      "▁भाग": 6751,
      "org": 6752,
      "orpor": 6753,
      "pen": 6754,
      "](https://id": 6755,
      "▁[राज्य": 6756,
      "ened": 6757,
      "enous": 6758,
      "▁\"ग": 6759,
      "inated": 6760,
      "onk": 6761,
      "tification": 6762,
      "er-": 6763,
      "alace": 6764,
      "alk:": 6765,
      "hir": 6766,
      "reen": 6767,
      "्रु": 6768,
      "▁काल": 6769,
      "▁कॉंग्रेस": 6770,
      "](https://hi.wikipedia.org/wiki/दक्षिण": 6771,
      "](https://hi.wikipedia.org/wiki/तमिल": 6772,
      "itar": 6773,
      "▁(b": 6774,
      "▁(in": 6775,
      "▁(भारत": 6776,
      "▁(19": 6777,
      "▁(2007": 6778,
      "▁(India)": 6779,
      "▁(nominal)": 6780,
      "asht": 6781,
      "▁सन्": 6782,
      "▁सित": 6783,
      "▁समाज": 6784,
      "▁India\"](https://web.archive.org/web/201": 6785,
      "19.": 6786,
      "▁independence": 6787,
      "raman": 6788,
      "▁मई": 6789,
      "▁मन": 6790,
      "▁मिल": 6791,
      "▁prac": 6792,
      "ries/": 6793,
      "etwork": 6794,
      "ation,": 6795,
      "ations/": 6796,
      "acred": 6797,
      "ing,": 6798,
      "▁cre": 6799,
      "▁census": 6800,
      "amy": 6801,
      "ustice": 6802,
      "▁Agency": 6803,
      "-138": 6804,
      "▁Sub": 6805,
      "▁band": 6806,
      "▁based": 6807,
      "▁talk:": 6808,
      "lose": 6809,
      "ेंगल": 6810,
      "▁Policy": 6811,
      "](https://hi.wikipedia.org/wiki/भारत_के_राज्य": 6812,
      "rove": 6813,
      "rowing": 6814,
      "rocod": 6815,
      "▁men": 6816,
      "ilk": 6817,
      "ily": 6818,
      "ilbert": 6819,
      "▁[↑](https://en.wikipedia.org/wiki/India#cite_": 6820,
      "▁divis": 6821,
      "ourts": 6822,
      "ourism": 6823,
      "ficient": 6824,
      "](https://en.wikipedia.org/wiki/India#cite_ref-vatsyayan-lord_43": 6825,
      "▁अधिराज्य": 6826,
      "▁Trade": 6827,
      ".\n14": 6828,
      "▁Mar": 6829,
      "▁Michael": 6830,
      "▁में,": 6831,
      "न्ध": 6832,
      "igved": 6833,
      "igenous": 6834,
      "s.\"\n": 6835,
      "▁जब": 6836,
      "▁Dance": 6837,
      "भाई": 6838,
      "भाष": 6839,
      "▁last": 6840,
      "▁\"Special:EditPage/Template:": 6841,
      "indic": 6842,
      "24.": 6843,
      "lymp": 6844,
      "india.com/": 6845,
      "▁Economy": 6846,
      "▁Emer": 6847,
      "oung": 6848,
      "Univers": 6849,
      "beral": 6850,
      "▁east": 6851,
      "▁Ganges": 6852,
      "▁Gujarat": 6853,
      "▁Hindus": 6854,
      "▁नव": 6855,
      "opland": 6856,
      "▁republic": 6857,
      "▁though": 6858,
      "](https://en.wikipedia.org/wiki/India#CITEREFM": 6859,
      "ablish": 6860,
      "▁2007.": 6861,
      "▁आन्दोल": 6862,
      "akers": 6863,
      "22.": 6864,
      "1857": 6865,
      "▁ne": 6866,
      "▁[Singh": 6867,
      "_of_India.svg": 6868,
      "ountries/": 6869,
      "▁Informatics": 6870,
      "40px-": 6871,
      "▁\"Central": 6872,
      "▁\"Climate": 6873,
      "osa": 6874,
      "▁गई": 6875,
      "▁गठ": 6876,
      "_and_Development": 6877,
      "▁[China": 6878,
      "](https://en.wikipedia.org/wiki/China": 6879,
      "aving": 6880,
      "▁[मध्य": 6881,
      "▁\"Ministry": 6882,
      "](Special:EditPage/Template:": 6883,
      "▁become": 6884,
      "म्भ": 6885,
      "▁शहर": 6886,
      "](https://en.wikipedia.org/wiki/Ministry_of_": 6887,
      "संधान": 6888,
      "▁\"Special:BookSources/978-0-521": 6889,
      "](Special:BookSources/978-0-521": 6890,
      "a_M": 6891,
      "undarb": 6892,
      "Harv\\_and\\_Sfn\\_no-target\\_errors\n": 6893,
      "▁str": 6894,
      "]](https://hi.wikipedia.org/wiki/भारत#cite_note-pib": 6895,
      "ajas": 6896,
      "rchitecture": 6897,
      "_के_अ": 6898,
      "orea": 6899,
      "lled": 6900,
      "ज़ा": 6901,
      "_Times": 6902,
      "▁\"Template": 6903,
      "398": 6904,
      "▁लिये": 6905,
      "▁ancient": 6906,
      "▁\"Delhi": 6907,
      "](https://en.wikipedia.org/wiki/Template_": 6908,
      "धानमन्त": 6909,
      "](https://en.wikipedia.org/wiki/Delhi": 6910,
      "_Gandhi": 6911,
      "▁Vedic": 6912,
      "्रांस": 6913,
      "_Nations": 6914,
      "1):": 6915,
      "▁\"Routledge": 6916,
      "](https://en.wikipedia.org/wiki/Routledge": 6917,
      "▁2011](https://en.wikipedia.org/wiki/India#CITEREF": 6918,
      "▁[Tamil": 6919,
      "▁[Routledge": 6920,
      "angetic": 6921,
      "▁यूनिवर्सिट": 6922,
      "▁चार": 6923,
      "▁जनजाति": 6924,
      "▁\"International": 6925,
      "_Economic": 6926,
      "-symbols": 6927,
      "▁centre": 6928,
      "▁centuries": 6929,
      "857": 6930,
      "iteracy": 6931,
      "▁2014](https://en.wikipedia.org/wiki/India#CITEREF": 6932,
      "▁tea": 6933,
      "▁[History": 6934,
      "▁Urdu": 6935,
      "▁US$": 6936,
      "▁(2017).": 6937,
      "▁adop": 6938,
      "▁milk": 6939,
      "▁military": 6940,
      "▁millen": 6941,
      "▁leg": 6942,
      "mblem": 6943,
      "▁घाटी": 6944,
      "isease": 6945,
      "रुणा": 6946,
      "न्नड़": 6947,
      "▁[Fisher": 6948,
      "▁मानव": 6949,
      "▁मान्यता": 6950,
      "ights": 6951,
      "▁[t](https://en.wikipedia.org/wiki/Template_": 6952,
      "▁plain": 6953,
      "▁parliament": 6954,
      "▁known": 6955,
      "ोर्ट": 6956,
      "talk:": 6957,
      "गुजराती": 6958,
      "ronom": 6959,
      "▁sever": 6960,
      "▁2019.\n": 6961,
      "▁State": 6962,
      "▁[e](Special:EditPage/Template:": 6963,
      "▁[v](Template:": 6964,
      "▁numbers": 6965,
      "त्पत्ति": 6966,
      "ctorate": 6967,
      "राष्ट्रपति\")": 6968,
      "a/a": 6969,
      "ेरल": 6970,
      "-level": 6971,
      "वादी": 6972,
      "▁Buddha": 6973,
      "Fisher2018),": 6974,
      "▁upper": 6975,
      "तुर्क": 6976,
      "Environment": 6977,
      "cms).": 6978,
      "▁refor": 6979,
      "▁2018](https://en.wikipedia.org/wiki/India#CITEREFFisher2018),": 6980,
      "वार्ता:": 6981,
      "arliamentary": 6982,
      "राठी": 6983,
      "CS1\\_": 6984,
      "▁दृष्ट": 6985,
      "merican": 6986,
      "-language\\_text": 6987,
      "-language\\_sources": 6988,
      "▁(2018),": 6989,
      "▁Conservation": 6990,
      "ताजमह": 6991,
      "▁Francis": 6992,
      "](https://en.wikipedia.org/wiki/History_of_": 6993,
      "▁Monetary": 6994,
      "default": 6995,
      "ibetan": 6996,
      "_न्या": 6997,
      "ield": 6998,
      "present": 6999,
      "aranth": 7000,
      ".worldbank.org/": 7001,
      "forcement": 7002,
      "▁वार्ता:": 7003,
      "imachal": 7004,
      "▁India](https://en.wikipedia.org/wiki/Government_of_India": 7005,
      "▁direct": 7006,
      "tlas": 7007,
      "▁[पाकिस्तान](https://hi.wikipedia.org/wiki/पाकिस्तान": 7008,
      "Allchin": 7009,
      "disha": 7010,
      "▁zone": 7011,
      "▁domestic": 7012,
      "▁1994](https://en.wikipedia.org/wiki/India#CITEREF": 7013,
      "न्तर्राष्ट्र": 7014,
      "struction": 7015,
      "▁Games\")": 7016,
      "क्षरता": 7017,
      "▁engineering": 7018,
      "limate_": 7019,
      "▁village": 7020,
      "8+5": 7021,
      "first": 7022,
      ".edu": 7023,
      "/national-symbols": 7024,
      "PetragliaAllchin": 7025,
      "Wright2010": 7026,
      "touch": 7027,
      "▁(भारत)\")": 7028,
      "▁(2007).": 7029,
      "ेंगलुरु": 7030,
      "▁[China](https://en.wikipedia.org/wiki/China": 7031,
      "undarbans": 7032,
      "▁\"Routledge\").": 7033,
      "▁[Routledge](https://en.wikipedia.org/wiki/Routledge": 7034,
      "▁यूनिवर्सिटी": 7035,
      "▁millennium": 7036,
      "▁[t](https://en.wikipedia.org/wiki/Template_talk:": 7037,
      "-language\\_sources\\_(": 7038,
      "\"](http://": 7039,
      "%)": 7040,
      ")[": 7041,
      "*](https://web.archive.org/web/201": 7042,
      "*](http://": 7043,
      "-O": 7044,
      "-j": 7045,
      "-v": 7046,
      "-th": 7047,
      "-no": 7048,
      "-st": 7049,
      "-27": 7050,
      "-asia": 7051,
      ".\"": 7052,
      ".0": 7053,
      "/M": 7054,
      "/we": 7055,
      "01": 7056,
      "09": 7057,
      "1st": 7058,
      "1%20": 7059,
      "2-0": 7060,
      "2-10": 7061,
      "4-3": 7062,
      "528": 7063,
      "5–సా.శ.": 7064,
      "623": 7065,
      "83": 7066,
      "=`": 7067,
      "Al": 7068,
      "Bharat": 7069,
      "CCN": 7070,
      "David": 7071,
      "E﻿": 7072,
      "Flag": 7073,
      "KI": 7074,
      "MAAJ": 7075,
      "Official": 7076,
      "Republic": 7077,
      "SN": 7078,
      "South_Asia": 7079,
      "Th": 7080,
      "Web": 7081,
      "YS": 7082,
      "_అ": 7083,
      "_ఎ": 7084,
      "_ర": 7085,
      "_10": 7086,
      "_50": 7087,
      "_18": 7088,
      "_14": 7089,
      "_45": 7090,
      "_యు": 7091,
      "_World": 7092,
      "_రాజ": 7093,
      "_శాస్త్ర": 7094,
      "a-b": 7095,
      "business/": 7096,
      "cia": 7097,
      "cted": 7098,
      "caste": 7099,
      "dat": 7100,
      "egh": 7101,
      "fun": 7102,
      "gar": 7103,
      "ji": 7104,
      "mas": 7105,
      "more": 7106,
      "music": 7107,
      "oz": 7108,
      "ogo": 7109,
      "po": 7110,
      "rince": 7111,
      "search": 7112,
      "ten": 7113,
      "tle": 7114,
      "tation": 7115,
      "top": 7116,
      "uin": 7117,
      "vin": 7118,
      "voy": 7119,
      "wa": 7120,
      "went": 7121,
      "xim": 7122,
      "ंतर": 7123,
      "ईल": 7124,
      "गत": 7125,
      "घर": 7126,
      "घालय": 7127,
      "चें": 7128,
      "तुल": 7129,
      "थियार": 7130,
      "दय": 7131,
      "फगान": 7132,
      "भौ": 7133,
      "मस": 7134,
      "मिर": 7135,
      "र-": 7136,
      "ल](https://hi.wikipedia.org/wiki/": 7137,
      "वर्": 7138,
      "वेश": 7139,
      "वैद": 7140,
      "ृष": 7141,
      "ेन्द्र": 7142,
      "ोट": 7143,
      "्लेट": 7144,
      "२६": 7145,
      "ఒలి": 7146,
      "కూ": 7147,
      "క్ర": 7148,
      "గే": 7149,
      "గ్ర": 7150,
      "గతి": 7151,
      "జు": 7152,
      "ఞాన": 7153,
      "టం": 7154,
      "టన్": 7155,
      "పో": 7156,
      "పచ్చ": 7157,
      "మ్య": 7158,
      "యి.": 7159,
      "యాలో": 7160,
      "లె": 7161,
      "వై": 7162,
      "వ్": 7163,
      "వత్స": 7164,
      "వృద్ధి": 7165,
      "శ్రమ": 7166,
      "సీ": 7167,
      "స్రా": 7168,
      "హక": 7169,
      "హన": 7170,
      "ాంగ": 7171,
      "ీఠ": 7172,
      "ువు": 7173,
      "ూపా": 7174,
      "ృష్": 7175,
      "ెహ": 7176,
      "ెట్": 7177,
      "ేన": 7178,
      "ైద": 7179,
      "ైగా": 7180,
      "ొయ": 7181,
      "–4": 7182,
      "▁,": 7183,
      "▁X": 7184,
      "▁ऐ": 7185,
      "▁९": 7186,
      "▁ఘ": 7187,
      "▁ve": 7188,
      "▁web": 7189,
      "▁జా": 7190,
      "▁education": 7191,
      "orial": 7192,
      "orig": 7193,
      "orse": 7194,
      "▁[గ": 7195,
      "▁[కు": 7196,
      "▁[పా": 7197,
      "▁[దక్షిణ": 7198,
      "▁[హిందూ": 7199,
      "▁[పాకిస్తాన్": 7200,
      "▁[ముంబై": 7201,
      "▁[गुजरात": 7202,
      "ene": 7203,
      "enjo": 7204,
      "▁\"ई": 7205,
      "▁\"గ": 7206,
      "▁\"రాష్ట్ర": 7207,
      "▁\"దక్షిణ": 7208,
      "▁\"राष्ट्रीय": 7209,
      "▁\"మూస": 7210,
      "▁\"హిందూ": 7211,
      "▁\"పాకిస్తాన్": 7212,
      "▁\"ప్రపంచ": 7213,
      "▁\"ముంబై": 7214,
      "▁\"వర్గం:Harv": 7215,
      "▁\"ప్రత్యేక:EditPage/మూస:": 7216,
      "\")\n\n[![](https://upload.wikimedia.org/wikipedia/commons/thumb/": 7217,
      "inan": 7218,
      "anada": 7219,
      "till": 7220,
      "](https://en.wikipedia.org/wiki/U": 7221,
      "India.pdf)": 7222,
      "eri": 7223,
      "ergy": 7224,
      "arv": 7225,
      "arrow": 7226,
      "es.": 7227,
      "reater": 7228,
      "ारो": 7229,
      "ारम्भ": 7230,
      "isl": 7231,
      "ising": 7232,
      "isted": 7233,
      "](https://hi.wikipedia.org/wiki/ज": 7234,
      "](https://hi.wikipedia.org/wiki/ह": 7235,
      "cid": 7236,
      "cir": 7237,
      "▁often": 7238,
      "](https://te.wikipedia.org/wiki/మూస": 7239,
      "](https://te.wikipedia.org/wiki/జన": 7240,
      "](https://te.wikipedia.org/wiki/వర్గం:Harv": 7241,
      "](https://te.wikipedia.org/wiki/ప్రత్యేక:EditPage/మూస:": 7242,
      "▁(2011": 7243,
      "ick": 7244,
      "ico": 7245,
      "ices": 7246,
      "lex": 7247,
      "▁inte": 7248,
      "▁inter": 7249,
      "rak": 7250,
      "raw": 7251,
      "▁su": 7252,
      "▁set": 7253,
      "▁served": 7254,
      "▁मह": 7255,
      "▁poll": 7256,
      "్యాలె": 7257,
      "am\")": 7258,
      "▁पहु": 7259,
      "\\_n": 7260,
      "\\_क": 7261,
      "\\_par": 7262,
      "▁Asher": 7263,
      "▁After": 7264,
      "ाने": 7265,
      "ref-10": 7266,
      "స్వా": 7267,
      "note-10": 7268,
      "▁festi": 7269,
      "▁పొ": 7270,
      "▁పద్ధ": 7271,
      "▁పైగా": 7272,
      "[[18": 7273,
      "ad-": 7274,
      "adakh": 7275,
      "\n\n**": 7276,
      "ర్ద": 7277,
      "ర్ష": 7278,
      "ेंस": 7279,
      "న్ను": 7280,
      "ume": 7281,
      "▁हिम": 7282,
      "](https://hi.wikipedia.org/wiki/भारत_स": 7283,
      "comp": 7284,
      "cha": 7285,
      "hek": 7286,
      "▁middle": 7287,
      "▁market": 7288,
      "illi": 7289,
      "▁do": 7290,
      "▁dist": 7291,
      "రాజ్యం": 7292,
      "una": 7293,
      "unle": 7294,
      "unknown": 7295,
      "00–": 7296,
      "]](https://en.wikipedia.org/wiki/India#cite_note-1": 7297,
      "fied": 7298,
      "▁अमेर": 7299,
      "▁अलग": 7300,
      ".\n18": 7301,
      ".\n36": 7302,
      ".\n38": 7303,
      "ola": 7304,
      "21.": 7305,
      "▁Report": 7306,
      "▁Mana": 7307,
      "లోయ": 7308,
      "▁కేంద్ర": 7309,
      "▁కంపెనీ": 7310,
      "न्डिया": 7311,
      "ాలుగా": 7312,
      "ालैंड": 7313,
      "▁Br": 7314,
      "▁Book": 7315,
      "emen": 7316,
      "క్తి": 7317,
      "विय": 7318,
      "▁వై": 7319,
      "▁जिन": 7320,
      "▁Day": 7321,
      "▁दी": 7322,
      "▁दोन": 7323,
      "107": 7324,
      "भाजन": 7325,
      "263": 7326,
      "ayana": 7327,
      "ayashi": 7328,
      "▁సమా": 7329,
      "▁సర్వ": 7330,
      "▁సుల్తాన": 7331,
      "ional": 7332,
      "लाका": 7333,
      "▁प्रधानमंत्री": 7334,
      "ldlife": 7335,
      "▁भारतक": 7336,
      "▁बन": 7337,
      "▁बंगाल": 7338,
      "▁बड़े": 7339,
      "upreme": 7340,
      "bercu": 7341,
      "▁even": 7342,
      "▁early": 7343,
      "▁Gana": 7344,
      "▁Home": 7345,
      "▁Ne": 7346,
      "▁Nuclear": 7347,
      "_से": 7348,
      "](https://mai.wikipedia.org/wiki/अ": 7349,
      "](https://mai.wikipedia.org/wiki/सं": 7350,
      "_in_the": 7351,
      "-345": 7352,
      "-349": 7353,
      "-405": 7354,
      "opal": 7355,
      "▁सेवा": 7356,
      "▁చర్చ:": 7357,
      "తాక": 7358,
      "_Air": 7359,
      "_Agency": 7360,
      "నాట": 7361,
      "తి](https://te.wikipedia.org/wiki/": 7362,
      "▁religions": 7363,
      "▁काम": 7364,
      "न्दा": 7365,
      "abel": 7366,
      "▁2008](https://en.wikipedia.org/wiki/India#CITEREF": 7367,
      "astronom": 7368,
      "▁आ॔": 7369,
      "geoh": 7370,
      "▁nation": 7371,
      ".in)\n-": 7372,
      "establish": 7373,
      "▁John": 7374,
      "–సా.శ.14": 7375,
      "–సా.శ.1947)": 7376,
      "29)": 7377,
      "▁అను": 7378,
      "15/": 7379,
      "ిక,": 7380,
      "135": 7381,
      "AAMAAJ": 7382,
      "ensive": 7383,
      "haw": 7384,
      "रीब": 7385,
      "▁गेल": 7386,
      "270": 7387,
      "▁Indians": 7388,
      "ంచింది.": 7389,
      "కుపచ్చ": 7390,
      "▁On": 7391,
      "](https://te.wikipedia.org/wiki/భారతదేశం#CITEREF": 7392,
      ".jpg)\n\n[": 7393,
      "▁Law": 7394,
      "▁Library": 7395,
      "lated": 7396,
      "▁[Craven": 7397,
      "▁Asia:": 7398,
      "▁West": 7399,
      "▁Wiley": 7400,
      "ింది": 7401,
      "▁एशिया\")": 7402,
      "](https://en.wikipedia.org/wiki/Central_": 7403,
      "हिम": 7404,
      "▁संस्थान": 7405,
      "▁ఆకుపచ్చ": 7406,
      "▁రే": 7407,
      "▁परि": 7408,
      "▁being": 7409,
      "म्प्र": 7410,
      "మాతర": 7411,
      "మాబాద్": 7412,
      "రుపు": 7413,
      "రుగు": 7414,
      "-2\").": 7415,
      "संबर": 7416,
      "ियन": 7417,
      "alls": 7418,
      "allav": 7419,
      "▁ass": 7420,
      "dira": 7421,
      "▁रक्षा": 7422,
      "-7mar": 7423,
      "earning": 7424,
      "](https://hi.wikipedia.org/wiki/भारत#cite_ref-pib": 7425,
      "](https://hi.wikipedia.org/wiki/भारत#cite_ref-langoff": 7426,
      "]](https://hi.wikipedia.org/wiki/भारत#cite_note-langoff-1": 7427,
      "राष्ट्रीय_": 7428,
      "_Data_": 7429,
      "▁\"मध्य": 7430,
      "ommaraj": 7431,
      "ी](https://hi.wikipedia.org/wiki/म": 7432,
      "▁\"Tamil": 7433,
      "िसमस": 7434,
      "▁నది": 7435,
      "మించ": 7436,
      "▁[Pakistan": 7437,
      "▁తన": 7438,
      "▁deb": 7439,
      "▁deve": 7440,
      "स्तान\")": 7441,
      "kee": 7442,
      "▁\"En": 7443,
      "हिन्द_महासागर": 7444,
      "▁expectancy": 7445,
      "हाँ": 7446,
      "▁any": 7447,
      "_and_N": 7448,
      "](https://en.wikipedia.org/wiki/En": 7449,
      "34238": 7450,
      "ం](https://te.wikipedia.org/wiki/అ": 7451,
      "ం](https://te.wikipedia.org/wiki/క": 7452,
      "▁rise": 7453,
      "▁rural": 7454,
      "▁rupee": 7455,
      "▁\"Ge": 7456,
      "ంబంధ": 7457,
      "issions": 7458,
      "ोली": 7459,
      ")\n\n[": 7460,
      "ians": 7461,
      "గువ": 7462,
      "▁[GDP": 7463,
      "_Ram": 7464,
      "▁V.": 7465,
      "▁Vol": 7466,
      "hinese": 7467,
      "▁[Delhi": 7468,
      "](https://hi.wikipedia.org/wiki/मध्य": 7469,
      "▁సంస్థ": 7470,
      "▁సంవత్స": 7471,
      "డియా": 7472,
      "ंधी": 7473,
      "ameters": 7474,
      "▁mathematics": 7475,
      "ట్లు": 7476,
      "ational_P": 7477,
      "_చర్చ:": 7478,
      "general": 7479,
      "▁\"మధ్య": 7480,
      "120]](https://hi.wikipedia.org/wiki/भारत#cite_note-langoff-1": 7481,
      "▁ఎన్నిక": 7482,
      "▁ఎన్ను": 7483,
      "▁1997": 7484,
      "▁[మధ్య": 7485,
      "▁(సా.శ.పూ.1200": 7486,
      "▁గణ": 7487,
      "▁\"Indus": 7488,
      "](https://te.wikipedia.org/wiki/మధ్య": 7489,
      "▁central": 7490,
      "amily": 7491,
      "\"](https://web.archive.org/web/20140": 7492,
      "द्यालय": 7493,
      "पुर\")": 7494,
      "%E0%B0%": 7495,
      "गुप्त": 7496,
      "](https://en.wikipedia.org/wiki/Indus": 7497,
      "▁./వర్గం:Pages\\_using\\_": 7498,
      "▁./వర్గం:Harv\\_and\\_Sfn\\_no-target\\_errors\n": 7499,
      "ohenjo": 7500,
      "▁uni": 7501,
      "-daro": 7502,
      "efficient": 7503,
      "]](https://te.wikipedia.org/wiki/భారతదేశం#cite_note-india.gov.in": 7504,
      ".nic.in)\n-": 7505,
      "_సంగీతం": 7506,
      "▁where": 7507,
      "▁whose": 7508,
      "न्तु": 7509,
      "▁[Ludden": 7510,
      "▁[International": 7511,
      "ారిగా": 7512,
      "నాయక": 7513,
      "/articles/": 7514,
      "▁घाट": 7515,
      "▁घोष": 7516,
      "హాస": 7517,
      "न्नड": 7518,
      "▁rights": 7519,
      "▁[उत्तर": 7520,
      "దావరి": 7521,
      "2014-p": 7522,
      "▁కూడిన": 7523,
      "▁([help](https://te.wikipedia.org/wiki/వర్గం:Harv": 7524,
      "▁నిర్వ": 7525,
      "▁స్థా": 7526,
      "orities/": 7527,
      "▁\"उत्तर": 7528,
      "▁निर्भर": 7529,
      "▁notation": 7530,
      "](https://hi.wikipedia.org/wiki/पश्चिम": 7531,
      "](https://hi.wikipedia.org/wiki/पंजाब": 7532,
      "▁consid": 7533,
      "▁CITEREFStein1998": 7534,
      "▁CITEREFSingh2009": 7535,
      "▁trade": 7536,
      "Stein1998),": 7537,
      "Singh2009),": 7538,
      "▁[t](https://te.wikipedia.org/wiki/మూస": 7539,
      "ों_की_सूची?action=edit&redlink=1": 7540,
      "son2014-p": 7541,
      "निर्भर": 7542,
      "ోర్చు": 7543,
      "](https://mai.wikipedia.org/wiki/भारतीय_": 7544,
      "ారు.\n\n": 7545,
      "oorkee": 7546,
      "_dance": 7547,
      "శాఖ": 7548,
      "▁Short": 7549,
      "▁Shankar": 7550,
      "unjabi": 7551,
      "KulkeRothermund200": 7552,
      "KulkeRothermund2016": 7553,
      "बंधीय": 7554,
      "▁[జమ్మూ": 7555,
      "▁\"Official": 7556,
      "▁పాత్ర": 7557,
      "](https://hi.wikipedia.org/wiki/भारत#CITEREFStein1998),": 7558,
      "](https://hi.wikipedia.org/wiki/भारत#CITEREFSingh2009),": 7559,
      "ropped": 7560,
      "क्षेत्रफल": 7561,
      "▁थे": 7562,
      "▁\"చైనా": 7563,
      "▁century,": 7564,
      "_War": 7565,
      "▁ఒకటి": 7566,
      "ृष्ण": 7567,
      "▁[e](https://te.wikipedia.org/wiki/ప్రత్యేక:EditPage/మూస:": 7568,
      "▁[v](https://te.wikipedia.org/wiki/మూస:": 7569,
      "జ్ఞాన": 7570,
      "▁पाकिस्तान": 7571,
      "▁\"संयुक्त": 7572,
      "2001),": 7573,
      "▁न्यायाधीश": 7574,
      "cott": 7575,
      "▁speakers": 7576,
      "▁मंदिर\")": 7577,
      "rupee": 7578,
      "नागालैंड": 7579,
      "▁2009](https://hi.wikipedia.org/wiki/भारत#CITEREFSingh2009),": 7580,
      "▁మార్గాలు": 7581,
      ".net": 7582,
      "▁include": 7583,
      "▁2025.\n": 7584,
      "▁वर्षों": 7585,
      "Wikipedia:": 7586,
      "/authorities/": 7587,
      "_1960": 7588,
      "రోపా": 7589,
      "IAF": 7590,
      "cms)": 7591,
      "▁భారతదేశానికి": 7592,
      "▁Art": 7593,
      "▁మతము\")": 7594,
      "▁మతము\"),": 7595,
      "▁उत्तर-प": 7596,
      "athakali": 7597,
      "क्रम": 7598,
      "रोहर": 7599,
      "_पार्ट": 7600,
      "riage": 7601,
      "भुटान": 7602,
      "ీనంలో": 7603,
      "▁ईसा": 7604,
      "▁According": 7605,
      "▁ప్రపంచంలో": 7606,
      "▁ప్రభుత్వ": 7607,
      "▁ప్రభుత్వం": 7608,
      "/articleshow/5": 7609,
      "%20%20%20%20%20%20%20%20": 7610,
      "▁Environmental": 7611,
      "Ludden2014": 7612,
      "d/d": 7613,
      "▁Africa": 7614,
      "-of-india-": 7615,
      "▁दृश्य": 7616,
      "▁major": 7617,
      "▁మొదటి": 7618,
      "union_territory": 7619,
      "IMFWEO.IN-": 7620,
      "▁cities": 7621,
      "▁(2018).": 7622,
      "11934238": 7623,
      "lackb": 7624,
      "क_सूची": 7625,
      "స్లామాబాద్": 7626,
      "▁పాలన": 7627,
      "▁కార్య": 7628,
      "▁కారణంగా": 7629,
      "▁కలిగి": 7630,
      "anorama": 7631,
      "arlung": 7632,
      "losis": 7633,
      "▁सिनेमा\"),": 7634,
      "శోకుడు": 7635,
      "retary": 7636,
      "itzel": 7637,
      "raditional": 7638,
      "rigonom": 7639,
      "▁జరిగిన": 7640,
      "వ](https://te.wikipedia.org/wiki/List_of_countries_by": 7641,
      "▁local": 7642,
      "▁Before": 7643,
      "▁contribu": 7644,
      "८५७": 7645,
      "▁[భారతదేశంలో": 7646,
      "▁(2006).": 7647,
      "▁होती": 7648,
      "▁अर्थव्यवस्था": 7649,
      "ecutive": 7650,
      "▁అనేక": 7651,
      "undamental": 7652,
      "▁ఎక్కువగా": 7653,
      "▁भूमिका": 7654,
      "awaharlal": 7655,
      "▁caused": 7656,
      "emographics": 7657,
      "▁दिसंबर": 7658,
      ".uk/": 7659,
      "AGE": 7660,
      "cogni": 7661,
      "▁oldest": 7662,
      "▁स्तर": 7663,
      "rajbhasha": 7664,
      "\\_country\\_with\\_": 7665,
      "▁వారసత్వ": 7666,
      "▁ప్రస్తుతం": 7667,
      "▁రోడ్": 7668,
      "a_dynasty": 7669,
      "▁తరువాత": 7670,
      "▁బెంగాల్": 7671,
      "_Lanka": 7672,
      "ంపిక్": 7673,
      "▁Minorities,": 7674,
      "](https://en.wikipedia.org/wiki/Mughal_Empire": 7675,
      "countries_and_dependencies_by_population": 7676,
      "टिबंधीय": 7677,
      "ार्वभौ": 7678,
      "▁व्यापार": 7679,
      "▁[India](https://en.wikipedia.org/wiki/India)": 7680,
      "harmaceutical": 7681,
      "ంస్కృతం": 7682,
      "▁`|": 7683,
      "▁దినోత్సవ": 7684,
      "s.com/": 7685,
      "▁వెబ్": 7686,
      "▁సౌకర్య": 7687,
      "ండీగఢ్": 7688,
      "▁అభివృద్ధి": 7689,
      "▁నడిపించ": 7690,
      "గుప్త": 7691,
      "▁1998](https://hi.wikipedia.org/wiki/भारत#CITEREFStein1998),": 7692,
      "భారతదేశ_రాష్ట్రాలు,_కేంద్రపాలిత_ప్రాంతాలు": 7693,
      "sites/default": 7694,
      "Library_of_Congress2004": 7695,
      "hattisgarh": 7696,
      "Tarlo1996-26": 7697,
      "_and_union_territories_of_India": 7698,
      "onkani": 7699,
      "▁[↑](https://en.wikipedia.org/wiki/India#cite_ref-1": 7700,
      "indicator": 7701,
      "beralisation": 7702,
      "ajasthan": 7703,
      "रुणाचल": 7704,
      "Davidson2014-p": 7705,
      "चेंज": 7706,
      "फगानिस्तान": 7707,
      "वैदिक": 7708,
      "ృష్ణా": 7709,
      "inancial": 7710,
      "\\_parameters": 7711,
      "▁Asher,": 7712,
      "berculosis": 7713,
      "geohack": 7714,
      "-7mar2011": 7715,
      "](https://hi.wikipedia.org/wiki/भारत#cite_ref-langoff_128": 7716,
      "120]](https://hi.wikipedia.org/wiki/भारत#cite_note-langoff-128)": 7717,
      "▁(సా.శ.పూ.1200–సా.శ.పూ.": 7718,
      "ohenjo-daro": 7719,
      "▁([help](https://te.wikipedia.org/wiki/వర్గం:Harv_and_Sfn_template_errors": 7720,
      "▁[t](https://te.wikipedia.org/wiki/మూస_చర్చ:": 7721,
      "ోర్చుగ": 7722,
      "ार्वभौम": 7723,
      "sites/default/files/": 7724,
      "\\_parameters#": 7725,
      "\"](https://web.archive.org/web/20": 7726,
      "%,": 7727,
      "*),": 7728,
      "*](https://www.": 7729,
      ",_India": 7730,
      "-h": 7731,
      "-कार": 7732,
      "-se": 7733,
      ".t": 7734,
      ".JPG": 7735,
      "0-0)": 7736,
      "0&s": 7737,
      "223": 7738,
      "2-7": 7739,
      "324": 7740,
      "3-3": 7741,
      "317": 7742,
      "3-7": 7743,
      "41": 7744,
      "4_": 7745,
      "4-0": 7746,
      "428": 7747,
      "415": 7748,
      "41)": 7749,
      "534": 7750,
      "6-1": 7751,
      "613": 7752,
      "9-6": 7753,
      ":IN": 7754,
      ";\n": 7755,
      "=20": 7756,
      "BI": 7757,
      "Bangalore": 7758,
      "CA": 7759,
      "DR": 7760,
      "Ge": 7761,
      "Gum": 7762,
      "HQ": 7763,
      "K:": 7764,
      "Mon": 7765,
      "PT": 7766,
      "Pe": 7767,
      "Political_": 7768,
      "Raj": 7769,
      "Sanchi": 7770,
      "VII": 7771,
      "Yum": 7772,
      "Zor": 7773,
      "_201": 7774,
      "_28": 7775,
      "_con": 7776,
      "_di": 7777,
      "_2008": 7778,
      "_history": 7779,
      "aur": 7780,
      "aver": 7781,
      "a](https://en.wikipedia.org/wiki/A": 7782,
      "audi": 7783,
      "bd": 7784,
      "bird": 7785,
      "cutt": 7786,
      "dministrative": 7787,
      "digenous": 7788,
      "ful": 7789,
      "fos": 7790,
      "gration": 7791,
      "ize": 7792,
      "jha": 7793,
      "jayan": 7794,
      "lé": 7795,
      "mand": 7796,
      "ocal": 7797,
      "pi": 7798,
      "p.org/": 7799,
      "put": 7800,
      "pper": 7801,
      "post": 7802,
      "rang": 7803,
      "rance": 7804,
      "sc": 7805,
      "sol": 7806,
      "spect": 7807,
      "wat": 7808,
      "water": 7809,
      "ypr": 7810,
      "ंश": 7811,
      "इटे": 7812,
      "उद्": 7813,
      "ऍथ": 7814,
      "ऑक्सफोर्ड": 7815,
      "क\")": 7816,
      "कृति": 7817,
      "ख़": 7818,
      "ख्": 7819,
      "गध": 7820,
      "जपुरी": 7821,
      "जिस्ट": 7822,
      "टिका": 7823,
      "तार": 7824,
      "ताल": 7825,
      "तंत्र": 7826,
      "थम": 7827,
      "दल": 7828,
      "दान": 7829,
      "दमन": 7830,
      "नो": 7831,
      "नोल": 7832,
      "पीय": 7833,
      "फिल": 7834,
      "फ्रांस": 7835,
      "बू": 7836,
      "बे": 7837,
      "मत": 7838,
      "मृत": 7839,
      "रि": 7840,
      "लक": 7841,
      "लिम": 7842,
      "शत": 7843,
      "शोक": 7844,
      "हें": 7845,
      "ाबा": 7846,
      "िड़": 7847,
      "ुरा": 7848,
      "ूबर": 7849,
      "ेद": 7850,
      "ेघालय": 7851,
      "ैली": 7852,
      "ॉग": 7853,
      "ोण": 7854,
      "ोडिया": 7855,
      "–11": 7856,
      "–17": 7857,
      "–Pakistan": 7858,
      "▁रा": 7859,
      "▁ter": 7860,
      "▁ना": 7861,
      "▁35": 7862,
      "▁4.": 7863,
      "▁5.": 7864,
      "▁8.": 7865,
      "▁times": 7866,
      "▁establish": 7867,
      "ora": 7868,
      "oria": 7869,
      "orary": 7870,
      "orne": 7871,
      "tte": 7872,
      "tten": 7873,
      "](https://www": 7874,
      "▁[श": 7875,
      "▁[28": 7876,
      "▁[चीन": 7877,
      "▁[Harle": 7878,
      "teri": 7879,
      "▁\"साँच": 7880,
      "▁\"साँचा:": 7881,
      "\")1": 7882,
      "inal_": 7883,
      "in-O": 7884,
      "anch": 7885,
      "onal": 7886,
      "Infos": 7887,
      "tives": 7888,
      "though": 7889,
      "](https://en.wikipedia.org/wiki/19": 7890,
      "Indian_": 7891,
      "ers,": 7892,
      "ardian": 7893,
      "2022": 7894,
      "alcutt": 7895,
      "hili": 7896,
      "reet": 7897,
      "is.": 7898,
      "isa": 7899,
      "istic": 7900,
      "isak": 7901,
      "istered": 7902,
      "tion,": 7903,
      "्रार": 7904,
      "](https://hi.wikipedia.org/wiki/ग": 7905,
      "](https://hi.wikipedia.org/wiki/न": 7906,
      "](https://hi.wikipedia.org/wiki/साँच": 7907,
      "](https://hi.wikipedia.org/wiki/साँचा:": 7908,
      "ed\\_": 7909,
      "anding": 7910,
      "ito": 7911,
      "itor": 7912,
      "itchi": 7913,
      "▁(J": 7914,
      "▁(union": 7915,
      "▁(a)": 7916,
      "▁(1):": 7917,
      "ought": 7918,
      "asian": 7919,
      "](https://en.wikipedia.org/wiki/Indian": 7920,
      "▁सक": 7921,
      "▁सूच": 7922,
      "▁सम्प": 7923,
      "▁सीमा": 7924,
      "ica": 7925,
      "▁India](https://en.wikipedia.org/wiki/P": 7926,
      "▁India\"](https://": 7927,
      "let": 7928,
      "19)": 7929,
      "▁ins": 7930,
      "▁inequality": 7931,
      "rame": 7932,
      "▁so": 7933,
      "▁sim": 7934,
      "▁sultanate": 7935,
      "▁small": 7936,
      "▁size": 7937,
      "्यूरो": 7938,
      "▁मन्दिर": 7939,
      "▁pur": 7940,
      "▁plate": 7941,
      "▁policy": 7942,
      "-05": 7943,
      "-026": 7944,
      "riy": 7945,
      "ricity": 7946,
      "ritten": 7947,
      "etnam": 7948,
      "▁char": 7949,
      "▁cap": 7950,
      "रात": 7951,
      "uscript": 7952,
      "▁पड़": 7953,
      "▁प्लेट": 7954,
      "aten": 7955,
      "atri": 7956,
      "atch": 7957,
      "\\_c": 7958,
      "\\_Wiki": 7959,
      "▁Am": 7960,
      "▁Summit": 7961,
      "▁Singh": 7962,
      "▁Social": 7963,
      "▁Schwartzberg": 7964,
      "▁Schedule": 7965,
      "▁fl": 7966,
      "\n\n\n": 7967,
      "▁trib": 7968,
      "▁turn": 7969,
      "urg": 7970,
      "uran": 7971,
      "urasia": 7972,
      "urasian": 7973,
      "istorical": 7974,
      "▁Portal": 7975,
      "▁Prin": 7976,
      "▁हाला": 7977,
      "▁हथियार": 7978,
      "▁12.": 7979,
      "_of_N": 7980,
      "chol": 7981,
      "ially": 7982,
      "rotected": 7983,
      "▁mark": 7984,
      "ilt": 7985,
      "ilar": 7986,
      "stat": 7987,
      "िकी": 7988,
      "िकिस्तान": 7989,
      "▁data": 7990,
      "▁2016.": 7991,
      "▁Te": 7992,
      "▁Tim": 7993,
      ".\n9": 7994,
      ".\n23": 7995,
      "olice": 7996,
      "▁Ram": 7997,
      "▁Modi": 7998,
      "▁Movement": 7999,
      "?action=edit&redlink=1#": 8000,
      "mentin-O": 8001,
      "▁air": 8002,
      "results": 8003,
      "ालर": 8004,
      "▁Bharat": 8005,
      "▁Bengali": 8006,
      "igni": 8007,
      "emi": 8008,
      "▁ज़": 8009,
      "▁Dyson": 8010,
      "▁Desert": 8011,
      "नाइटे": 8012,
      "103": 8013,
      "1016": 8014,
      "_(union_territory": 8015,
      "261": 8016,
      "▁India\").[[": 8017,
      "▁India\")*.": 8018,
      "24_A7C": 8019,
      "▁[↑](https://en.wikipedia.org/wiki/India#cite_ref-Combined": 8020,
      "▁E.": 8021,
      "▁*A": 8022,
      "1999": 8023,
      "▁बार": 8024,
      "▁बने": 8025,
      "▁ब्रिटिश": 8026,
      "▁बड़ा": 8027,
      "तिब्बत": 8028,
      "्टॉक": 8029,
      "▁eaten": 8030,
      "_सागर": 8031,
      "▁नौसेना": 8032,
      "forest": 8033,
      "_in_T": 8034,
      "-459": 8035,
      "113": 8036,
      "ell": 8037,
      "elated": 8038,
      "elug": 8039,
      "508": 8040,
      "_Army": 8041,
      "▁remain": 8042,
      "▁three": 8043,
      "](https://en.wikipedia.org/wiki/India#CITEREFCraven1997": 8044,
      "abin": 8045,
      "abour": 8046,
      "▁2009.": 8047,
      "▁आधुनिक": 8048,
      "aks": 8049,
      "akes": 8050,
      "2221": 8051,
      "▁वे": 8052,
      "▁वृद्ध": 8053,
      "308": 8054,
      "क्षण": 8055,
      "क्षद्वीप": 8056,
      "▁[Sri": 8057,
      "▁Journal": 8058,
      "▁1970": 8059,
      "▁1980": 8060,
      ".[[23": 8061,
      "epali": 8062,
      "15)": 8063,
      "▁[\"H": 8064,
      "स्‍": 8065,
      "स्लिम": 8066,
      "ained": 8067,
      "▁around": 8068,
      "ension": 8069,
      "16]](https://en.wikipedia.org/wiki/India#cite_note-": 8070,
      "▁गान": 8071,
      "_and_T": 8072,
      "थाईल": 8073,
      "▁Organisation": 8074,
      "▁Olymp": 8075,
      "_Census": 8076,
      "▁L.": 8077,
      "▁London": 8078,
      "-981": 8079,
      "▁[978-0-19-9": 8080,
      "](https://en.wikipedia.org/wiki/Climate_": 8081,
      "uccess": 8082,
      "काउ": 8083,
      "कांक": 8084,
      "▁[महाराष्ट्र": 8085,
      "]](https://hi.wikipedia.org/wiki/भारत#cite_note-10": 8086,
      "नेई": 8087,
      "▁[*H": 8088,
      "▁[*M": 8089,
      "िलि": 8090,
      "ongol": 8091,
      "▁[↑](https://en.wikipedia.org/wiki/India#cite_ref-FOOTNOTEM": 8092,
      "▁[↑](https://en.wikipedia.org/wiki/India#cite_ref-FOOTNOTECraven1997": 8093,
      "▁[Mughal": 8094,
      "ummary": 8095,
      "लेब": 8096,
      "लेस": 8097,
      "-2](Special:BookSources/978-1": 8098,
      "▁विज्ञान": 8099,
      "laci": 8100,
      "ysHQ": 8101,
      "▁[BRICS": 8102,
      "alled": 8103,
      "▁\"Special:BookSources/978-0-19-9": 8104,
      "](Special:BookSources/978-0-19-9": 8105,
      "a_1": 8106,
      "▁\"BRICS": 8107,
      ")[[13": 8108,
      "▁original](http://": 8109,
      "सां": 8110,
      "-5196": 8111,
      "artial": 8112,
      "Harvard": 8113,
      "384": 8114,
      "_Modi": 8115,
      "▁\"महाराष्ट्र": 8116,
      "ी](https://hi.wikipedia.org/wiki/प": 8117,
      "_Tamil_Nadu": 8118,
      "2006),": 8119,
      "39-4": 8120,
      "temporary": 8121,
      "irectorate": 8122,
      "ंडमान": 8123,
      "▁\"East": 8124,
      "▁\"Economic": 8125,
      "▁लिया": 8126,
      "sey": 8127,
      "](https://en.wikipedia.org/wiki/Economic": 8128,
      "▁क्षेत्र,": 8129,
      ")\n\nA": 8130,
      ")\n\nIndia": 8131,
      "_Games": 8132,
      "परेशन": 8133,
      "▁\"New": 8134,
      "्रांति": 8135,
      "_National_P": 8136,
      "_Bank": 8137,
      "किर्ग": 8138,
      "ible": 8139,
      "ibli": 8140,
      "▁करना": 8141,
      "▁करता": 8142,
      "▁\"Russia": 8143,
      "](https://hi.wikipedia.org/wiki/महाराष्ट्र": 8144,
      "](https://en.wikipedia.org/wiki/Russia": 8145,
      "ultur": 8146,
      "ultures": 8147,
      "49-0": 8148,
      "▁[2](https://hi.wikipedia.org/wiki/भारत#cite_ref-FOOTNOTE": 8149,
      "▁[1](https://hi.wikipedia.org/wiki/भारत#cite_ref-FOOTNOTE": 8150,
      "ublications/": 8151,
      "▁[Russia": 8152,
      "neworld": 8153,
      "ंदोल": 8154,
      "▁भाषा\")[[": 8155,
      "मीरात": 8156,
      "मेनि": 8157,
      "economy": 8158,
      "मान्य": 8159,
      "times.indiatimes.com/": 8160,
      "%E0%A5%": 8161,
      "](https://en.wikipedia.org/wiki/International_": 8162,
      "ohan": 8163,
      "रबै": 8164,
      "ोकोस": 8165,
      "▁(2016).": 8166,
      "राष्ट्रीय_स": 8167,
      "alaya": 8168,
      "atis": 8169,
      "हारजिस्ट": 8170,
      "▁subject": 8171,
      "Stein201011": 8172,
      "▁सूची\"))": 8173,
      "_भारतीय_": 8174,
      "ervice": 8175,
      "▁वर्षा": 8176,
      "/profile": 8177,
      "_capita": 8178,
      "ा_वार्ता:": 8179,
      "▁घरेलू": 8180,
      "-in-india": 8181,
      "▁2007\n": 8182,
      "_Indian_subcontinent": 8183,
      "▁./Category:Articles\\_contain": 8184,
      "समूह": 8185,
      "oriz": 8186,
      "▁निभाई": 8187,
      "](https://hi.wikipedia.org/wiki/पूर्व": 8188,
      "2_22": 8189,
      "_relations": 8190,
      "ोर्नो": 8191,
      "▁2023.": 8192,
      "▁2023](https://en.wikipedia.org/wiki/India#CITEREF": 8193,
      "दाख": 8194,
      "िपि": 8195,
      "तिहासिक": 8196,
      "▁regional": 8197,
      "data.worldbank.org/": 8198,
      "▁[संस्कृत": 8199,
      "▁Religion": 8200,
      "230-345": 8201,
      "ppines": 8202,
      "oastrian": 8203,
      "▁था,": 8204,
      "ortality": 8205,
      "▁./श्रेणी:Harv\\_and\\_Sfn\\_no-target\\_errors\n8": 8206,
      "crimin": 8207,
      "place": 8208,
      "▁across": 8209,
      "ujarati": 8210,
      "▁music\")": 8211,
      "-107-026": 8212,
      "▁diversity": 8213,
      "जयनगर": 8214,
      "▁common": 8215,
      "▁about": 8216,
      "ID-19": 8217,
      "Vijayan": 8218,
      "Vietnam": 8219,
      "▁अपने": 8220,
      "ंपन": 8221,
      "ंपरा": 8222,
      "▁28.": 8223,
      "▁[↑](https://hi.wikipedia.org/wiki/भारत#cite_ref-10": 8224,
      "▁election\"),": 8225,
      "▁[*An": 8226,
      "pib.nic.in/": 8227,
      "▁Talbot,": 8228,
      "▁traditional": 8229,
      "▁well": 8230,
      "▁तटीय": 8231,
      "AsherTalbot2008),": 8232,
      "cat.org/": 8233,
      "al_Pradesh": 8234,
      "Harle1994),": 8235,
      "aharasht": 8236,
      "▁सदस": 8237,
      "Articles\\_with\\_": 8238,
      "ause": 8239,
      "▁ईस्ट": 8240,
      "▁highest": 8241,
      "▁longer": 8242,
      "_Shankar": 8243,
      "_News": 8244,
      "▁सुरक्षा": 8245,
      "resident_of_India": 8246,
      "िज़ोर": 8247,
      "ताजिकिस्तान": 8248,
      ".svg/40px-": 8249,
      "▁player": 8250,
      "Robb2011": 8251,
      "ilies": 8252,
      "पातकाल": 8253,
      "anoram": 8254,
      "▁जलवायु": 8255,
      "rishnan": 8256,
      "izor": 8257,
      "वासी": 8258,
      "▁Publishing\").": 8259,
      "▁texts": 8260,
      "timesofindia.indiatimes.com/india/": 8261,
      "ksai": 8262,
      "भोजपुरी": 8263,
      ".svg.png)](File:": 8264,
      "फाएं": 8265,
      "ार्कटिका": 8266,
      "स्लाम": 8267,
      "economictimes.indiatimes.com/": 8268,
      "hristianity": 8269,
      "Ministry_of_Home_Affairs": 8270,
      "hanghai": 8271,
      "▁mathematic": 8272,
      "▁राजनीतिक": 8273,
      "▁[पंजाब](https://hi.wikipedia.org/wiki/पंजाब": 8274,
      "b/b": 8275,
      "hutan": 8276,
      "▁historical": 8277,
      "▁colleges": 8278,
      "67733-7": 8279,
      "Zealand": 8280,
      "_राजवंश": 8281,
      "kbar": 8282,
      "ichell2000": 8283,
      "▁popular": 8284,
      "atabase": 8285,
      "▁जयते": 8286,
      "▁शुरू": 8287,
      "▁लगभग": 8288,
      "FrontView": 8289,
      "406]](https://en.wikipedia.org/wiki/India#cite_note-vatsyayan-lord-432)": 8290,
      "OVID-19": 8291,
      "खनऊ": 8292,
      "▁kingdoms": 8293,
      "▁following": 8294,
      "लाओस": 8295,
      "▁\"China\")": 8296,
      "do-Gangetic": 8297,
      "हरियाणा": 8298,
      "ataraja": 8299,
      "▁emerged": 8300,
      "▁approxim": 8301,
      "IFTY": 8302,
      "_तथा": 8303,
      "्रुनेई": 8304,
      "▁(b)": 8305,
      "▁divisions": 8306,
      "_के_अनुसार_देश": 8307,
      "▁adopted": 8308,
      "तुर्कमेनि": 8309,
      "▁1994](https://en.wikipedia.org/wiki/India#CITEREFHarle1994),": 8310,
      "touchability": 8311,
      "-language\\_sources\\_(en": 8312,
      "rincely": 8313,
      "wait": 8314,
      "wenty": 8315,
      "तुल्य": 8316,
      "ृषि": 8317,
      "▁festival": 8318,
      "▁दोनों": 8319,
      "हिमालय": 8320,
      "▁developed": 8321,
      "▁1997](https://en.wikipedia.org/wiki/India#CITEREFCraven1997": 8322,
      "_पार्टी": 8323,
      "-काराबा": 8324,
      "Gumpa": 8325,
      "Sanchi2": 8326,
      "Yumthang": 8327,
      "Zoroastrian": 8328,
      "lémentin-O": 8329,
      "yprus": 8330,
      "ऍथनोल": 8331,
      "बेकिस्तान": 8332,
      "िड़ला": 8333,
      "▁\"साँचा": 8334,
      "InfosysHQ": 8335,
      "alcutta": 8336,
      "hilippines": 8337,
      "](https://hi.wikipedia.org/wiki/साँचा_वार्ता:": 8338,
      "itchison": 8339,
      "▁similar": 8340,
      "ignific": 8341,
      "▁Dyson,": 8342,
      "नाइटेड": 8343,
      "_(union_territory)": 8344,
      "▁वृद्धि": 8345,
      "▁[महाराष्ट्र](https://hi.wikipedia.org/wiki/महाराष्ट्र": 8346,
      "▁\"महाराष्ट्र\")": 8347,
      "_National_Park": 8348,
      "हारजिस्ट्रार": 8349,
      "ोर्नो-काराबा": 8350,
      "data.worldbank.org/indicator": 8351,
      "230-34549-2": 8352,
      "-107-02649-0": 8353,
      "Vijayanagar": 8354,
      "aharashtra": 8355,
      "Ministry_of_Home_Affairs_1960": 8356,
      "▁1997](https://en.wikipedia.org/wiki/India#CITEREFCraven1997),": 8357,
      "lémentin-Ojha": 8358,
      "ऍथनोलॉग": 8359,
      "InfosysHQFrontView": 8360,
      "#S": 8361,
      "-Y": 8362,
      "-i": 8363,
      "-ve": 8364,
      "-for": 8365,
      "-पा": 8366,
      "-news/": 8367,
      "-गंगा": 8368,
      "-national-language": 8369,
      ".\n\n": 8370,
      "/in": 8371,
      "/hind": 8372,
      "/C-0": 8373,
      "1b": 8374,
      "126": 8375,
      "1-9": 8376,
      "2%29": 8377,
      "2]](https://te.wikipedia.org/wiki/భారతదేశం#cite_note-india.gov.in": 8378,
      "340": 8379,
      "314": 8380,
      "425": 8381,
      "6.\n": 8382,
      "6-9": 8383,
      "7-8": 8384,
      "8%": 8385,
      "96)": 8386,
      "9857": 8387,
      "AL": 8388,
      "AQAAQBAJ&pg=PA": 8389,
      "BRICS": 8390,
      "Co": 8391,
      "Col": 8392,
      "DS": 8393,
      "English": 8394,
      "Garg": 8395,
      "HDR": 8396,
      "Island": 8397,
      "Kumar": 8398,
      "L.": 8399,
      "LD": 8400,
      "LS": 8401,
      "MDD": 8402,
      "NI": 8403,
      "OL": 8404,
      "OLA": 8405,
      "RA": 8406,
      "SE": 8407,
      "Special:": 8408,
      "Search": 8409,
      "SYS": 8410,
      "Tab": 8411,
      "Tritsch": 8412,
      "US": 8413,
      "W00": 8414,
      "XLS": 8415,
      "[https": 8416,
      "_ఇ": 8417,
      "_ఫ": 8418,
      "_శ": 8419,
      "_te": 8420,
      "_స్": 8421,
      "_he": 8422,
      "_21": 8423,
      "_india": 8424,
      "_30": 8425,
      "_1.": 8426,
      "_39": 8427,
      "_ex": 8428,
      "_2009": 8429,
      "_2007": 8430,
      "_val": 8431,
      "_शासित": 8432,
      "_గాంధీ": 8433,
      "_द्वीप": 8434,
      "aidy": 8435,
      "bu": 8436,
      "business": 8437,
      "culture": 8438,
      "ees": 8439,
      "gi": 8440,
      "gions": 8441,
      "hl": 8442,
      "iN": 8443,
      "io": 8444,
      "iosphere": 8445,
      "jol": 8446,
      "jana": 8447,
      "k-e": 8448,
      "lc": 8449,
      "mc": 8450,
      "nus": 8451,
      "nised": 8452,
      "nins": 8453,
      "nathura": 8454,
      "ochi": 8455,
      "pro": 8456,
      "pub": 8457,
      "pts": 8458,
      "run": 8459,
      "ride": 8460,
      "s–": 8461,
      "sci": 8462,
      "tats": 8463,
      "uff": 8464,
      "via": 8465,
      "yr": 8466,
      "zard": 8467,
      "ædia": 8468,
      "ँकि": 8469,
      "ंथ": 8470,
      "आर": 8471,
      "ऊर्जा": 8472,
      "ऋतु": 8473,
      "ऑपरेशन": 8474,
      "क्": 8475,
      "कालीन": 8476,
      "ख्य": 8477,
      "त्या": 8478,
      "थाली": 8479,
      "दु": 8480,
      "द्रा": 8481,
      "दरण": 8482,
      "नत": 8483,
      "पूर्ण": 8484,
      "भरत": 8485,
      "मय": 8486,
      "र_": 8487,
      "ल्त": 8488,
      "वत": 8489,
      "विक": 8490,
      "वर्ष": 8491,
      "शी": 8492,
      "शील": 8493,
      "सत": 8494,
      "सङ्": 8495,
      "सैन": 8496,
      "ाय": 8497,
      "ीए": 8498,
      "ीर": 8499,
      "ुक": 8500,
      "ूस": 8501,
      "ोब": 8502,
      "्म": 8503,
      "१८५७": 8504,
      "२.": 8505,
      "४.": 8506,
      "ం**": 8507,
      "ం\").": 8508,
      "ఎల": 8509,
      "ఏప్రిల్": 8510,
      "జిల్": 8511,
      "డీ": 8512,
      "ఢా": 8513,
      "తై": 8514,
      "థారిటీ": 8515,
      "ధు": 8516,
      "పై": 8517,
      "పార": 8518,
      "ఫి": 8519,
      "బీ": 8520,
      "బై": 8521,
      "మల": 8522,
      "మంత": 8523,
      "యూ": 8524,
      "రల్": 8525,
      "వో": 8526,
      "వి.": 8527,
      "విక": 8528,
      "వార్": 8529,
      "వాల్": 8530,
      "వలస": 8531,
      "వలం": 8532,
      "వత్రిక": 8533,
      "శక": 8534,
      "శి": 8535,
      "శకు": 8536,
      "సై": 8537,
      "సార్": 8538,
      "హిత": 8539,
      "హోర్": 8540,
      "ితి": 8541,
      "ిటన్": 8542,
      "ీం": 8543,
      "ీర": 8544,
      "ుప్ర": 8545,
      "ుతున్న": 8546,
      "ృత్య": 8547,
      "ెర్": 8548,
      "ే,": 8549,
      "ైల్": 8550,
      "ైథి": 8551,
      "ోత్తర": 8552,
      "ౌర": 8553,
      "–29": 8554,
      "′′": 8555,
      "▁<": 8556,
      "▁x": 8557,
      "▁y": 8558,
      "▁झ": 8559,
      "▁७": 8560,
      "▁ధ": 8561,
      "▁er": 8562,
      "▁enti": 8563,
      "▁go": 8564,
      "▁op": 8565,
      "▁vers": 8566,
      "▁తి": 8567,
      "▁rit": 8568,
      "▁ద్": 8569,
      "▁గా": 8570,
      "▁70": 8571,
      "▁3.": 8572,
      "▁భూ": 8573,
      "▁దీవ": 8574,
      "▁దక్షిణాసియా": 8575,
      "▁own": 8576,
      "▁ద్వీ": 8577,
      "▁గుర్": 8578,
      "▁very": 8579,
      "▁టై": 8580,
      "▁డామన్": 8581,
      "win": 8582,
      "or\\_": 8583,
      "orbe": 8584,
      "ttac": 8585,
      "people": 8586,
      "](https://catal": 8587,
      "▁[6": 8588,
      "▁[ర": 8589,
      "▁[1947": 8590,
      "▁[लोक": 8591,
      "▁[హిందీ": 8592,
      "▁[భూటాన్": 8593,
      "▁[ఉత్తర": 8594,
      "▁[ఒడి": 8595,
      "▁[తూర్పు": 8596,
      "▁[రాష్ట్రపతి": 8597,
      "▁[తమిళనాడు": 8598,
      "▁[గణతంత్ర": 8599,
      "▁[శ్రీలంక": 8600,
      "▁[నేపాల్": 8601,
      "▁[...]": 8602,
      "en:": 8603,
      "enced": 8604,
      "tesv": 8605,
      "▁\"Y": 8606,
      "▁\"ची": 8607,
      "▁\"కు": 8608,
      "▁\"प्र": 8609,
      "▁\"హిందీ": 8610,
      "▁\"భూటాన్": 8611,
      "▁\"ఉత్తర": 8612,
      "▁\"ఒడి": 8613,
      "▁\"తూర్పు": 8614,
      "▁\"తమిళనాడు": 8615,
      "▁\"ప్రధానమంత్రి": 8616,
      "▁\"గణతంత్ర": 8617,
      "▁\"శ్రీలంక": 8618,
      "▁\"నేపాల్": 8619,
      "▁\"యునైటెడ్": 8620,
      "▁\"ISO": 8621,
      "▁\"विशेष:EditPage/साँचा:": 8622,
      "anal": 8623,
      "Ins": 8624,
      "til": 8625,
      "thme": 8626,
      "th_East_Asia_Summit": 8627,
      "erce": 8628,
      "arc": 8629,
      "arak": 8630,
      "2020": 8631,
      "alak": 8632,
      "algh": 8633,
      "hic": 8634,
      "hip": 8635,
      "ison": 8636,
      "isni": 8637,
      "ispu": 8638,
      "islative": 8639,
      "्रह": 8640,
      "▁कर्ज": 8641,
      "▁कएल": 8642,
      "](https://hi.wikipedia.org/wiki/य": 8643,
      "](https://hi.wikipedia.org/wiki/विशेष:EditPage/साँचा:": 8644,
      "edary": 8645,
      "omic": 8646,
      "andy": 8647,
      "andoor": 8648,
      "andemic": 8649,
      "▁-15": 8650,
      "ital": 8651,
      "](https://te.wikipedia.org/wiki/D": 8652,
      "](https://te.wikipedia.org/wiki/హ": 8653,
      "](https://te.wikipedia.org/wiki/పా": 8654,
      "](https://te.wikipedia.org/wiki/హిందూ": 8655,
      "](https://te.wikipedia.org/wiki/పాకిస్తాన్": 8656,
      "](https://te.wikipedia.org/wiki/హిందీ": 8657,
      "](https://te.wikipedia.org/wiki/ముంబై": 8658,
      "](https://te.wikipedia.org/wiki/భారతదేశ_": 8659,
      "](https://te.wikipedia.org/wiki/భూటాన్": 8660,
      "](https://te.wikipedia.org/wiki/ఒడి": 8661,
      "](https://te.wikipedia.org/wiki/తమిళనాడు": 8662,
      "](https://te.wikipedia.org/wiki/ప్రధానమంత్రి": 8663,
      "](https://te.wikipedia.org/wiki/శ్రీలంక": 8664,
      "](https://te.wikipedia.org/wiki/నేపాల్": 8665,
      "▁(2010": 8666,
      "▁(2003": 8667,
      "asu": 8668,
      "ases": 8669,
      "asp?": 8670,
      "▁सूर": 8671,
      "▁सङ्": 8672,
      "▁India](https://en.wikipedia.org/wiki/E": 8673,
      "▁India](https://en.wikipedia.org/wiki/D": 8674,
      "▁India\".": 8675,
      "lease": 8676,
      "190": 8677,
      "1967": 8678,
      "▁institu": 8679,
      "ooking": 8680,
      "nold": 8681,
      "entin": 8682,
      "ently": 8683,
      "▁sur": 8684,
      "▁sec": 8685,
      "▁shar": 8686,
      "▁science": 8687,
      "▁series": 8688,
      "▁signific": 8689,
      "▁महा": 8690,
      "▁मील": 8691,
      "▁मिला": 8692,
      "ateway": 8693,
      "ాలకు": 8694,
      "ాలతో": 8695,
      "▁pred": 8696,
      "▁poli": 8697,
      "20085": 8698,
      "ation)": 8699,
      "acter": 8700,
      "ing)": 8701,
      "ingle": 8702,
      "ing\\_S": 8703,
      "▁che": 8704,
      "▁constitution": 8705,
      "▁cricket": 8706,
      "▁cultural": 8707,
      "▁coral": 8708,
      "్యాయ": 8709,
      "amaj": 8710,
      "ush": 8711,
      "usion": 8712,
      "atpura": 8713,
      "\\_links": 8714,
      "\\_or\\_": 8715,
      "▁Ag": 8716,
      "▁Age": 8717,
      "▁Amb": 8718,
      "▁Cup": 8719,
      "▁Court": 8720,
      "▁Caves": 8721,
      "▁Century": 8722,
      "▁Cather": 8723,
      "▁Council": 8724,
      "ago": 8725,
      "agle": 8726,
      "agogue": 8727,
      "-100": 8728,
      "ानी": 8729,
      "స్?action=edit&redlink=1": 8730,
      "స్ట్": 8731,
      ").svg": 8732,
      "▁Ste": 8733,
      "▁Some": 8734,
      "▁SCO": 8735,
      "▁Sikh": 8736,
      "▁Studies": 8737,
      "▁ful": 8738,
      "▁flow": 8739,
      "▁feat": 8740,
      "▁పద": 8741,
      "▁పో": 8742,
      "▁పీఠ": 8743,
      "angra": 8744,
      "angla": 8745,
      "angrove": 8746,
      "ads": 8747,
      "adav": 8748,
      "\n\n1.": 8749,
      "▁bas": 8750,
      "▁bord": 8751,
      "▁bread": 8752,
      "▁border": 8753,
      "▁bott": 8754,
      "▁birth": 8755,
      "▁tril": 8756,
      "ర్కొ": 8757,
      "ర్జె": 8758,
      "ర్నేషనల్": 8759,
      "78)": 8760,
      "urther": 8761,
      "urmu": 8762,
      "న్క": 8763,
      "న్మ": 8764,
      "న్](https://te.wikipedia.org/wiki/": 8765,
      "maint:": 8766,
      "istrib": 8767,
      "uler": 8768,
      "▁11.": 8769,
      "_of_L": 8770,
      "chae": 8771,
      "heel": 8772,
      "roti": 8773,
      "roban": 8774,
      "▁mo": 8775,
      "▁met": 8776,
      "లుపు": 8777,
      "▁won": 8778,
      "▁dances": 8779,
      "▁dynast": 8780,
      "uns": 8781,
      "unbird": 8782,
      "00%20A": 8783,
      "▁2017.": 8784,
      "▁2013.": 8785,
      "▁2015.": 8786,
      "]](https://en.wikipedia.org/wiki/India#cite_note-4": 8787,
      "]](https://en.wikipedia.org/wiki/India#cite_note-Dyson2018": 8788,
      "▁Time": 8789,
      ".\n17": 8790,
      ".\n16": 8791,
      "tices": 8792,
      "▁Mani": 8793,
      "▁Mughal": 8794,
      ".శ.)": 8795,
      "లోన్": 8796,
      "లోమీ": 8797,
      "▁today": 8798,
      "▁కల్": 8799,
      "▁కంట": 8800,
      "▁కనుమ": 8801,
      "▁క్యాలె": 8802,
      "rested": 8803,
      "ాలు\n\n-": 8804,
      "▁Britannica": 8805,
      "▁Bangladesh": 8806,
      "▁Barb": 8807,
      "ందిన": 8808,
      "विद्यालय": 8809,
      "s.jpg": 8810,
      "నిడ్": 8811,
      "నియన్": 8812,
      "▁వు": 8813,
      "▁వంటి": 8814,
      "▁వహించ": 8815,
      "▁Dec": 8816,
      "▁दिव": 8817,
      "108": 8818,
      "_(orthographic_projection": 8819,
      "▁lists": 8820,
      "▁\"Sri": 8821,
      "iris": 8822,
      "independ": 8823,
      "240": 8824,
      "247": 8825,
      "ల్లో": 8826,
      "राजनी": 8827,
      "భారతదేశం\nCategory:": 8828,
      "▁[↑](https://en.wikipedia.org/wiki/India#cite_ref-3": 8829,
      "▁[↑](https://en.wikipedia.org/wiki/India#cite_ref-35": 8830,
      "▁Emi": 8831,
      "▁సార్": 8832,
      "▁సమాఖ్య": 8833,
      "▁సమర": 8834,
      "▁సైనిక": 8835,
      "▁సంబంధ": 8836,
      "▁మతం\")": 8837,
      "▁*2011": 8838,
      "लावा": 8839,
      "▁प्रण": 8840,
      "▁प्रभा": 8841,
      "▁प्रकार": 8842,
      "▁प्रशास": 8843,
      "▁प्रमाण": 8844,
      "▁प्रारम्भ": 8845,
      "్రాన్": 8846,
      "▁however,": 8847,
      "▁बनी": 8848,
      "▁बड़ी": 8849,
      "▁epic": 8850,
      "▁earliest": 8851,
      "_सभा": 8852,
      "_सिनेमा": 8853,
      "romedary": 8854,
      "▁निय": 8855,
      "▁नृत्य": 8856,
      "](https://mai.wikipedia.org/wiki/इ": 8857,
[...]
